{
  "version": "1.0",
  "truncation": null,
  "padding": null,
  "added_tokens": [
    {
      "id": 0,
      "content": "<|endoftext|>",
      "single_word": false,
      "lstrip": false,
      "rstrip": false,
      "normalized": false,
      "special": true
    },
    {
      "id": 1,
      "content": "<|padding|>",
      "single_word": false,
      "lstrip": false,
      "rstrip": false,
      "normalized": false,
      "special": true
    },
    {
      "id": 2,
      "content": "<|im_start|>",
      "single_word": false,
      "lstrip": false,
      "rstrip": false,
      "normalized": false,
      "special": true
    },
    {
      "id": 3,
      "content": "<|im_end|>",
      "single_word": false,
      "lstrip": false,
      "rstrip": false,
      "normalized": false,
      "special": true
    },
    {
      "id": 4,
      "content": "<|system|>",
      "single_word": false,
      "lstrip": false,
      "rstrip": false,
      "normalized": false,
      "special": true
    },
    {
      "id": 5,
      "content": "<|user|>",
      "single_word": false,
      "lstrip": false,
      "rstrip": false,
      "normalized": false,
      "special": true
    },
    {
      "id": 6,
      "content": "<|assistant|>",
      "single_word": false,
      "lstrip": false,
      "rstrip": false,
      "normalized": false,
      "special": true
    },
    {
      "id": 7,
      "content": "<|thought|>",
      "single_word": false,
      "lstrip": false,
      "rstrip": false,
      "normalized": false,
      "special": true
    },
    {
      "id": 8,
      "content": "<|/thought|>",
      "single_word": false,
      "lstrip": false,
      "rstrip": false,
      "normalized": false,
      "special": true
    }
  ],
  "normalizer": null,
  "pre_tokenizer": {
    "type": "ByteLevel",
    "add_prefix_space": false,
    "trim_offsets": true,
    "use_regex": true
  },
  "post_processor": null,
  "decoder": {
    "type": "ByteLevel",
    "add_prefix_space": true,
    "trim_offsets": true,
    "use_regex": true
  },
  "model": {
    "type": "BPE",
    "dropout": null,
    "unk_token": null,
    "continuing_subword_prefix": null,
    "end_of_word_suffix": null,
    "fuse_unk": false,
    "byte_fallback": false,
    "ignore_merges": false,
    "vocab": {
      "<|endoftext|>": 0,
      "<|padding|>": 1,
      "<|im_start|>": 2,
      "<|im_end|>": 3,
      "<|system|>": 4,
      "<|user|>": 5,
      "<|assistant|>": 6,
      "<|thought|>": 7,
      "<|/thought|>": 8,
      "\"": 9,
      "%": 10,
      "&": 11,
      "'": 12,
      "(": 13,
      ")": 14,
      "*": 15,
      "+": 16,
      ",": 17,
      "-": 18,
      ".": 19,
      "/": 20,
      "0": 21,
      "1": 22,
      "2": 23,
      "3": 24,
      "4": 25,
      "5": 26,
      "6": 27,
      "7": 28,
      "8": 29,
      "9": 30,
      ":": 31,
      ";": 32,
      "<": 33,
      "=": 34,
      ">": 35,
      "A": 36,
      "B": 37,
      "C": 38,
      "D": 39,
      "E": 40,
      "F": 41,
      "G": 42,
      "H": 43,
      "I": 44,
      "J": 45,
      "K": 46,
      "L": 47,
      "M": 48,
      "N": 49,
      "O": 50,
      "P": 51,
      "R": 52,
      "S": 53,
      "T": 54,
      "U": 55,
      "V": 56,
      "W": 57,
      "X": 58,
      "Z": 59,
      "[": 60,
      "]": 61,
      "^": 62,
      "a": 63,
      "b": 64,
      "c": 65,
      "d": 66,
      "e": 67,
      "f": 68,
      "g": 69,
      "h": 70,
      "i": 71,
      "k": 72,
      "l": 73,
      "m": 74,
      "n": 75,
      "o": 76,
      "p": 77,
      "q": 78,
      "r": 79,
      "s": 80,
      "t": 81,
      "u": 82,
      "v": 83,
      "w": 84,
      "x": 85,
      "y": 86,
      "z": 87,
      "¡": 88,
      "¢": 89,
      "£": 90,
      "¤": 91,
      "¥": 92,
      "¦": 93,
      "§": 94,
      "¨": 95,
      "©": 96,
      "ª": 97,
      "«": 98,
      "¬": 99,
      "®": 100,
      "¯": 101,
      "°": 102,
      "±": 103,
      "²": 104,
      "³": 105,
      "´": 106,
      "µ": 107,
      "¶": 108,
      "·": 109,
      "¸": 110,
      "¹": 111,
      "º": 112,
      "»": 113,
      "¼": 114,
      "½": 115,
      "¾": 116,
      "¿": 117,
      "Â": 118,
      "Ã": 119,
      "Î": 120,
      "Ï": 121,
      "â": 122,
      "ã": 123,
      "ä": 124,
      "å": 125,
      "æ": 126,
      "ç": 127,
      "è": 128,
      "é": 129,
      "ï": 130,
      "Ċ": 131,
      "Ġ": 132,
      "Ģ": 133,
      "ģ": 134,
      "Ĥ": 135,
      "ĥ": 136,
      "Ħ": 137,
      "ħ": 138,
      "Ĩ": 139,
      "ĩ": 140,
      "Ī": 141,
      "ī": 142,
      "Ĭ": 143,
      "ĭ": 144,
      "Į": 145,
      "į": 146,
      "İ": 147,
      "ı": 148,
      "Ĳ": 149,
      "ĳ": 150,
      "Ĵ": 151,
      "ĵ": 152,
      "Ķ": 153,
      "ķ": 154,
      "ĸ": 155,
      "Ĺ": 156,
      "ĺ": 157,
      "Ļ": 158,
      "ļ": 159,
      "Ľ": 160,
      "ľ": 161,
      "Ŀ": 162,
      "ŀ": 163,
      "Ł": 164,
      "ł": 165,
      "Ń": 166,
      "ä¸": 167,
      "ï¼": 168,
      "ï¼Į": 169,
      "çļ": 170,
      "çļĦ": 171,
      "äº": 172,
      "ä»": 173,
      "ãĢ": 174,
      "âĢ": 175,
      "ãĢĤ": 176,
      "è¿": 177,
      "æĺ": 178,
      "å¤": 179,
      "åı": 180,
      "åľ": 181,
      "æľ": 182,
      "ä¸Ģ": 183,
      "ä½": 184,
      "åĪ": 185,
      "æĺ¯": 186,
      "åĲ": 187,
      "åľ¨": 188,
      "äºĨ": 189,
      "å®": 190,
      "åħ": 191,
      "æĪ": 192,
      "è¿Ļ": 193,
      "å°": 194,
      "ä¹": 195,
      "âĢľ": 196,
      "âĢĿ": 197,
      "è¯": 198,
      "æľī": 199,
      "ä¸ª": 200,
      "ç»": 201,
      "ä¸į": 202,
      "æĹ": 203,
      "ĥ½": 204,
      "æĿ": 205,
      "çĶ": 206,
      "äºº": 207,
      "çľ": 208,
      "åĩ": 209,
      "å¾": 210,
      "ä»ĸ": 211,
      "åĪ°": 212,
      "æĸ": 213,
      "åŃ": 214,
      "ä¸Ń": 215,
      "åį": 216,
      "æī": 217,
      "ä¸Ĭ": 218,
      "å¥": 219,
      "ä»¬": 220,
      "åĽ": 221,
      "æĪĳ": 222,
      "å·": 223,
      "åĬ": 224,
      "å¼": 225,
      "çİ": 226,
      "åľ°": 227,
      "åĨ": 228,
      "ãĢĤâĢĿ": 229,
      "éĤ": 230,
      "æĹ¶": 231,
      "éĩ": 232,
      "è®": 233,
      "å¿": 234,
      "çĿ": 235,
      "å¤§": 236,
      "ä¼": 237,
      "æĿ¥": 238,
      "æ²": 239,
      "éĤ£": 240,
      "å¯": 241,
      "å¹": 242,
      "éĹ": 243,
      "éĢ": 244,
      "éĿ": 245,
      "çĿĢ": 246,
      "è¯´": 247,
      "æł": 248,
      "ç©": 249,
      "èĪ": 250,
      "èĥ½": 251,
      "çĽ": 252,
      "è§": 253,
      "åĩº": 254,
      "çľĭ": 255,
      "çļĦæ": 256,
      "èĢ": 257,
      "éĺ": 258,
      "åĴ": 259,
      "èµ": 260,
      "è¡": 261,
      "åĲİ": 262,
      "æĬ": 263,
      "åİ": 264,
      "æĥ": 265,
      "å¸": 266,
      "ä½ł": 267,
      "ç§": 268,
      "èĩ": 269,
      "å°±": 270,
      "åĴĮ": 271,
      "éĿ¢": 272,
      "ä¸Ģä¸ª": 273,
      "è¾": 274,
      "åº": 275,
      "çº": 276,
      "å½": 277,
      "çİ°": 278,
      "æŃ": 279,
      "éĥ½": 280,
      "æĢ": 281,
      "å¯¹": 282,
      "åı¯": 283,
      "æ²¡": 284,
      "å¤ª": 285,
      "å¥¹": 286,
      "ä¹Ł": 287,
      "æĺŁ": 288,
      "ç©º": 289,
      "åĳ": 290,
      "åī": 291,
      "è¿ĩ": 292,
      "ä½Ĩ": 293,
      "æµ": 294,
      "ä¸ĭ": 295,
      "ï¼Ł": 296,
      "éģ": 297,
      "å¿ĥ": 298,
      "ï¼ļ": 299,
      "çĲ": 300,
      "åıĳ": 301,
      "åŃĲ": 302,
      "ä¸º": 303,
      "æİ": 304,
      "æŀ": 305,
      "å¾Ī": 306,
      "ä»¥": 307,
      "ä¸ī": 308,
      "ç¨": 309,
      "ä¹Ī": 310,
      "è½": 311,
      "æķ": 312,
      "çī": 313,
      "å£": 314,
      "è¦": 315,
      "ä½ĵ": 316,
      "èĩª": 317,
      "åıª": 318,
      "çĦ": 319,
      "è¦ģ": 320,
      "æĦ": 321,
      "ä¼ļ": 322,
      "ç½": 323,
      "è¡Į": 324,
      "çŁ": 325,
      "åħī": 326,
      "çĶŁ": 327,
      "çĦ¶": 328,
      "ç¨ĭ": 329,
      "æĪĲ": 330,
      "éĹ´": 331,
      "æ²¡æľī": 332,
      "çķ": 333,
      "åīį": 334,
      "å¤©": 335,
      "åĥ": 336,
      "æ¯": 337,
      "æ°": 338,
      "æĥ³": 339,
      "éĻ": 340,
      "éĩĮ": 341,
      "æ´": 342,
      "åĥı": 343,
      "æĭ": 344,
      "å±": 345,
      "éģĵ": 346,
      "âĢ¦": 347,
      "éķ": 348,
      "åİ»": 349,
      "æł·": 350,
      "æĸĩ": 351,
      "ç«": 352,
      "èµ·": 353,
      "æ³": 354,
      "é£": 355,
      "ä¸ĸ": 356,
      "æĮ": 357,
      "æĺİ": 358,
      "äºİ": 359,
      "ç¬": 360,
      "åĮ": 361,
      "å°ı": 362,
      "å®ĥ": 363,
      "èī": 364,
      "ä¿": 365,
      "æĶ": 366,
      "æľĢ": 367,
      "è¿ĺ": 368,
      "æģ": 369,
      "å¤ļ": 370,
      "ä»İ": 371,
      "å·²": 372,
      "ç»ı": 373,
      "å¾Ĺ": 374,
      "é¢": 375,
      "æ¬": 376,
      "ç±": 377,
      "è¿Ľ": 378,
      "åĲĳ": 379,
      "åĬ¨": 380,
      "å¼Ģ": 381,
      "æĸ¹": 382,
      "äºĽ": 383,
      "ä»ĸä»¬": 384,
      "çĤ": 385,
      "éĥ": 386,
      "ï¼ŁâĢĿ": 387,
      "ç§į": 388,
      "çļĦè": 389,
      "ä¸¤": 390,
      "éĥ¨": 391,
      "è¢": 392,
      "ç³": 393,
      "åĬĽ": 394,
      "åŁ": 395,
      "åĪĨ": 396,
      "çķĮ": 397,
      "åĿ": 398,
      "æĻ": 399,
      "é»": 400,
      "æĬĬ": 401,
      "æĪĳä»¬": 402,
      "çģ": 403,
      "éķ¿": 404,
      "çĻ": 405,
      "ä»Ģ": 406,
      "åįģ": 407,
      "ç¨ĭå¿ĥ": 408,
      "ä»Ģä¹Ī": 409,
      "çĶ¨": 410,
      "éĺ³": 411,
      "æīĢ": 412,
      "çĲĥ": 413,
      "å¦": 414,
      "æ·": 415,
      "ä¸İ": 416,
      "æĽ": 417,
      "çŁ¥": 418,
      "ç³»": 419,
      "äºĭ": 420,
      "ç½Ĺ": 421,
      "è¢«": 422,
      "éĽ": 423,
      "éļ": 424,
      "åĲĮ": 425,
      "æ¬¡": 426,
      "åģ": 427,
      "å·±": 428,
      "æ¸": 429,
      "èĩªå·±": 430,
      "é£ŀ": 431,
      "èĢħ": 432,
      "å¹´": 433,
      "åı·": 434,
      "èĪ°": 435,
      "ä¸ĸçķĮ": 436,
      "è¿Ļä¸ª": 437,
      "æľº": 438,
      "çĤ¹": 439,
      "å®ŀ": 440,
      "ä¹ĭ": 441,
      "çİ°åľ¨": 442,
      "ï¼ģ": 443,
      "è¾ĳ": 444,
      "éĢŁ": 445,
      "æĹł": 446,
      "å¥½": 447,
      "ç½Ĺè¾ĳ": 448,
      "å¤ªç©º": 449,
      "è´": 450,
      "å¤ĸ": 451,
      "å·²ç»ı": 452,
      "ç»´": 453,
      "å¤´": 454,
      "èĢĮ": 455,
      "å¤ªéĺ³": 456,
      "ç±»": 457,
      "åı¯èĥ½": 458,
      "è·": 459,
      "åħ¶": 460,
      "åŃ¦": 461,
      "ä¿¡": 462,
      "å½ĵ": 463,
      "çļĦç": 464,
      "åħ¨": 465,
      "å¦Ĥ": 466,
      "ä½¿": 467,
      "æĤ": 468,
      "ï¼ĮâĢľ": 469,
      "éĹ®": 470,
      "æĦı": 471,
      "æ±": 472,
      "ç®": 473,
      "çľŁ": 474,
      "åĩł": 475,
      "åıĺ": 476,
      "èº": 477,
      "å®ļ": 478,
      "ç¬¬": 479,
      "äºĮ": 480,
      "åĵ": 481,
      "çľĭåĪ°": 482,
      "è¶": 483,
      "çŁ¥éģĵ": 484,
      "è°": 485,
      "çĽ®": 486,
      "åº¦": 487,
      "ä¸»": 488,
      "å§": 489,
      "çĲĨ": 490,
      "ä½ľ": 491,
      "éĺŁ": 492,
      "èī²": 493,
      "åĽ½": 494,
      "æŃ£": 495,
      "äººç±»": 496,
      "çľ¼": 497,
      "è¯Ŀ": 498,
      "ï¼ļâĢľ": 499,
      "åĽŀ": 500,
      "è¿ľ": 501,
      "çŃ": 502,
      "ä¸īä½ĵ": 503,
      "çĽ¸": 504,
      "åĢ": 505,
      "âĢ¦âĢ¦": 506,
      "æĦŁ": 507,
      "å£°": 508,
      "äºĨä¸Ģ": 509,
      "å®ĩ": 510,
      "èµ°": 511,
      "çļĦä¸Ģ": 512,
      "æīĭ": 513,
      "æµ·": 514,
      "å°Ĩ": 515,
      "åľ°çĲĥ": 516,
      "éľ": 517,
      "é»ĳ": 518,
      "å®Ļ": 519,
      "æİ¥": 520,
      "å®ĩå®Ļ": 521,
      "æĪĺ": 522,
      "å»": 523,
      "çļĦäºº": 524,
      "è®¡": 525,
      "ç¤": 526,
      "åħ¥": 527,
      "èº«": 528,
      "èĪ¹": 529,
      "éĩį": 530,
      "ä½į": 531,
      "åıĪ": 532,
      "æŀľ": 533,
      "æ»": 534,
      "é«": 535,
      "å°±æĺ¯": 536,
      "éĩı": 537,
      "é«ĺ": 538,
      "å¤Ħ": 539,
      "å½¢": 540,
      "ç¦": 541,
      "çĽ´": 542,
      "çī©": 543,
      "æ°´": 544,
      "æ¶": 545,
      "åĨį": 546,
      "ä»£": 547,
      "æļ": 548,
      "åı¯ä»¥": 549,
      "ãĢģ": 550,
      "çĥ": 551,
      "æĹ¶éĹ´": 552,
      "ä¸įæĺ¯": 553,
      "åħ³": 554,
      "æĳ": 555,
      "èĦ": 556,
      "åı²": 557,
      "åħ¬": 558,
      "é¡": 559,
      "åĲĹ": 560,
      "çĻ½": 561,
      "å®Į": 562,
      "ç¾": 563,
      "åģļ": 564,
      "Ħ¿": 565,
      "åĽĽ": 566,
      "å¤±": 567,
      "å°Ħ": 568,
      "è§ī": 569,
      "åĨĽ": 570,
      "åĦ¿": 571,
      "èģ": 572,
      "å¿«": 573,
      "¥¿": 574,
      "æ¯Ķ": 575,
      "åĻ": 576,
      "çĶ±": 577,
      "çł": 578,
      "å®¶": 579,
      "çĶµ": 580,
      "åĨħ": 581,
      "ç¡": 582,
      "ç¼": 583,
      "è¿Ļæł·": 584,
      "è®©": 585,
      "æĽ´": 586,
      "å¢": 587,
      "éĴ": 588,
      "è¥¿": 589,
      "æģ¯": 590,
      "æı": 591,
      "çª": 592,
      "å¹³": 593,
      "æĺ¾": 594,
      "ç¦»": 595,
      "æľ¬": 596,
      "åĲ§": 597,
      "åĬł": 598,
      "å£ģ": 599,
      "ä¸ŃçļĦ": 600,
      "åĽł": 601,
      "çīĩ": 602,
      "ä¸ľ": 603,
      "ä»»": 604,
      "å¹¶": 605,
      "çºª": 606,
      "æīį": 607,
      "åºĶ": 608,
      "åŃĺ": 609,
      "è¡¨": 610,
      "åĻ¨": 611,
      "å·¥": 612,
      "æ³ķ": 613,
      "æĤ¨": 614,
      "å²": 615,
      "çĪ": 616,
      "å§ĭ": 617,
      "ï¼ģâĢĿ": 618,
      "è¿Ļæĺ¯": 619,
      "ä¾": 620,
      "ä½łä»¬": 621,
      "èĤ": 622,
      "æĮĩ": 623,
      "ä¸ĩ": 624,
      "èĩ³": 625,
      "æµĭ": 626,
      "ç²": 627,
      "å·¨": 628,
      "æ±ª": 629,
      "åĪ«": 630,
      "å»º": 631,
      "çĶ»": 632,
      "è¾¹": 633,
      "é£ŀèĪ¹": 634,
      "èĪª": 635,
      "åŁİ": 636,
      "éĢļ": 637,
      "çĬ": 638,
      "äºĶ": 639,
      "èĪ°éĺŁ": 640,
      "éĤ£ä¸ª": 641,
      "çº¿": 642,
      "å¼º": 643,
      "å¼ķ": 644,
      "æĸĩæĺİ": 645,
      "æħ": 646,
      "è±": 647,
      "å¦Ĥæŀľ": 648,
      "è¿Ļç§į": 649,
      "æĸ¯": 650,
      "åıªæĺ¯": 651,
      "æ·¼": 652,
      "ç¥": 653,
      "æķ°": 654,
      "æ±ªæ·¼": 655,
      "åĩ»": 656,
      "æĢĿ": 657,
      "åĳ½": 658,
      "äºĳ": 659,
      "ç»Ł": 660,
      "å¸¸": 661,
      "åı¶": 662,
      "çĻ¾": 663,
      "åĪ°äºĨ": 664,
      "è§£": 665,
      "æīĵ": 666,
      "æļĹ": 667,
      "èĥ": 668,
      "åĪļ": 669,
      "åĩºçİ°": 670,
      "è¿ĳ": 671,
      "åĪ¶": 672,
      "æ´ģ": 673,
      "è½¬": 674,
      "åĲ¬": 675,
      "âĢĶ": 676,
      "åĪĩ": 677,
      "åĲĪ": 678,
      "æĥħ": 679,
      "èµ·æĿ¥": 680,
      "åĲį": 681,
      "åĮĸ": 682,
      "æĶ¾": 683,
      "åŁº": 684,
      "æ´»": 685,
      "ç«ĭ": 686,
      "æľĽ": 687,
      "æľ¯": 688,
      "è§ģ": 689,
      "ä¸¤ä¸ª": 690,
      "åĸ": 691,
      "æŁ": 692,
      "ç¤º": 693,
      "è¿ĻéĩĮ": 694,
      "æĿ¡": 695,
      "éĥ¨åĪĨ": 696,
      "éĵ": 697,
      "æ¢": 698,
      "æŃ»": 699,
      "è¿Ĳ": 700,
      "åĪĴ": 701,
      "å¼Ģå§ĭ": 702,
      "æ·±": 703,
      "ç¡®": 704,
      "çİĭ": 705,
      "èĲ": 706,
      "åı£": 707,
      "é¦": 708,
      "ç»ĵ": 709,
      "è½»": 710,
      "ç¬ĳ": 711,
      "æį": 712,
      "éĶ": 713,
      "ç»Ļ": 714,
      "ä¸ĬçļĦ": 715,
      "åİŁ": 716,
      "ä¹İ": 717,
      "æĻº": 718,
      "è±¡": 719,
      "çİ¯": 720,
      "ä»į": 721,
      "å¸¦": 722,
      "ä½ķ": 723,
      "æľĢåĲİ": 724,
      "ç©¿": 725,
      "æľīä¸Ģ": 726,
      "éª": 727,
      "ä»¶": 728,
      "å°ĳ": 729,
      "èĻ": 730,
      "ä¿¡æģ¯": 731,
      "ä¸ľè¥¿": 732,
      "èĬ": 733,
      "ç§ĳ": 734,
      "è¾¾": 735,
      "çī¹": 736,
      "æĸ°": 737,
      "è§Ĥ": 738,
      "çģ«": 739,
      "èĢģ": 740,
      "åıĳçİ°": 741,
      "åŃĹ": 742,
      "è®¤": 743,
      "æĢģ": 744,
      "ç´": 745,
      "çĬ¶": 746,
      "éĹ¨": 747,
      "å®ī": 748,
      "æłĩ": 749,
      "è¯¥": 750,
      "æ¶Ī": 751,
      "å¾®": 752,
      "æĸĩæ´ģ": 753,
      "åıį": 754,
      "ä¸Ģæł·": 755,
      "åįĥ": 756,
      "æīĢæľī": 757,
      "ä½İ": 758,
      "ï¼Ľ": 759,
      "æĹ¥": 760,
      "ç³»ç»Ł": 761,
      "åħĥ": 762,
      "è¶Ĭ": 763,
      "çŃī": 764,
      "ç¥ŀ": 765,
      "è¿ĻäºĽ": 766,
      "åįĬ": 767,
      "è§Ĩ": 768,
      "åĽ´": 769,
      "ç©ºéĹ´": 770,
      "å¤§çļĦ": 771,
      "åŀ": 772,
      "å£«": 773,
      "è¿Ľè¡Į": 774,
      "åħĪ": 775,
      "æ¸ħ": 776,
      "éļ¾": 777,
      "æ£": 778,
      "æ®": 779,
      "ç®Ĺ": 780,
      "è®¸": 781,
      "è½¦": 782,
      "è¿ĺæĺ¯": 783,
      "å¨": 784,
      "é¢ĺ": 785,
      "æ¯ı": 786,
      "å¼ł": 787,
      "Ģæľ¯": 788,
      "éĥ½æĺ¯": 789,
      "å®ĥä»¬": 790,
      "èģĶ": 791,
      "æ¡": 792,
      "è£": 793,
      "è´¨": 794,
      "å±Ĥ": 795,
      "è®¡åĪĴ": 796,
      "åıªæľī": 797,
      "åı¶æĸĩæ´ģ": 798,
      "å½±": 799,
      "æ°Ķ": 800,
      "å¤Ł": 801,
      "é¢Ĺ": 802,
      "åŃ©": 803,
      "å¤į": 804,
      "ç±³": 805,
      "åĽ¾": 806,
      "é©": 807,
      "åĳĺ": 808,
      "åľº": 809,
      "ä¸Ģæ¬¡": 810,
      "åĮĹ": 811,
      "æĴ": 812,
      "ä»ĸçļĦ": 813,
      "å¥³": 814,
      "éľĢ": 815,
      "åı¦": 816,
      "çº¢": 817,
      "å¤ªéĺ³ç³»": 818,
      "æķ´": 819,
      "èĲ½": 820,
      "èĭ": 821,
      "ä¹ī": 822,
      "åķ": 823,
      "çĭ": 824,
      "äº®": 825,
      "ħ§": 826,
      "çľĭçĿĢ": 827,
      "èį": 828,
      "è¿ĻæĹ¶": 829,
      "çĦ¶åĲİ": 830,
      "äºļ": 831,
      "åĪ»": 832,
      "æ¼": 833,
      "ç©¶": 834,
      "æŃ¤": 835,
      "æµģ": 836,
      "ä¸ĸçºª": 837,
      "çļĦæĺ¯": 838,
      "çļĦå¤§": 839,
      "åĩºæĿ¥": 840,
      "å¾Īå¿«": 841,
      "ä¼¼": 842,
      "æĢİ": 843,
      "ç«Ļ": 844,
      "æŃ¥": 845,
      "äº§": 846,
      "ä½ı": 847,
      "éĿĻ": 848,
      "éĿ¢å£ģ": 849,
      "æŀĹ": 850,
      "æĻºåŃĲ": 851,
      "éĢł": 852,
      "Ķç©¶": 853,
      "åĿĲ": 854,
      "æł¹": 855,
      "æ¸Ĳ": 856,
      "ä»¤": 857,
      "å¸Ĥ": 858,
      "éļı": 859,
      "æıĲ": 860,
      "åĳ¢": 861,
      "è·Ŀ": 862,
      "å¼¹": 863,
      "ç§»": 864,
      "åĲĦ": 865,
      "å®ĺ": 866,
      "èĪ¬": 867,
      "çħ§": 868,
      "è®¾": 869,
      "åĽłä¸º": 870,
      "è®º": 871,
      "è¡ĮæĺŁ": 872,
      "ç½®": 873,
      "ä¿Ŀ": 874,
      "éŁ": 875,
      "æĢ§": 876,
      "ç¾İ": 877,
      "é¦ĸ": 878,
      "èĵ": 879,
      "è¿Ľåħ¥": 880,
      "åĳ¨": 881,
      "åŀĭ": 882,
      "æĸŃ": 883,
      "åį«": 884,
      "ç«ł": 885,
      "ä»»ä½ķ": 886,
      "åįķ": 887,
      "æĳĩ": 888,
      "éĢī": 889,
      "ç»Ń": 890,
      "æī¾": 891,
      "å¸Į": 892,
      "ä¸ĭæĿ¥": 893,
      "éĽ·": 894,
      "çĸ": 895,
      "éĤ£äºĽ": 896,
      "æĢ»": 897,
      "å¼ķåĬĽ": 898,
      "æ¨": 899,
      "ç¢": 900,
      "åĨ·": 901,
      "éĢı": 902,
      "çŁ³": 903,
      "åĪ©": 904,
      "é»ĳæļĹ": 905,
      "åĨ¬": 906,
      "è®®": 907,
      "ç¾¤": 908,
      "ç»Ĩ": 909,
      "æĶ¿": 910,
      "è¿Ļä¸Ģ": 911,
      "ç»Ħ": 912,
      "çļĦäºĭ": 913,
      "å¹²": 914,
      "æŃ¢": 915,
      "æŀģ": 916,
      "åħīéĢŁ": 917,
      "é»ĺ": 918,
      "åıĹ": 919,
      "æĺ¯ä¸Ģ": 920,
      "åıĳå°Ħ": 921,
      "è¿ĺæľī": 922,
      "åŃĺåľ¨": 923,
      "éĩĳ": 924,
      "æł¸": 925,
      "æĬĢæľ¯": 926,
      "æ³¢": 927,
      "ç»Ī": 928,
      "éľĢè¦ģ": 929,
      "å®¹": 930,
      "éĻħ": 931,
      "éĹ®é¢ĺ": 932,
      "åį³": 933,
      "å±ķ": 934,
      "åĿĹ": 935,
      "æĢİä¹Ī": 936,
      "Ń¦": 937,
      "å±±": 938,
      "æ»´": 939,
      "çªģ": 940,
      "åºĶè¯¥": 941,
      "æĹ¶ä»£": 942,
      "æģĴ": 943,
      "éŁ³": 944,
      "éĨ": 945,
      "æ²ī": 946,
      "å¸Ĩ": 947,
      "æº": 948,
      "éķľ": 949,
      "åģľ": 950,
      "èĩªå·±çļĦ": 951,
      "èĵĿ": 952,
      "è¯Ĩ": 953,
      "ä¹Łä¸į": 954,
      "æľį": 955,
      "åį´": 956,
      "çģŃ": 957,
      "å¨ģ": 958,
      "ä¸ĢçĽ´": 959,
      "åŃ©åŃĲ": 960,
      "åı«": 961,
      "AA": 962,
      "ç»Ŀ": 963,
      "æŀĦ": 964,
      "æĮģ": 965,
      "å·¥ä½ľ": 966,
      "å¤ľ": 967,
      "èĤ¯": 968,
      "æ®µ": 969,
      "æľ¨": 970,
      "æĪĸ": 971,
      "åĲĮæĹ¶": 972,
      "æĶ¶": 973,
      "äººä»¬": 974,
      "æ¨¡": 975,
      "çľŁçļĦ": 976,
      "æİ¨": 977,
      "æĦŁè§ī": 978,
      "æ¶Īå¤±": 979,
      "æĺ¯ä¸Ģä¸ª": 980,
      "åĩºäºĨ": 981,
      "åĳĬ": 982,
      "å½ĵçĦ¶": 983,
      "ç§ĳåŃ¦": 984,
      "åĮĹæµ·": 985,
      "å°½": 986,
      "å¾·": 987,
      "çľł": 988,
      "è¶ħ": 989,
      "è¿ŀ": 990,
      "çĨ": 991,
      "åİĨ": 992,
      "åıªèĥ½": 993,
      "èĥ½å¤Ł": 994,
      "æīĢä»¥": 995,
      "å®Įåħ¨": 996,
      "çłĶç©¶": 997,
      "åĶ": 998,
      "å¥ĩ": 999,
      "æĥĬ": 1000,
      "çº§": 1001,
      "æ³¨": 1002,
      "æĮī": 1003,
      "åı°": 1004,
      "æľª": 1005,
      "è®°": 1006,
      "éĿ¢çļĦ": 1007,
      "çĶŁæ´»": 1008,
      "åıĺæĪĲ": 1009,
      "æ£®": 1010,
      "ç«łåĮĹæµ·": 1011,
      "åº§": 1012,
      "åķĬ": 1013,
      "äº§çĶŁ": 1014,
      "æľŁ": 1015,
      "å®¤": 1016,
      "äººçļĦ": 1017,
      "è§Ħ": 1018,
      "æ°ĳ": 1019,
      "éĢŁåº¦": 1020,
      "éĨĴ": 1021,
      "çĹ": 1022,
      "åĭ": 1023,
      "çĽ®åħī": 1024,
      "ç²¾": 1025,
      "äº¤": 1026,
      "è¿Ļä¹Ī": 1027,
      "æĹ©": 1028,
      "çĶļ": 1029,
      "åŁİå¸Ĥ": 1030,
      "å¤©æĺİ": 1031,
      "éĽĨ": 1032,
      "è£ħ": 1033,
      "åıĳåĩº": 1034,
      "æĺ¾ç¤º": 1035,
      "åĪĻ": 1036,
      "æĸ¹åĲĳ": 1037,
      "è¯ģ": 1038,
      "å¼ı": 1039,
      "åĨ³": 1040,
      "åĮº": 1041,
      "çł´": 1042,
      "äºĳå¤©æĺİ": 1043,
      "¾ä¼ļ": 1044,
      "æľĪ": 1045,
      "æ²Ļ": 1046,
      "å¸Ī": 1047,
      "åĢĴ": 1048,
      "çİĩ": 1049,
      "èīĺ": 1050,
      "éĽª": 1051,
      "çªĹ": 1052,
      "çļĦåľ°": 1053,
      "ä¼ł": 1054,
      "âĢĶâĢĶ": 1055,
      "çĶļèĩ³": 1056,
      "è¯·": 1057,
      "ä¸īä¸ª": 1058,
      "ä¸īä½ĵä¸ĸçķĮ": 1059,
      "è¯ķ": 1060,
      "éĻ¤": 1061,
      "ç¬¬äºĮ": 1062,
      "éľ²": 1063,
      "ä¸įåĪ°": 1064,
      "äºĮç»´": 1065,
      "âĢĺ": 1066,
      "çŁŃ": 1067,
      "æ»¡": 1068,
      "ä¸įåı¯èĥ½": 1069,
      "æĭī": 1070,
      "ä¸įåĲĮ": 1071,
      "å¯Ĩ": 1072,
      "æ¯ģ": 1073,
      "è·¯": 1074,
      "æ°´æ»´": 1075,
      "å¯¼": 1076,
      "ç®¡": 1077,
      "æĭ¿": 1078,
      "äºĨä¸Ģä¸ª": 1079,
      "ä¹Łæĺ¯": 1080,
      "èŃ¦": 1081,
      "éĿ¢å£ģèĢħ": 1082,
      "åł": 1083,
      "å¥¹çļĦ": 1084,
      "æ°¸": 1085,
      "å¹¿": 1086,
      "è®¤ä¸º": 1087,
      "å¤ĩ": 1088,
      "åħŃ": 1089,
      "æĬ¥": 1090,
      "å£°éŁ³": 1091,
      "åĬłéĢŁ": 1092,
      "æģĴæĺŁ": 1093,
      "âĢĻ": 1094,
      "ä¸įè¿ĩ": 1095,
      "å¿ħ": 1096,
      "è¿¹": 1097,
      "åħ¹": 1098,
      "çĽĳ": 1099,
      "åıĳçĶŁ": 1100,
      "æİ§": 1101,
      "çªģçĦ¶": 1102,
      "æĸĻ": 1103,
      "å¸ĥ": 1104,
      "ä¸įçŁ¥éģĵ": 1105,
      "éĤ£éĩĮ": 1106,
      "å¯Ł": 1107,
      "æĪĲä¸º": 1108,
      "æĻ¯": 1109,
      "åĢĻ": 1110,
      "çļĦæķ": 1111,
      "åį±": 1112,
      "æµ®": 1113,
      "ç»§": 1114,
      "å¤§åı²": 1115,
      "é£İ": 1116,
      "éĴŁ": 1117,
      "è¯Ń": 1118,
      "æĿ¥çļĦ": 1119,
      "åįĩ": 1120,
      "¨Ģ": 1121,
      "æłĳ": 1122,
      "âĢ¦âĢ¦âĢĿ": 1123,
      "è¨Ģ": 1124,
      "èĪ±": 1125,
      "åħ¶ä»ĸ": 1126,
      "çĽ®æłĩ": 1127,
      "ä½įç½®": 1128,
      "åĨ¬çľł": 1129,
      "åħ·": 1130,
      "çķĻ": 1131,
      "åĽ¢": 1132,
      "æĭ©": 1133,
      "çŃĶ": 1134,
      "åħ³ä¸Ģ": 1135,
      "åĳ¨åĽ´": 1136,
      "å°Ķ": 1137,
      "éĺµ": 1138,
      "ç¤¾ä¼ļ": 1139,
      "åħ³ä¸Ģå¸Ĩ": 1140,
      "éħ": 1141,
      "ä»ħ": 1142,
      "åľ¨ä¸Ģ": 1143,
      "çļĦæĦ": 1144,
      "ä¸įèĥ½": 1145,
      "çĶ±äºİ": 1146,
      "æİ¢": 1147,
      "è®¡ç®Ĺ": 1148,
      "èĢĥ": 1149,
      "çº¸": 1150,
      "æį®": 1151,
      "ä½Ľ": 1152,
      "èİ": 1153,
      "å±ŀ": 1154,
      "åħ¶å®ŀ": 1155,
      "éĻį": 1156,
      "ç¬¬ä¸Ģ": 1157,
      "éªĮ": 1158,
      "åĪĿ": 1159,
      "å¤Ħäºİ": 1160,
      "ç¼ĵ": 1161,
      "çļĦéĤ£": 1162,
      "åıĮ": 1163,
      "åĬŁ": 1164,
      "ä¼Ĭ": 1165,
      "æĽ¾": 1166,
      "è°ģ": 1167,
      "äº²": 1168,
      "åĩłä¹İ": 1169,
      "æ£®æŀĹ": 1170,
      "ä¸ļ": 1171,
      "èĦĳ": 1172,
      "åı²å¼º": 1173,
      "éĢīæĭ©": 1174,
      "çĿĽ": 1175,
      "ä»¿": 1176,
      "éĻĲ": 1177,
      "è®¸å¤ļ": 1178,
      "çķ¥": 1179,
      "å®ĥçļĦ": 1180,
      "åĵª": 1181,
      "ç´§": 1182,
      "èĤ¯å®ļ": 1183,
      "åľ¨è¿Ļ": 1184,
      "çľĭçľĭ": 1185,
      "è½¨": 1186,
      "ç®Ģ": 1187,
      "æŃ£åľ¨": 1188,
      "ç¿": 1189,
      "æ²³": 1190,
      "çļĦæĢ": 1191,
      "æķ£": 1192,
      "åĮħ": 1193,
      "çģ¯": 1194,
      "ä¸Ģç§į": 1195,
      "çº¦": 1196,
      "çĬ¶æĢģ": 1197,
      "çļĦè¯Ŀ": 1198,
      "éļĲ": 1199,
      "çľ¼çĿĽ": 1200,
      "æºĲ": 1201,
      "ĤçļĦ": 1202,
      "éĤ£æĺ¯": 1203,
      "ä»¿ä½Ľ": 1204,
      "èĮ": 1205,
      "æī§": 1206,
      "ä¸įä¼ļ": 1207,
      "å¾ħ": 1208,
      "èĩ´": 1209,
      "éĢģ": 1210,
      "éĤ£ä¹Ī": 1211,
      "èĻ½": 1212,
      "èģļ": 1213,
      "ä¸ģ": 1214,
      "åĩĨ": 1215,
      "éĹª": 1216,
      "æ´ŀ": 1217,
      "æĲ": 1218,
      "åĨµ": 1219,
      "æĦŁåĪ°": 1220,
      "èĥĮ": 1221,
      "æĿ¨": 1222,
      "ä»¥åīį": 1223,
      "åįģåĪĨ": 1224,
      "çĪĨ": 1225,
      "éŃ": 1226,
      "ä»ª": 1227,
      "åıĤ": 1228,
      "æĺ¯åľ¨": 1229,
      "ä¸Ĭåİ»": 1230,
      "éĢļè¿ĩ": 1231,
      "åĲĥ": 1232,
      "çļĦæĥ": 1233,
      "åĺ": 1234,
      "é¢Ĩ": 1235,
      "åį³ä½¿": 1236,
      "ä¸¥": 1237,
      "éĺ²": 1238,
      "èµĦ": 1239,
      "åĲ¯": 1240,
      "åħ«": 1241,
      "æĿĥ": 1242,
      "æł¼": 1243,
      "åĥıä¸Ģ": 1244,
      "ç«ĭåĪ»": 1245,
      "æĪ¿": 1246,
      "çĤ¹å¤´": 1247,
      "çļĦä¸ľè¥¿": 1248,
      "éĢĥ": 1249,
      "åºķ": 1250,
      "è§Ĵ": 1251,
      "ç»§ç»Ń": 1252,
      "æľīäºĽ": 1253,
      "å²¸": 1254,
      "ä¸Ķ": 1255,
      "è°ĥ": 1256,
      "æ³¨æĦı": 1257,
      "ãĢĬ": 1258,
      "ãĢĭ": 1259,
      "ä¹±": 1260,
      "å°ıæĹ¶": 1261,
      "èīĩ": 1262,
      "åı¥": 1263,
      "åĪĹ": 1264,
      "éĵ¶": 1265,
      "ä¼¼ä¹İ": 1266,
      "åħ´": 1267,
      "æĺŁçİ¯": 1268,
      "å¡": 1269,
      "åĨ²": 1270,
      "ä»¥åĲİ": 1271,
      "åİ»äºĨ": 1272,
      "ç«¯": 1273,
      "äºī": 1274,
      "æķĻ": 1275,
      "ä¼ļè®®": 1276,
      "åĵį": 1277,
      "æĪĺèĪ°": 1278,
      "çºªåħĥ": 1279,
      "çļĦåħī": 1280,
      "ä¸ĢåĪĩ": 1281,
      "æĪĳçļĦ": 1282,
      "æĿ¥èĩª": 1283,
      "çļĦæĬ": 1284,
      "çĶŁåĳ½": 1285,
      "é»ĳæļĹæ£®æŀĹ": 1286,
      "çļĦå¤ªç©º": 1287,
      "æİĴ": 1288,
      "èĩªçĦ¶": 1289,
      "é¢Ħ": 1290,
      "å»¶": 1291,
      "æħĳ": 1292,
      "è½¨éģĵ": 1293,
      "æĵ": 1294,
      "æĿĢ": 1295,
      "å¿µ": 1296,
      "æħ¢": 1297,
      "ä¸ĵ": 1298,
      "åĩı": 1299,
      "èģĶåĲĪ": 1300,
      "çļĦæĹ¶éĹ´": 1301,
      "æĮ¥": 1302,
      "å¨ģæħĳ": 1303,
      "æ¥": 1304,
      "è¿ª": 1305,
      "åıĸ": 1306,
      "åħµ": 1307,
      "è¯ī": 1308,
      "å¾Ģ": 1309,
      "ç»´å¾·": 1310,
      "åħ¶ä¸Ń": 1311,
      "é£ĺ": 1312,
      "æľīäºº": 1313,
      "çļĦæ°": 1314,
      "å¯¹äºİ": 1315,
      "å¥¹ä»¬": 1316,
      "æĥ³è±¡": 1317,
      "éĻ©": 1318,
      "åĽŀçŃĶ": 1319,
      "åħ¬ä¸»": 1320,
      "åįļ": 1321,
      "å¼Ĥ": 1322,
      "åİĭ": 1323,
      "ç§Ĵ": 1324,
      "èĬ±": 1325,
      "çĶ·": 1326,
      "åľ°è¯´": 1327,
      "åĲİæĿ¥": 1328,
      "æĬ¤": 1329,
      "é¡¶": 1330,
      "åĨ°": 1331,
      "æĽ²": 1332,
      "åį°": 1333,
      "éĿ¢ä¸Ĭ": 1334,
      "æķħ": 1335,
      "è´£": 1336,
      "çĪ±": 1337,
      "äºļåħ¹": 1338,
      "éĽ·è¿ª": 1339,
      "éĽ·è¿ªäºļåħ¹": 1340,
      "åı¤": 1341,
      "æľīä¸Ģä¸ª": 1342,
      "åĨįæ¬¡": 1343,
      "æİ§åĪ¶": 1344,
      "çļĦå°ı": 1345,
      "å¯Ĵ": 1346,
      "ä¸ºäºĨ": 1347,
      "è¿Ĳè¡Į": 1348,
      "èĻ½çĦ¶": 1349,
      "ä½łçļĦ": 1350,
      "æĶ¯": 1351,
      "çĽ®åīį": 1352,
      "ç«Ł": 1353,
      "æ¢¯": 1354,
      "çĮ": 1355,
      "å¥½åĥı": 1356,
      "æķ´ä¸ª": 1357,
      "æĹģ": 1358,
      "å¹»": 1359,
      "æĹłæ³ķ": 1360,
      "ç£": 1361,
      "å®½": 1362,
      "åīĳ": 1363,
      "æ¢¦": 1364,
      "äº¡": 1365,
      "éĶĻ": 1366,
      "å¸ĮæľĽ": 1367,
      "èĵĿèī²": 1368,
      "äº¿": 1369,
      "ä¸Ģçīĩ": 1370,
      "å¹ķ": 1371,
      "æŀ¶": 1372,
      "åįĥç±³": 1373,
      "çĵ": 1374,
      "ä¸ĢäºĽ": 1375,
      "æĿŁ": 1376,
      "çĤ¹çĤ¹å¤´": 1377,
      "å¾ĭ": 1378,
      "éĤ£æĹ¶": 1379,
      "è°Ī": 1380,
      "çĥŁ": 1381,
      "çŀ": 1382,
      "æ¯į": 1383,
      "çģµ": 1384,
      "è§Ĥæµĭ": 1385,
      "ä¼Ł": 1386,
      "é©¬": 1387,
      "è§¦": 1388,
      "ç¬¬ä¸Ģæ¬¡": 1389,
      "æĺ¾çĦ¶": 1390,
      "å·¥ç¨ĭ": 1391,
      "å®īåħ¨": 1392,
      "æģ©": 1393,
      "æ±Ĥ": 1394,
      "æİ¥çĿĢ": 1395,
      "æ¡Ī": 1396,
      "ä¹¦": 1397,
      "äºĮåįģ": 1398,
      "é¥": 1399,
      "åıĬ": 1400,
      "åĪ¤": 1401,
      "æĹ¶åĢĻ": 1402,
      "å¿Ĺ": 1403,
      "éĤ£æł·": 1404,
      "æ³°": 1405,
      "ç²Ĵ": 1406,
      "åŁºåľ°": 1407,
      "æ¸Ĳæ¸Ĳ": 1408,
      "æľ¨æĺŁ": 1409,
      "åĳĬè¯ī": 1410,
      "åİĨåı²": 1411,
      "æĹĭ": 1412,
      "çľĭä¸Ĭåİ»": 1413,
      "å¢ĥ": 1414,
      "åħħ": 1415,
      "å·®": 1416,
      "éĢĤ": 1417,
      "å°±åĥı": 1418,
      "æĪĲäºĨ": 1419,
      "åĭĴ": 1420,
      "åľĨ": 1421,
      "æĺŁæĺŁ": 1422,
      "è½®": 1423,
      "æ´¾": 1424,
      "é¢ľ": 1425,
      "åĩłä¸ª": 1426,
      "è·Ŀç¦»": 1427,
      "æ´²": 1428,
      "åĬĽéĩı": 1429,
      "ä¸įè¦ģ": 1430,
      "åĩºçļĦ": 1431,
      "è¾Ĳ": 1432,
      "ä¹Łè®¸": 1433,
      "çı": 1434,
      "ä¸Ŀ": 1435,
      "ãĢĤâĢľ": 1436,
      "æ²»": 1437,
      "ä¸ĭåİ»": 1438,
      "æĭ¥": 1439,
      "èĦ±": 1440,
      "å¸Ń": 1441,
      "åºĦ": 1442,
      "æĢķ": 1443,
      "å³": 1444,
      "è¡Ģ": 1445,
      "ä¹ĭéĹ´": 1446,
      "èĬĤ": 1447,
      "æİ¢æµĭ": 1448,
      "ç¬¬ä¸ī": 1449,
      "å¸Įæģ©": 1450,
      "å¸Įæģ©æĸ¯": 1451,
      "ä»ĸä»¬çļĦ": 1452,
      "çľĭåĪ°äºĨ": 1453,
      "åĨħéĥ¨": 1454,
      "ç¦»å¼Ģ": 1455,
      "æĳĩå¤´": 1456,
      "ä»Ĭ": 1457,
      "é¡»": 1458,
      "å¢Ļ": 1459,
      "èĨ": 1460,
      "åį·": 1461,
      "çĿ¡": 1462,
      "æĬķ": 1463,
      "èī²çļĦ": 1464,
      "æĢĿæĥ³": 1465,
      "åĲ¬åĪ°": 1466,
      "ä¸ģä»ª": 1467,
      "ä¸īç»´": 1468,
      "æĻ®": 1469,
      "çĲĨè®º": 1470,
      "ä»įçĦ¶": 1471,
      "éĿł": 1472,
      "æ´ĭ": 1473,
      "åıĺå¾Ĺ": 1474,
      "è¡£": 1475,
      "è¿ĩç¨ĭ": 1476,
      "çĤ¸": 1477,
      "çļĦèº": 1478,
      "åĢ¼": 1479,
      "çī©çĲĨ": 1480,
      "èŀ": 1481,
      "åĬŀ": 1482,
      "åĮ»": 1483,
      "æ¸¸": 1484,
      "ä¾¿": 1485,
      "å»ºç«ĭ": 1486,
      "èģĶåĲĪåĽ½": 1487,
      "ä¹ĭä¸Ģ": 1488,
      "ä½ľä¸º": 1489,
      "é¡¹": 1490,
      "åı¦ä¸Ģ": 1491,
      "é¦ĸåħĪ": 1492,
      "å¾Ħ": 1493,
      "æĢª": 1494,
      "é£ŀè¡Į": 1495,
      "çī©è´¨": 1496,
      "çĥŃ": 1497,
      "åĶ¯": 1498,
      "æĢ¥": 1499,
      "çĶŁåŃĺ": 1500,
      "å¤©ç©º": 1501,
      "éĩįè¦ģ": 1502,
      "è¡¨éĿ¢": 1503,
      "æĴŃ": 1504,
      "è®¡ç®Ĺæľº": 1505,
      "è¾Ĳå°Ħ": 1506,
      "ä¸įåı¯": 1507,
      "ç§°": 1508,
      "æĶ¹": 1509,
      "ä¸ľæĸ¹": 1510,
      "æĺĵ": 1511,
      "ä¸ĢèĪ¬": 1512,
      "æĺ¯çļĦ": 1513,
      "å°ĺ": 1514,
      "æĬ¬": 1515,
      "åİħ": 1516,
      "éĥ½åľ¨": 1517,
      "æĤ¬": 1518,
      "å²ģ": 1519,
      "åįļå£«": 1520,
      "çļĦä¿¡æģ¯": 1521,
      "å°ģ": 1522,
      "åĳ¼": 1523,
      "åŁŁ": 1524,
      "åĩºçİ°äºĨ": 1525,
      "åĽ¾åĥı": 1526,
      "çļĦæĦŁ": 1527,
      "ä¸Ńå¿ĥ": 1528,
      "å±ı": 1529,
      "çļĦèĦ": 1530,
      "å¹´åīį": 1531,
      "¿Ģ": 1532,
      "æ½": 1533,
      "åĲ¦": 1534,
      "åĪ°è¾¾": 1535,
      "çļĦæĻ": 1536,
      "çļĦè·": 1537,
      "å¹ħ": 1538,
      "éĺ¶": 1539,
      "æĥ³åĪ°": 1540,
      "çļĦèĥ": 1541,
      "éķ¿çļĦ": 1542,
      "æ²īé»ĺ": 1543,
      "æ°¸è¿ľ": 1544,
      "ĩĥ": 1545,
      "è¿Ļæ¬¡": 1546,
      "æĿ¿": 1547,
      "ä¸ºä»Ģä¹Ī": 1548,
      "é»Ħ": 1549,
      "éĺ³åħī": 1550,
      "æĪĺäºī": 1551,
      "ä¸¾": 1552,
      "è¿ĩåİ»": 1553,
      "åĿļ": 1554,
      "ä¸»è¦ģ": 1555,
      "Â·": 1556,
      "åºĬ": 1557,
      "ä½ľçĶ¨": 1558,
      "ç¡®å®ŀ": 1559,
      "çļĦèº«": 1560,
      "ä¸Ģèµ·": 1561,
      "å®ģ": 1562,
      "ä¼ŀ": 1563,
      "çĿĢä¸Ģ": 1564,
      "çļĦè´": 1565,
      "è·Ł": 1566,
      "çŃĳ": 1567,
      "çĨŁ": 1568,
      "çļĦä¸Ģä¸ª": 1569,
      "æľīå¼ķåĬĽ": 1570,
      "å¤§éĥ¨åĪĨ": 1571,
      "å¹¸": 1572,
      "å°±åľ¨": 1573,
      "æ·¡": 1574,
      "å¤ªç©ºä¸Ń": 1575,
      "æĪĺçķ¥": 1576,
      "èĦ¸": 1577,
      "ç»ĵæŀľ": 1578,
      "æĳĩæĳĩå¤´": 1579,
      "åĲ¯åĬ¨": 1580,
      "ä¸´": 1581,
      "è®²": 1582,
      "ç§¯": 1583,
      "æŃ¦": 1584,
      "æģĲ": 1585,
      "çº¢å²¸": 1586,
      "ä¸½": 1587,
      "æĪĳæĺ¯": 1588,
      "éĹŃ": 1589,
      "è°¢": 1590,
      "éĴ¢": 1591,
      "ä¸ĩæľīå¼ķåĬĽ": 1592,
      "åĪļæīį": 1593,
      "èĥ½åĬĽ": 1594,
      "éĿ¢åīį": 1595,
      "æķĳ": 1596,
      "äºİæĺ¯": 1597,
      "æ¶Īå¤±äºĨ": 1598,
      "æ³°åĭĴ": 1599,
      "æľĿ": 1600,
      "ä¸Ģä¸ĭ": 1601,
      "å¾ĹåĪ°": 1602,
      "æīįèĥ½": 1603,
      "çļĦä¸ĸçķĮ": 1604,
      "åĲ«": 1605,
      "å¸Ŀ": 1606,
      "èĪªè¡Į": 1607,
      "èĻĳ": 1608,
      "ç§»æ°ĳ": 1609,
      "ç¢İ": 1610,
      "éĩĳå±ŀ": 1611,
      "åľŁ": 1612,
      "è¯»": 1613,
      "å¼±": 1614,
      "æĭį": 1615,
      "ä¹ĭåīį": 1616,
      "å½¢æĪĲ": 1617,
      "å¢ŀ": 1618,
      "å¿ħé¡»": 1619,
      "åĶ¯ä¸Ģ": 1620,
      "»åĩ»": 1621,
      "æ¿Ģ": 1622,
      "ä¹Ĳ": 1623,
      "å·¦": 1624,
      "æŀª": 1625,
      "å¤ªç©ºåŁİ": 1626,
      "å¢ĵ": 1627,
      "èħ": 1628,
      "æĿĤ": 1629,
      "åľ°ä¸Ĭ": 1630,
      "éĿ¢å¯¹": 1631,
      "å±ħ": 1632,
      "ç®Ģåįķ": 1633,
      "é¸": 1634,
      "ç»ĩ": 1635,
      "çİ°å®ŀ": 1636,
      "å¤ĸéĿ¢": 1637,
      "å½ĵæĹ¶": 1638,
      "åĵģ": 1639,
      "çĽ¸ä¿¡": 1640,
      "æ¾": 1641,
      "çĩĥ": 1642,
      "è¿½": 1643,
      "åı³": 1644,
      "å®¡": 1645,
      "è¯´çļĦ": 1646,
      "åºľ": 1647,
      "äºĨä¸Ģä¸ĭ": 1648,
      "ç¡Ģ": 1649,
      "å»ºçŃĳ": 1650,
      "åŁºç¡Ģ": 1651,
      "éĻ¤äºĨ": 1652,
      "çļĦæĢĿ": 1653,
      "åı¸": 1654,
      "åħĭ": 1655,
      "åĳ³": 1656,
      "èµ·äºĨ": 1657,
      "èĢĮæĺ¯": 1658,
      "ä»£è¡¨": 1659,
      "çĥĪ": 1660,
      "å·¨å¤§çļĦ": 1661,
      "åĲ¸": 1662,
      "ç»ª": 1663,
      "çļĦæģ": 1664,
      "çº³": 1665,
      "ä¹Łæ²¡æľī": 1666,
      "æĻļ": 1667,
      "æĦıä¹ī": 1668,
      "åĽ½éĻħ": 1669,
      "å®ĩå®Ļä¸Ń": 1670,
      "å¹¶æ²¡æľī": 1671,
      "éļıçĿĢ": 1672,
      "æł¡": 1673,
      "æİ©": 1674,
      "å¤©æĸĩ": 1675,
      "çľŁæŃ£": 1676,
      "æĳĨ": 1677,
      "è§īå¾Ĺ": 1678,
      "åĨĽå®ĺ": 1679,
      "åį±æľº": 1680,
      "æľīçļĦ": 1681,
      "åĨĻ": 1682,
      "è¯´è¯Ŀ": 1683,
      "çļĦæ¯": 1684,
      "è¿ĩäºĨ": 1685,
      "å±Ģ": 1686,
      "åħ¨éĥ¨": 1687,
      "çĥ§": 1688,
      "çĪ¶": 1689,
      "çļĦæµ": 1690,
      "åī©": 1691,
      "åıĳåĬ¨": 1692,
      "è¶³": 1693,
      "åĪļåĪļ": 1694,
      "çªĹåı£": 1695,
      "å´": 1696,
      "ä¼¸": 1697,
      "ç§ĺ": 1698,
      "çļĦçł": 1699,
      "çĽ¸å½ĵ": 1700,
      "å½¢çĬ¶": 1701,
      "ç¡®å®ļ": 1702,
      "çİĭæĺŁ": 1703,
      "åı¦ä¸Ģä¸ª": 1704,
      "æ¼«": 1705,
      "éº": 1706,
      "æī©": 1707,
      "è¾ĥ": 1708,
      "åĥıæĺ¯": 1709,
      "æ¸©": 1710,
      "å®ĮæĪĲ": 1711,
      "æ¹": 1712,
      "æ²¿": 1713,
      "ä¸»ä¹ī": 1714,
      "ç»ĵæŀĦ": 1715,
      "ç»Ħç»ĩ": 1716,
      "éŃĶ": 1717,
      "çļĦæĦŁè§ī": 1718,
      "èĴ": 1719,
      "äºĴ": 1720,
      "è¿·": 1721,
      "åľ°éĿ¢": 1722,
      "çļĦæİ": 1723,
      "éĥ½æ²¡æľī": 1724,
      "æ¬¢": 1725,
      "çĲĨè§£": 1726,
      "¢å¤į": 1727,
      "±¼": 1728,
      "è¸": 1729,
      "é±¼": 1730,
      "æĺ¯ä»Ģä¹Ī": 1731,
      "å¾¡": 1732,
      "ä¸ĭçļĦ": 1733,
      "éģĩ": 1734,
      "ä½¿çĶ¨": 1735,
      "åĽĽç»´": 1736,
      "çĭ¬": 1737,
      "èį¡": 1738,
      "æ¯ģçģŃ": 1739,
      "åĽº": 1740,
      "æķĪ": 1741,
      "éĽ¶": 1742,
      "æı¡": 1743,
      "èĵĿèī²ç©ºéĹ´": 1744,
      "å°¾": 1745,
      "è½¯": 1746,
      "æģ¢å¤į": 1747,
      "å¹¶ä¸į": 1748,
      "å²©": 1749,
      "å·¨å¤§": 1750,
      "æŁĲ": 1751,
      "èĭı": 1752,
      "çĸĳ": 1753,
      "åħ±": 1754,
      "æĺł": 1755,
      "éĿŀ": 1756,
      "éĻĨ": 1757,
      "ç¨ĭå¿ĥåĴĮ": 1758,
      "æ¡Į": 1759,
      "æķħäºĭ": 1760,
      "ä¸ĥ": 1761,
      "ï¼ĮâĢĿ": 1762,
      "åľ¨è¿ĻéĩĮ": 1763,
      "ä¹ħ": 1764,
      "åĲİçļĦ": 1765,
      "åıĳå±ķ": 1766,
      "ä¸īåįģ": 1767,
      "å¦Ī": 1768,
      "å¹´è½»": 1769,
      "çĽ´æİ¥": 1770,
      "è¿Ļæł·çļĦ": 1771,
      "å¼ķåĬĽæ³¢": 1772,
      "æľªæĿ¥": 1773,
      "çļĦåľ°æĸ¹": 1774,
      "éĺ²å¾¡": 1775,
      "ç£ģ": 1776,
      "ä»½": 1777,
      "è¿Ļå°±æĺ¯": 1778,
      "æİī": 1779,
      "éĻ¢": 1780,
      "è´¥": 1781,
      "ä¸»å¸Ń": 1782,
      "éĢıæĺİ": 1783,
      "æĶ¿åºľ": 1784,
      "åĩºä¸Ģ": 1785,
      "ä½łæĺ¯": 1786,
      "ç½ĳ": 1787,
      "èĪ°éķ¿": 1788,
      "è´Ł": 1789,
      "åĽ½å®¶": 1790,
      "çļĦä¸ĢåĪĩ": 1791,
      "äºĶåįģ": 1792,
      "åı¥è¯Ŀ": 1793,
      "å³°": 1794,
      "æĿ¥è¯´": 1795,
      "ç¨³": 1796,
      "éĽ¨": 1797,
      "åı¯èĥ½æĺ¯": 1798,
      "ç¼©": 1799,
      "çİ¯å¢ĥ": 1800,
      "çļĦæĥħ": 1801,
      "æĻ®éĢļ": 1802,
      "äººéĥ½": 1803,
      "çļĦæ³": 1804,
      "éģ¥": 1805,
      "éľĩ": 1806,
      "åŁºæľ¬": 1807,
      "å¡Ķ": 1808,
      "çļĩ": 1809,
      "ä¼Ĺ": 1810,
      "çļĦæĶ": 1811,
      "æĬ±": 1812,
      "éĻĦ": 1813,
      "ä¹ĭå¤ĸ": 1814,
      "åĽĽä¸ª": 1815,
      "ä¾§": 1816,
      "è§Ĥå¯Ł": 1817,
      "ç©ºä¸Ń": 1818,
      "æ³¡": 1819,
      "çľŁå®ŀ": 1820,
      "åĵĪ": 1821,
      "æĸĩæĺİçļĦ": 1822,
      "æīĵåĩ»": 1823,
      "æĵį": 1824,
      "åºĦé¢ľ": 1825,
      "æľ«": 1826,
      "åĬ¡": 1827,
      "æł·åŃĲ": 1828,
      "å°ıçļĦ": 1829,
      "æĶ»åĩ»": 1830,
      "éķ¿æĹ¶éĹ´": 1831,
      "å¤ªç©ºèīĩ": 1832,
      "æŃ£å¸¸": 1833,
      "äººç±»çļĦ": 1834,
      "å±ķå¼Ģ": 1835,
      "åĨ³å®ļ": 1836,
      "åıĳåĬ¨æľº": 1837,
      "èĹ": 1838,
      "çĹħ": 1839,
      "èĢĥèĻĳ": 1840,
      "</": 1841,
      "ä¸ĢçĤ¹": 1842,
      "ä¸ĢçĻ¾": 1843,
      "åľ¨è¿Ļä¸ª": 1844,
      "ä¸įç®¡": 1845,
      "è¯´çĿĢ": 1846,
      "åī§": 1847,
      "æµª": 1848,
      "æ¯ķ": 1849,
      "éĻ·": 1850,
      "æĭ¬": 1851,
      "åĸľ": 1852,
      "æ¢Ń": 1853,
      "ç»ĵæĿŁ": 1854,
      "ç´¢": 1855,
      "æ¯ıä¸ª": 1856,
      "åĩıéĢŁ": 1857,
      "çļĦæ°´": 1858,
      "è¿ĩæĿ¥": 1859,
      "å¾Īå¤ļ": 1860,
      "æĺİçĻ½": 1861,
      "ä¸ĸçķĮçļĦ": 1862,
      "åŃ¦å®¶": 1863,
      "åıĺåĮĸ": 1864,
      "åħ³ç³»": 1865,
      "èĩ³å°ĳ": 1866,
      "èģļåıĺ": 1867,
      "è¯¯": 1868,
      "æĪĳæĥ³": 1869,
      "éĩİ": 1870,
      "çĽĸ": 1871,
      "éĥ½ä¸į": 1872,
      "å¤©çº¿": 1873,
      "æ¯«": 1874,
      "çļĦç²": 1875,
      "æİ¨è¿Ľ": 1876,
      "çĵ¦": 1877,
      "00": 1878,
      "çļĦéĢŁåº¦": 1879,
      "åįł": 1880,
      "éĩĬ": 1881,
      "åĲİéĿ¢": 1882,
      "å½©": 1883,
      "åĿ¦": 1884,
      "å§Ķ": 1885,
      "é¡¿": 1886,
      "ä¾Ŀ": 1887,
      "ç©¿æ¢Ń": 1888,
      "çļĦæĬĢæľ¯": 1889,
      "°éļ¾": 1890,
      "çļĦæľĢ": 1891,
      "éĢĢ": 1892,
      "ä»¥ä¸º": 1893,
      "æĦ¿": 1894,
      "æĸ¹å¼ı": 1895,
      "æĥħåĨµ": 1896,
      "è¾¾åĪ°": 1897,
      "å®³": 1898,
      "æĸĹ": 1899,
      "å¥¥": 1900,
      "åĬ©": 1901,
      "çľĭä¸į": 1902,
      "éĺ´": 1903,
      "å¤ļå°ĳ": 1904,
      "çģ°": 1905,
      "èĬĴ": 1906,
      "çī¹åĪ«": 1907,
      "éĿ¢å£ģè®¡åĪĴ": 1908,
      "åĮħæĭ¬": 1909,
      "åĬª": 1910,
      "çİ©": 1911,
      "ä½Ĩåľ¨": 1912,
      "æķĮ": 1913,
      "æĪĲåĬŁ": 1914,
      "è§ģåĪ°": 1915,
      "åĸĬ": 1916,
      "æĴŀ": 1917,
      "ç»Īäºİ": 1918,
      "å¹¿æĴŃ": 1919,
      "æĹģè¾¹": 1920,
      "åĹ": 1921,
      "æĿĲ": 1922,
      "ä¸ĬäºĨ": 1923,
      "æĬ½": 1924,
      "æĥ§": 1925,
      "çİ°ä»£": 1926,
      "è½½": 1927,
      "åĽŀåĪ°": 1928,
      "æľ¬æĿ¥": 1929,
      "æŁ±": 1930,
      "åĪ©äºļ": 1931,
      "å®¹æĺĵ": 1932,
      "åłĨ": 1933,
      "çĪĨçĤ¸": 1934,
      "ç©¿æ¢Ńæľº": 1935,
      "æľīä»Ģä¹Ī": 1936,
      "æī¿": 1937,
      "åĬ¿": 1938,
      "æĿ¥è¶Ĭ": 1939,
      "åĪĨéĴŁ": 1940,
      "åı·çļĦ": 1941,
      "èĢĮä¸Ķ": 1942,
      "æĦıè¯Ĩ": 1943,
      "åĵ¦": 1944,
      "èĪªå¤©": 1945,
      "è¶ĬæĿ¥è¶Ĭ": 1946,
      "åı¦å¤ĸ": 1947,
      "ä¸ĬéĿ¢": 1948,
      "ä¸Ģä¸ªäºº": 1949,
      "éĥ½æľī": 1950,
      "éģ¿": 1951,
      "å¾Ĺå¾Ī": 1952,
      "ä½ıäºĨ": 1953,
      "éĵ¶æ²³": 1954,
      "æ¥ļ": 1955,
      "åľĪ": 1956,
      "ä½Ļ": 1957,
      "åŃ¤": 1958,
      "çļĦèģ": 1959,
      "è½¬åĲĳ": 1960,
      "æ¸ħæ¥ļ": 1961,
      "èįī": 1962,
      "æİ¢æµĭåĻ¨": 1963,
      "³å¤§": 1964,
      "å¼ĥ": 1965,
      "éĿĴ": 1966,
      "éĺĶ": 1967,
      "æĪĲçļĦ": 1968,
      "éļĶ": 1969,
      "æ»ĳ": 1970,
      "æīĵå¼Ģ": 1971,
      "ä¸Ģå®ļ": 1972,
      "ç»¿": 1973,
      "ä»ĸåľ¨": 1974,
      "æī¹": 1975,
      "æīĶ": 1976,
      "éģĹ": 1977,
      "æĭħ": 1978,
      "å¤ĸæĺŁ": 1979,
      "è¶£": 1980,
      "å¤±è´¥": 1981,
      "ç¼ĺ": 1982,
      "å£ģäºº": 1983,
      "åİŁåĽł": 1984,
      "åį±éĻ©": 1985,
      "èĹı": 1986,
      "çļĦä½įç½®": 1987,
      "åĪĽ": 1988,
      "ä¸įçŁ¥": 1989,
      "ä¸įæĸŃ": 1990,
      "åľ°æĸ¹": 1991,
      "å½¬": 1992,
      "åŁĥ": 1993,
      "å®ŀéªĮ": 1994,
      "æĤī": 1995,
      "çĶµç£ģ": 1996,
      "æĽ´å¤ļ": 1997,
      "åħħæ»¡": 1998,
      "çĪ¶äº²": 1999,
      "èĭıéĨĴ": 2000,
      "åĬªåĬĽ": 2001,
      "³å¤§åĪ©äºļ": 2002,
      "åĤ": 2003,
      "èı": 2004,
      "çļ®": 2005,
      "æĺ¯ä¸ª": 2006,
      "æĪı": 2007,
      "åĽŃ": 2008,
      "ä¼¤": 2009,
      "åĳĪ": 2010,
      "åħīå¹´": 2011,
      "éĽ¾": 2012,
      "æľºä¼ļ": 2013,
      "è¿ľå¤Ħ": 2014,
      "éĴ±": 2015,
      "å»ºéĢł": 2016,
      "æŁ¥": 2017,
      "é©±": 2018,
      "ç¢ĳ": 2019,
      "ç²¾ç¥ŀ": 2020,
      "çļĦå¿ĥ": 2021,
      "å®ı": 2022,
      "æİĮ": 2023,
      "ç»ıè¿ĩ": 2024,
      "è·³": 2025,
      "ä¾Ľ": 2026,
      "è¿ĲåĬ¨": 2027,
      "çĭĤ": 2028,
      "åĮ»çĶŁ": 2029,
      "æ¾³å¤§åĪ©äºļ": 2030,
      "å®«": 2031,
      "ç»ķ": 2032,
      "æī°": 2033,
      "æĸĩæĸ¯": 2034,
      "æĹłæķ°": 2035,
      "åĢį": 2036,
      "æİ¥è¿ĳ": 2037,
      "èº«ä¸Ĭ": 2038,
      "æĿ¥äºĨ": 2039,
      "æĺŁç³»": 2040,
      "ç½ª": 2041,
      "æģ¶": 2042,
      "æ¬§": 2043,
      "è·ĳ": 2044,
      "èµ°äºĨ": 2045,
      "åĨħå®¹": 2046,
      "èµĦæºĲ": 2047,
      "ä»Ĭå¤©": 2048,
      "å·¦åı³": 2049,
      "çļĦæīĭ": 2050,
      "ä¸ĢæŃ¥": 2051,
      "ä»ĸè¯´": 2052,
      "å¿Ĩ": 2053,
      "ä¸ĭéĿ¢": 2054,
      "è¦ģæ±Ĥ": 2055,
      "æľ¬èº«": 2056,
      "ä¸¤ä¸ªä¸ĸçºª": 2057,
      "åģľæŃ¢": 2058,
      "æİ©ä½ĵ": 2059,
      "æĪª": 2060,
      "å¥Ĺ": 2061,
      "å¤§éĩı": 2062,
      "åī¯": 2063,
      "å¾Īéļ¾": 2064,
      "æ²¡æľīä»»ä½ķ": 2065,
      "çĽ¸æ¯Ķ": 2066,
      "éĵģ": 2067,
      "åħĪçĶŁ": 2068,
      "æł¹æľ¬": 2069,
      "æ³¨æĦıåĪ°": 2070,
      "èĩªçĦ¶éĢīæĭ©": 2071,
      "æŃ¦åĻ¨": 2072,
      "éĤ£ç§į": 2073,
      "çļĦæŃ": 2074,
      "æļ´": 2075,
      "åĿĲåľ¨": 2076,
      "è¯ķéªĮ": 2077,
      "éħĴ": 2078,
      "ç¼ĵç¼ĵ": 2079,
      "çĶ·äºº": 2080,
      "çŀ¬": 2081,
      "å°ĺåŁĥ": 2082,
      "è¿°": 2083,
      "ä¸ĢåĲį": 2084,
      "ä¸Ģéĺµ": 2085,
      "äººåĳĺ": 2086,
      "æĿ¥åĪ°": 2087,
      "æ²¹": 2088,
      "å¯»": 2089,
      "å¾Īå¤§": 2090,
      "æĪĳä»¬çļĦ": 2091,
      "å¥½çļĦ": 2092,
      "ä½¿å¾Ĺ": 2093,
      "é»ĳæ´ŀ": 2094,
      "æİ¥è§¦": 2095,
      "çĶ»éĿ¢": 2096,
      "çĶ»å¸Ī": 2097,
      "ç©¿è¿ĩ": 2098,
      "æ¼ł": 2099,
      "ç§»åĬ¨": 2100,
      "ĸĦ": 2101,
      "ä¼ļåĦ¿": 2102,
      "èī¾": 2103,
      "çĽ´åĪ°": 2104,
      "æĮĩæĮĩ": 2105,
      "çİĭåŃĲ": 2106,
      "ç¯": 2107,
      "Ŀç¦»": 2108,
      "çļĦå£°éŁ³": 2109,
      "èµ«": 2110,
      "åĲİèĢħ": 2111,
      "åİļ": 2112,
      "ä½Ĩä»ĸ": 2113,
      "é¢ĳ": 2114,
      "ä¸¤äºº": 2115,
      "éļľ": 2116,
      "åĲĮæł·": 2117,
      "ä¿¡å¿µ": 2118,
      "çĻ½èī²": 2119,
      "æ¯Ķå¦Ĥ": 2120,
      "ç¬ĳçĿĢ": 2121,
      "æį¢": 2122,
      "æľīä¸Ģç§į": 2123,
      "æīĢæľīçļĦ": 2124,
      "æ¸ħæĻ": 2125,
      "è§Ħå¾ĭ": 2126,
      "äº¤æµģ": 2127,
      "çļĦè·Ŀç¦»": 2128,
      "æĩ": 2129,
      "è¿Ķ": 2130,
      "æĳ§": 2131,
      "è½»è½»": 2132,
      "é©¶": 2133,
      "ç«Ļåľ¨": 2134,
      "ä¿ĿæĮģ": 2135,
      "èİ«": 2136,
      "éĢĥäº¡": 2137,
      "æ¤": 2138,
      "è¿ħ": 2139,
      "ä¹Ŀ": 2140,
      "äºĭæĥħ": 2141,
      "èµ°åĪ°": 2142,
      "ç¼ĸ": 2143,
      "å¹³éĿ¢": 2144,
      "ç²Ĺ": 2145,
      "¯çĿĢ": 2146,
      "ä¼¦": 2147,
      "å¹½": 2148,
      "çľĭä¸įåĪ°": 2149,
      "æľĢè¿ĳ": 2150,
      "çľ¼åīį": 2151,
      "å¸¸ä¼Ł": 2152,
      "éĵľ": 2153,
      "å½±åĵį": 2154,
      "å¥³åŃ©": 2155,
      "æī¾åĪ°": 2156,
      "çĽĳåĲ¬": 2157,
      "åĩĨå¤ĩ": 2158,
      "çĨŁæĤī": 2159,
      "å¸¸ä¼ŁæĢĿ": 2160,
      "DC": 2161,
      "é½": 2162,
      "è¯į": 2163,
      "ä¸įäºĨ": 2164,
      "å¸®": 2165,
      "æ²¡ä»Ģä¹Ī": 2166,
      "æĺŁç©º": 2167,
      "ä¼ļåľº": 2168,
      "å¦ĤæŃ¤": 2169,
      "çľĭåĪ°çļĦ": 2170,
      "çļĦä¸Ģéĥ¨åĪĨ": 2171,
      "åħ¬éĩĮ": 2172,
      "éĴĪ": 2173,
      "è§£éĩĬ": 2174,
      "å¤įæĿĤ": 2175,
      "ä¼¼çļĦ": 2176,
      "åĿĲæłĩ": 2177,
      "çļĦæĦı": 2178,
      "ç¿»": 2179,
      "ç§ĴéĴŁ": 2180,
      "èŀį": 2181,
      "æĶ¹åıĺ": 2182,
      "çļĦçłĶç©¶": 2183,
      "ä»°": 2184,
      "äºĨèµ·æĿ¥": 2185,
      "æľīäºĨ": 2186,
      "ä½ĵçļĦ": 2187,
      "åĪĨä¹ĭä¸Ģ": 2188,
      "è°ĭ": 2189,
      "èĦļ": 2190,
      "æĮĩçĿĢ": 2191,
      "çŃīå¾ħ": 2192,
      "è¿Ļä¸ĢåĪĩ": 2193,
      "å¥ĩæĢª": 2194,
      "æĪ¿éĹ´": 2195,
      "éĵ¶æ²³ç³»": 2196,
      "æĳ§æ¯ģ": 2197,
      "æ¦": 2198,
      "èļ": 2199,
      "æĿ¾": 2200,
      "æĪĳè¯´": 2201,
      "å¯Ĥ": 2202,
      "çĽ¯çĿĢ": 2203,
      "åºı": 2204,
      "ç½©": 2205,
      "éĩĮéĿ¢": 2206,
      "æĸ¹éĿ¢": 2207,
      "èĤī": 2208,
      "é¦Ļ": 2209,
      "å¸¦çĿĢ": 2210,
      "æł¸å¼¹": 2211,
      "åıĺæĪĲäºĨ": 2212,
      "éĴ¢åį°": 2213,
      "çļĦçĽ®åħī": 2214,
      "åı¹": 2215,
      "å½ķ": 2216,
      "éģį": 2217,
      "é£Ł": 2218,
      "åĿĩ": 2219,
      "æĽ¹": 2220,
      "åĸ·": 2221,
      "çļĦæķ°": 2222,
      "çļĦç²¾": 2223,
      "è¿ħéĢŁ": 2224,
      "é¤": 2225,
      "łåŃĲ": 2226,
      "ä»·": 2227,
      "ä»ĭ": 2228,
      "åģĩ": 2229,
      "åħ¬åħĥ": 2230,
      "åįĬä¸ª": 2231,
      "ç»Ŀå¯¹": 2232,
      "æĶ¶åĪ°": 2233,
      "èİ·": 2234,
      "å±ŀäºİ": 2235,
      "è´£ä»»": 2236,
      "çļĦå·¨": 2237,
      "ä¸įåĨį": 2238,
      "åįİ": 2239,
      "åľ°éĹ®": 2240,
      "éĩĩ": 2241,
      "éĢĴ": 2242,
      "æĬĵ": 2243,
      "å°±èĥ½": 2244,
      "çº·": 2245,
      "ä½Ĩè¿Ļ": 2246,
      "å¾Īå¥½": 2247,
      "ç¬Ķ": 2248,
      "æľºåĻ¨": 2249,
      "ä¸īä½ĵèĪ°éĺŁ": 2250,
      "å¹³éĿĻ": 2251,
      "è¾¹ç¼ĺ": 2252,
      "è½¬èº«": 2253,
      "æµ®åľ¨": 2254,
      "åľ¨ä¸Ģèµ·": 2255,
      "æĽ¾ç»ı": 2256,
      "ä¸ĵä¸ļ": 2257,
      "éº»": 2258,
      "çŀ¬éĹ´": 2259,
      "æ¸ħæĻ°": 2260,
      "æĽ¹å½¬": 2261,
      "å®£": 2262,
      "æĹ§": 2263,
      "å¤§å®¶": 2264,
      "å°±ä¼ļ": 2265,
      "çĦ°": 2266,
      "è¿ĺåľ¨": 2267,
      "çļĦçĥ": 2268,
      "ä½¿åĳ½": 2269,
      "æ£Ģ": 2270,
      "è®¾å¤ĩ": 2271,
      "çķĻä¸ĭ": 2272,
      "ä¼Ĭæĸĩæĸ¯": 2273,
      "æľ«æĹ¥": 2274,
      ">âĢľ": 2275,
      "ĥåĽ´": 2276,
      "åľ£": 2277,
      "æĪ´": 2278,
      "è¯º": 2279,
      "æľīåı¯èĥ½": 2280,
      "å¾ģ": 2281,
      "æĥłåŃĲ": 2282,
      "ç©ºæ°Ķ": 2283,
      "æľĢç»Ī": 2284,
      "å®ĩå®ĻçļĦ": 2285,
      "ç¤¼": 2286,
      "æ¶²": 2287,
      "æĤ¨çļĦ": 2288,
      "æľĽè¿ľ": 2289,
      "æŁĶ": 2290,
      "çł´å£ģäºº": 2291,
      "èĥĮæĻ¯": 2292,
      "èĨľ": 2293,
      "é¾": 2294,
      "ä¸Ģé¢Ĺ": 2295,
      "ä¸ŃåĽ½": 2296,
      "å¿ĺ": 2297,
      "èĪ·": 2298,
      "èµ·èº«": 2299,
      "ä¿¡åı·": 2300,
      "éĩįæĸ°": 2301,
      "ä¸ĩå¹´": 2302,
      "åıįå°Ħ": 2303,
      "èĭ±": 2304,
      "æĮīçħ§": 2305,
      "åĬŁçİĩ": 2306,
      "æĽ²çİĩ": 2307,
      "æ¸¸æĪı": 2308,
      "æľĽè¿ľéķľ": 2309,
      "èĶ": 2310,
      "æĸ½": 2311,
      "ä¸Ĭæĸ¹": 2312,
      "åĨ¥": 2313,
      "å¤§èĦĳ": 2314,
      "èĪĴ": 2315,
      "æŀĲ": 2316,
      "åıªè¦ģ": 2317,
      "ä¿®": 2318,
      "å¤ªç©ºåĨĽ": 2319,
      "ç¦ı": 2320,
      "ä¾ĭ": 2321,
      "æĸ°çļĦ": 2322,
      "å»¶ç»ª": 2323,
      "ä¸ľæĸ¹å»¶ç»ª": 2324,
      "çļĦèĥĮ": 2325,
      "ä¹ĺ": 2326,
      "åľ°çľĭçĿĢ": 2327,
      "çļĦæ·": 2328,
      "æķ¢": 2329,
      "çīĽ": 2330,
      "åīįéĿ¢": 2331,
      "åĥıä¸Ģä¸ª": 2332,
      "å¼ĢäºĨ": 2333,
      "ç»´æĮģ": 2334,
      "æĳĦ": 2335,
      "å²Ľ": 2336,
      "è§ģè¿ĩ": 2337,
      "ä»¶äºĭ": 2338,
      "å¥³äºº": 2339,
      "åĲĦç§į": 2340,
      "åĬłéĢŁåĻ¨": 2341,
      "åĵªåĦ¿": 2342,
      "æ¥¼": 2343,
      "æĬ¬å¤´": 2344,
      "åĸľæ¬¢": 2345,
      "è¤": 2346,
      "èĳ": 2347,
      "éĤ£ä¸Ģ": 2348,
      "çľĭæĿ¥": 2349,
      "çļĦæĮ": 2350,
      "è¿ĽæĿ¥": 2351,
      "è´¹": 2352,
      "åĩłåįģ": 2353,
      "äºĮåı·": 2354,
      "çĽ®çļĦ": 2355,
      "çĶµæ¢¯": 2356,
      "åį«æĺŁ": 2357,
      "è§Ħæ¨¡": 2358,
      "çĹĽ": 2359,
      "æī§åīĳ": 2360,
      "æĭ¥æľī": 2361,
      "å®¢": 2362,
      "ç»į": 2363,
      "å½Ĵ": 2364,
      "ä¹Łåľ¨": 2365,
      "çļĦèį": 2366,
      "æĽ¼": 2367,
      "æĶ¾åĪ°": 2368,
      "éĶ®": 2369,
      "éª¨": 2370,
      "ç§ĳå¹»": 2371,
      "åŃĹå¹ķ": 2372,
      "ç´ł": 2373,
      "åħĥé¦ĸ": 2374,
      "èĭ¦": 2375,
      "æĿĲæĸĻ": 2376,
      "çļĤ": 2377,
      "æĺ¯æľĢ": 2378,
      "éĹ»": 2379,
      "ä½Ĩçİ°åľ¨": 2380,
      "è¿ĺæ²¡æľī": 2381,
      "è¿ľæĸ¹": 2382,
      "åĢŁ": 2383,
      "æ¶Į": 2384,
      "éĢļä¿¡": 2385,
      "æŃ»ç¥ŀ": 2386,
      "æ·±å¤Ħ": 2387,
      "é¢Ĩå¯¼": 2388,
      "åħ´è¶£": 2389,
      "æĵįä½ľ": 2390,
      "é©±åĬ¨": 2391,
      "èĸĦ": 2392,
      "é¬": 2393,
      "åħį": 2394,
      "çĶ°": 2395,
      "å°±è¦ģ": 2396,
      "å½»": 2397,
      "æĺŁéĻħ": 2398,
      "æĭŁ": 2399,
      "ç³Ĭ": 2400,
      "åĿİ": 2401,
      "æĹłéĻĲ": 2402,
      "å¤ªéĺ³çļĦ": 2403,
      "èµ°åĩº": 2404,
      "åĨħçļĦ": 2405,
      "èģĶç³»": 2406,
      "æĢ»æĺ¯": 2407,
      "ç»ĨèĬĤ": 2408,
      "é½Ĳ": 2409,
      "èĽ": 2410,
      "é¼": 2411,
      "ä¸ĢæĿ¡": 2412,
      "æĪĴ": 2413,
      "è¿Ļè¯Ŀ": 2414,
      "æĿ¯": 2415,
      "åįĪ": 2416,
      "éĤ¦": 2417,
      "èĩĤ": 2418,
      "æŃĮ": 2419,
      "æĢĢ": 2420,
      "åŃĲçļĦ": 2421,
      "æ°¢": 2422,
      "åįģå¤ļ": 2423,
      "äºĭå®ŀ": 2424,
      "åĲĮå¿Ĺ": 2425,
      "ä¹ĭåĲİ": 2426,
      "æĮĩæĮ¥": 2427,
      "åĪ¶éĢł": 2428,
      "å£«åħµ": 2429,
      "åį«å®ģ": 2430,
      "æĶ¿æ²»": 2431,
      "æ°¸çĶŁ": 2432,
      "è¯Ńè¨Ģ": 2433,
      "ç¿¼": 2434,
      "æĿ¨åį«å®ģ": 2435,
      "çļĦæģĴ": 2436,
      "çļĦæµ·": 2437,
      "è¸ª": 2438,
      "é¬¼": 2439,
      "¨çī¹": 2440,
      "å©": 2441,
      "äº¨çī¹": 2442,
      "è¿Ļäºĭ": 2443,
      "ä¸įå¤ļ": 2444,
      "çľĭäºĨ": 2445,
      "è¾Ĩ": 2446,
      "ç¨Ģ": 2447,
      "ç»ıåİĨ": 2448,
      "ä»Ģä¹Īéĥ½": 2449,
      "å¥½äºĨ": 2450,
      "ç»´åº¦": 2451,
      "åŃ¦èĢħ": 2452,
      "çļĦç¾": 2453,
      "å¦Ĥä½ķ": 2454,
      "çľ¼ä¸Ń": 2455,
      "å½¢çļĦ": 2456,
      "çĶµè¯Ŀ": 2457,
      "åıįåºĶ": 2458,
      "äº§çĶŁçļĦ": 2459,
      "åĵªéĩĮ": 2460,
      "è¡£æľį": 2461,
      "çļĦæĻº": 2462,
      "çļĦæĢĿæĥ³": 2463,
      "éĻĦè¿ĳ": 2464,
      "åľ¨ä»ĸ": 2465,
      "å¤§å°ı": 2466,
      "å¤§æ°Ķ": 2467,
      "å¯Į": 2468,
      "æĺİæĺ¾": 2469,
      "åįģäºĶ": 2470,
      "é£ŀæľº": 2471,
      "çĲĨäºĭ": 2472,
      "åľ°çĲĥä¸Ĭ": 2473,
      "çĽ´å¾Ħ": 2474,
      "çĶµèĦĳ": 2475,
      "æĢĿç»´": 2476,
      "èĢģå¸Ī": 2477,
      "è®¤è¯Ĩ": 2478,
      "æĪĸèĢħ": 2479,
      "åĲ«ä¹ī": 2480,
      "åĿİçī¹": 2481,
      "11": 2482,
      "ä¸Ģåıª": 2483,
      "ä¸įå¾Ĺ": 2484,
      "ä»ĸæĺ¯": 2485,
      "æĹ¶åĪ»": 2486,
      "å£®": 2487,
      "åı·ä¸Ĭ": 2488,
      "èĢĮå·²": 2489,
      "äºĨä¸ĢäºĽ": 2490,
      "è®¡æĹ¶": 2491,
      "éĩįåĬĽ": 2492,
      "éĩıåŃĲ": 2493,
      "èĩ³äºİ": 2494,
      "åĪ«çļĦ": 2495,
      "èĪ°éĺŁçļĦ": 2496,
      "æĸ¯èĤ¯": 2497,
      "åĸĿ": 2498,
      "é»ĺæĸ¯èĤ¯": 2499,
      "åıĹåĪ°": 2500,
      "è¯ģå®ŀ": 2501,
      "éħį": 2502,
      "çĮľ": 2503,
      "éģ¥è¿ľ": 2504,
      "æĪĳçŁ¥éģĵ": 2505,
      "è®¨": 2506,
      "çĽĺ": 2507,
      "ç§¦": 2508,
      "è¿ĩçļĦ": 2509,
      "ç¨į": 2510,
      "æĻ¶": 2511,
      "è°·": 2512,
      "ä¸īä½ĵäºº": 2513,
      "çī©ä½ĵ": 2514,
      "æıı": 2515,
      "èĪªè¿¹": 2516,
      "å¨ľ": 2517,
      "çº¢èī²": 2518,
      "çıŃ": 2519,
      "çļĦé«ĺ": 2520,
      "åŃ£": 2521,
      "æĪĳä¹Ł": 2522,
      "èĥ½éĩı": 2523,
      "è¾Ľ": 2524,
      "çļĦè¶": 2525,
      "è¢ĭ": 2526,
      "ç¨ĭå¿ĥè¯´": 2527,
      "å§¨": 2528,
      "é»ĳèī²": 2529,
      "æķ°æį®": 2530,
      "åįķä½į": 2531,
      "æ¨¡åŀĭ": 2532,
      "éĻįä¸´": 2533,
      "åıĮçľ¼": 2534,
      "æŃ»ç¥ŀæ°¸çĶŁ": 2535,
      "çļĦæĹ¶åĢĻ": 2536,
      "çľĭåĩº": 2537,
      "çļĦæ¸": 2538,
      "éĥ½å¾Ī": 2539,
      "åĳµ": 2540,
      "æķ¬": 2541,
      "æĮĤ": 2542,
      "æľĢåĪĿ": 2543,
      "åĿı": 2544,
      "åĿł": 2545,
      "ä¹ĭä¸Ń": 2546,
      "èī²å½©": 2547,
      "æīĭä¸Ń": 2548,
      "é¡º": 2549,
      "è¿Ļæĺ¯ä¸Ģä¸ª": 2550,
      "é£ŀèĪ¹çļĦ": 2551,
      "çĬ¯": 2552,
      "åĸĦ": 2553,
      "èįĴ": 2554,
      "ç¾İåĽ½": 2555,
      "åıĳåĩºçļĦ": 2556,
      "éĻįä½İ": 2557,
      "æĲŀ": 2558,
      "å®½å§¨": 2559,
      "ç¬¬ä¸īéĥ¨": 2560,
      "çļĦèĦ¸": 2561,
      "æŁĲç§į": 2562,
      "ä¸Ĭå¸Ŀ": 2563,
      "ï¼Łï¼ģâĢĿ": 2564,
      "åīįæĸ¹": 2565,
      "çļĦçĪ": 2566,
      "å°ĨåĨĽ": 2567,
      "çļĦäººä»¬": 2568,
      "åı¯ä»¥çľĭåĪ°": 2569,
      "åħ¬åı¸": 2570,
      "åģļåĩº": 2571,
      "è¡¨çİ°": 2572,
      "èģĶéĤ¦": 2573,
      "è£Ĥ": 2574,
      "åĲĦä¸ª": 2575,
      "çĽĳè§Ĩ": 2576,
      "èĮ«": 2577,
      "åıĤåĬł": 2578,
      "éĢĤåºĶ": 2579,
      "çıł": 2580,
      "èĴĻ": 2581,
      "éĿĴéĵľ": 2582,
      "ä¸Ģä½į": 2583,
      "çĶ³": 2584,
      "æīİ": 2585,
      "å¥ĭ": 2586,
      "åĽ°éļ¾": 2587,
      "åºŁ": 2588,
      "çº¯": 2589,
      "åŃĲå¼¹": 2590,
      "è¡ĮåĬ¨": 2591,
      "çĲĥä½ĵ": 2592,
      "çĽ¸å¯¹": 2593,
      "åĢ¾": 2594,
      "æİ¥åıĹ": 2595,
      "å¤±éĩį": 2596,
      "è®©äºº": 2597,
      "åĪ«äºº": 2598,
      "æĿ¡ä»¶": 2599,
      "çİĭåĽ½": 2600,
      "ä»¤äºº": 2601,
      "è¯ģæĺİ": 2602,
      "å±ıå¹ķ": 2603,
      "æ¦Ĥ": 2604,
      "çļĦéĹ®é¢ĺ": 2605,
      "çļĦçľ¼çĿĽ": 2606,
      "åĩī": 2607,
      "åĩĿ": 2608,
      "æĪĳä¸į": 2609,
      "å¿Ļ": 2610,
      "ä¼ĳ": 2611,
      "éĿ©": 2612,
      "åı¯æĺ¯": 2613,
      "åīįçļĦ": 2614,
      "çĻ»": 2615,
      "åı·åĴĮ": 2616,
      "å®ŀçİ°": 2617,
      "ç½Ĺè¾ĳè¯´": 2618,
      "æŃ£æĺ¯": 2619,
      "æ°´æĺŁ": 2620,
      "æĽ´åĬł": 2621,
      "è¡¨æĥħ": 2622,
      "æĶ¾å¤§": 2623,
      "ä»įåľ¨": 2624,
      "éĢıè¿ĩ": 2625,
      "åįĩèµ·": 2626,
      "éħ·": 2627,
      "éĺ¶æ¢¯": 2628,
      "æ¹ĸ": 2629,
      "æ¬§æ´²": 2630,
      "æĺ¯ä¸įæĺ¯": 2631,
      "åĲ¹": 2632,
      "ä¹°": 2633,
      "åľ°ä¸ĭ": 2634,
      "èĥ½çľĭåĪ°": 2635,
      "çļĦæŀ": 2636,
      "æĸĩåĮĸ": 2637,
      "åĪĨæŀĲ": 2638,
      "éķ¿éķ¿": 2639,
      "çļĦç¥": 2640,
      "æĦıåĳ³": 2641,
      "å£°æĺİ": 2642,
      "åľ°çĲĥçļĦ": 2643,
      "æħ§": 2644,
      "èĻļ": 2645,
      "æ®ĭ": 2646,
      "è´¨éĩı": 2647,
      "æŀģåħ¶": 2648,
      "éĽĨä¸Ń": 2649,
      "åĲĥæĥĬ": 2650,
      "çļĦåħīèĬĴ": 2651,
      "è¿ĩç¨ĭä¸Ń": 2652,
      "çļĦæĥħåĨµ": 2653,
      "çļĦå¤ªéĺ³": 2654,
      "åľ¨éĤ£éĩĮ": 2655,
      "å°Ĭ": 2656,
      "ä¹ł": 2657,
      "å¤§å¤ļ": 2658,
      "å¤§åİħ": 2659,
      "åĩºåİ»": 2660,
      "æĬĺ": 2661,
      "ä»İæĿ¥": 2662,
      "æĸ¹æ¡Ī": 2663,
      "æ··": 2664,
      "çļĦçĹ": 2665,
      "åľ°çĲĥæĸĩæĺİ": 2666,
      "é¡¾": 2667,
      "ç¡¬": 2668,
      "è®©ä»ĸ": 2669,
      "è®©å¥¹": 2670,
      "çĪ¬": 2671,
      "èĥľ": 2672,
      "éĶģ": 2673,
      "éļ¾ä»¥": 2674,
      "äºļæ´²": 2675,
      "å±±æĿ": 2676,
      "éľ²åĩº": 2677,
      "åĺĽ": 2678,
      "æĹĭè½¬": 2679,
      "çī©çĲĨåŃ¦": 2680,
      "æģĲæĥ§": 2681,
      "åī©ä¸ĭ": 2682,
      "è´Łè´£": 2683,
      "æİĮæı¡": 2684,
      "æ°¢å¼¹": 2685,
      "çļĦè¶ħ": 2686,
      "¯æķĳ": 2687,
      "çĳ": 2688,
      "é²": 2689,
      "ä¸Ģçľ¼": 2690,
      "ä¸Ģå£°": 2691,
      "ä¸Ģèīĺ": 2692,
      "åĪĢ": 2693,
      "åľ¨å¤ªç©ºä¸Ń": 2694,
      "ä¸ªäºº": 2695,
      "å·´": 2696,
      "çļĦæŁ": 2697,
      "èĢĹ": 2698,
      "ä¸ĭäºĨ": 2699,
      "å£³": 2700,
      "è¦Ĩ": 2701,
      "åħīä¸Ń": 2702,
      "çĶŁæĢģ": 2703,
      "æ³ª": 2704,
      "æľĢå¤§çļĦ": 2705,
      "æĻ¨": 2706,
      "èºº": 2707,
      "æļĸ": 2708,
      "æŃ»äºĨ": 2709,
      "ç³»ç»ŁçļĦ": 2710,
      "å°Ķè¾Ľ": 2711,
      "çĪĨåıĳ": 2712,
      "èµ«å°Ķè¾Ľ": 2713,
      "åĨ¥çİĭæĺŁ": 2714,
      "å½»åºķ": 2715,
      "èµ«å°Ķè¾Ľæł¹": 2716,
      "PDC": 2717,
      "çļĦæł·åŃĲ": 2718,
      "ãĢĲ": 2719,
      "ãĢĳ": 2720,
      "æĺı": 2721,
      "åıĭ": 2722,
      "åĨ»": 2723,
      "ä¹Łå°±æĺ¯": 2724,
      "å¾Īå°ĳ": 2725,
      "è¦ģæĺ¯": 2726,
      "è¿Ļä¸ªä¸ĸçķĮ": 2727,
      "èĦı": 2728,
      "æ¯Ķè¾ĥ": 2729,
      "å¹¶ä¸įæĺ¯": 2730,
      "æķ°éĩı": 2731,
      "è§£è¯»": 2732,
      "è¯ķåĽ¾": 2733,
      "å¹¿éĺĶ": 2734,
      "åħ·æľī": 2735,
      "ä»ħä»ħ": 2736,
      "çº¸æĿ¡": 2737,
      "æĿ¨åĨ¬": 2738,
      "è°¢è°¢": 2739,
      "éģĩåĪ°": 2740,
      "æ¯ķç«Ł": 2741,
      "éŀ": 2742,
      "īæĥłåŃĲ": 2743,
      "è¿İ": 2744,
      "åĲ´": 2745,
      "åľ¨ä¸Ģä¸ª": 2746,
      "æĹĹ": 2747,
      "ç¨ĭåº¦": 2748,
      "æĭĸ": 2749,
      "å®ļçļĦ": 2750,
      "å£°è¯´": 2751,
      "ç¼º": 2752,
      "å¾®ç¬ĳ": 2753,
      "å®ĥä»¬çļĦ": 2754,
      "è®¾æĥ³": 2755,
      "éĩĳåŃĹ": 2756,
      "çļĦæĥ³": 2757,
      "æĬ¤å£«": 2758,
      "é£ŀè¡ĮåĻ¨": 2759,
      "é¸£": 2760,
      "å®¡åĪ¤": 2761,
      "ç¨ĭå¿ĥåĴĮAA": 2762,
      "éĻ·åħ¥": 2763,
      "å±±æĿīæĥłåŃĲ": 2764,
      "çļĦçĶŁæ´»": 2765,
      "çļĦæĸ¹åĲĳ": 2766,
      "ä¸ĢåĿĹ": 2767,
      "å®Ī": 2768,
      "âĢĿï¼Į": 2769,
      "è¯ļ": 2770,
      "æī«": 2771,
      "åºŃ": 2772,
      "å½¹": 2773,
      "æµ¸": 2774,
      "åıĳåħī": 2775,
      "å°ıå¿ĥ": 2776,
      "å¹´åĲİ": 2777,
      "è´µ": 2778,
      "è·Į": 2779,
      "äºĮçĻ¾": 2780,
      "çĽ¸äºĴ": 2781,
      "æµ·æ´ĭ": 2782,
      "æı´": 2783,
      "å§ĭçļĩ": 2784,
      "åĳ½ä»¤": 2785,
      "èĻ«": 2786,
      "åį«éĺŁ": 2787,
      "æĶ¿å®ĺ": 2788,
      "æł¸èģļåıĺ": 2789,
      "éķľéĿ¢": 2790,
      "å°½å¤´": 2791,
      "è®°å½ķ": 2792,
      "æĹ©å°±": 2793,
      "åĮºåŁŁ": 2794,
      "åĢĴè®¡æĹ¶": 2795,
      "ä¸ĢåĪĩéĥ½": 2796,
      "é£ĺæµ®": 2797,
      "å¯ĴåĨ·": 2798,
      "æĩĤ": 2799,
      "éĩĳåŃĹå¡Ķ": 2800,
      "åħ¸": 2801,
      "æĹ¦": 2802,
      "æĹı": 2803,
      "æĸĳ": 2804,
      "åĨĴ": 2805,
      "åĨľ": 2806,
      "çĿĢçļĦ": 2807,
      "éĥ½è¢«": 2808,
      "å¥¹åľ¨": 2809,
      "å¿ĥçĲĨ": 2810,
      "åĲĳåīį": 2811,
      "æĬĬå®ĥ": 2812,
      "çģ¾": 2813,
      "æīĢåľ¨": 2814,
      "çĲĥå½¢": 2815,
      "å¹´çļĦ": 2816,
      "å§Ĩ": 2817,
      "æĢİæł·": 2818,
      "çĸ¯": 2819,
      "éļĲèĹı": 2820,
      "æī§è¡Į": 2821,
      "æĢĿæĥ³éĴ¢åį°": 2822,
      "å¢ŀåĬł": 2823,
      "å´©": 2824,
      "è¿ĶåĽŀ": 2825,
      "âĸ": 2826,
      "å¤«": 2827,
      "ä¸Ģåįĥ": 2828,
      "äºĨåĩł": 2829,
      "ä¸įåľ¨": 2830,
      "çİī": 2831,
      "ä¼ĺ": 2832,
      "éĺ»": 2833,
      "è¾ĵ": 2834,
      "ä¸īé¢Ĺ": 2835,
      "æĭĨ": 2836,
      "èĢĮè¨Ģ": 2837,
      "è®©æĪĳ": 2838,
      "çĻ¾ä¸ĩ": 2839,
      "èĥģ": 2840,
      "åħīéĢŁé£ŀèĪ¹": 2841,
      "ç§ĳåŃ¦å®¶": 2842,
      "æī§æĶ¿å®ĺ": 2843,
      "åĬŀæ³ķ": 2844,
      "éĿĴéĵľæĹ¶ä»£": 2845,
      "æĦıåĳ³çĿĢ": 2846,
      "åĲ´å²": 2847,
      "âĸ¡": 2848,
      "ä¸Ģåı·": 2849,
      "è¿Ļäºº": 2850,
      "äººç¾¤": 2851,
      "ä½łè¯´": 2852,
      "ä½łçŁ¥éģĵ": 2853,
      "å¯¹çĿĢ": 2854,
      "ä¹Łæľī": 2855,
      "ä½Ĩå¥¹": 2856,
      "å¿ĥéĩĮ": 2857,
      "è½°": 2858,
      "æĭ¯æķĳ": 2859,
      "ä»İæľª": 2860,
      "å»Ĭ": 2861,
      "æ»ļ": 2862,
      "åģļçļĦ": 2863,
      "çĶµè§Ĩ": 2864,
      "æĺ¾å¾Ĺ": 2865,
      "å»ºè®¾": 2866,
      "æĥħæĬ¥": 2867,
      "è§Ĩéĩİ": 2868,
      "åºĶè¯¥æĺ¯": 2869,
      "å¨ģèĥģ": 2870,
      "æŀĦæĪĲ": 2871,
      "æĮģç»Ń": 2872,
      "æ²Ļæ¼ł": 2873,
      "ç¬¬äºĮéĥ¨": 2874,
      "åħ´å¥ĭ": 2875,
      "çļĦè´¨": 2876,
      "çļĦæ¯ı": 2877,
      "æķĮäºº": 2878,
      "æļ´éľ²": 2879,
      "ä»ĭç»į": 2880,
      "ç§¦å§ĭçļĩ": 2881,
      "åĲ´å²³": 2882,
      "Ġç¬¬": 2883,
      "åıł": 2884,
      "åĪº": 2885,
      "æľīæĹ¶": 2886,
      "è¯´å®Į": 2887,
      "èĢĢ": 2888,
      "èµ¶": 2889,
      "æĪĲåĳĺ": 2890,
      "æ²¡æľīäºº": 2891,
      "èīº": 2892,
      "æľĢé«ĺ": 2893,
      "è¿Ľä¸ĢæŃ¥": 2894,
      "èµ°åİ»": 2895,
      "æļĤ": 2896,
      "æķ°åŃ¦": 2897,
      "æĶ¾å¼ĥ": 2898,
      "æĸ°éĹ»": 2899,
      "èĢģäºº": 2900,
      "è´¨åŃĲ": 2901,
      "èį¯": 2902,
      "è®¾è®¡": 2903,
      "è®°å¿Ĩ": 2904,
      "ç²¾ç¡®": 2905,
      "åĺ´": 2906,
      "éĴĪçľ¼": 2907,
      "èĪ·çªĹ": 2908,
      "çļĦæĮĩ": 2909,
      "åıĽ": 2910,
      "æĺ¯åĲ¦": 2911,
      "åľ¨å¥¹": 2912,
      "è¿Ļå°±": 2913,
      "è¿Ļä¸¤": 2914,
      "ä¸įåĬ¨": 2915,
      "éĢĿ": 2916,
      "å¾Īæľī": 2917,
      "æĥ³æĥ³": 2918,
      "å¾ĹçŁ¥": 2919,
      "æĻķ": 2920,
      "ç¬¬ä¸Ģä¸ª": 2921,
      "è¿ľè¿ľ": 2922,
      "çłģ": 2923,
      "æĢĿèĢĥ": 2924,
      "åĲįåŃĹ": 2925,
      "æŃ»äº¡": 2926,
      "æľĢåĲİçļĦ": 2927,
      "çģ«æĺŁ": 2928,
      "éļıæĹ¶": 2929,
      "ç¢į": 2930,
      "åıĳçĶŁäºĨ": 2931,
      "ç´§å¼ł": 2932,
      "èĮĥåĽ´": 2933,
      "é¥Ń": 2934,
      "çļĦèº«ä½ĵ": 2935,
      "åı¸ä»¤": 2936,
      "èı²": 2937,
      "æī§åīĳäºº": 2938,
      ")ï¼Į": 2939,
      "Ĳåħ¹": 2940,
      "å¤¹": 2941,
      "äºĨè§£": 2942,
      "å°º": 2943,
      "ä¸įè¡Į": 2944,
      "æĸĲåħ¹": 2945,
      "æīĺ": 2946,
      "æĪĳå°±": 2947,
      "åĳĨ": 2948,
      "æİĪ": 2949,
      "æŀĿ": 2950,
      "éĻ¨": 2951,
      "è·¨": 2952,
      "åĽŀåİ»": 2953,
      "ä¸īä½ĵæĸĩæĺİ": 2954,
      "ç¦ģ": 2955,
      "èĲ¨": 2956,
      "åİŁåŃĲ": 2957,
      "éªĹ": 2958,
      "æıĲä¾Ľ": 2959,
      "å¹²ä»Ģä¹Ī": 2960,
      "ç»Īç«¯": 2961,
      "æºĥ": 2962,
      "ç»ĿæľĽ": 2963,
      "æ¨¡ç³Ĭ": 2964,
      "çĨĦ": 2965,
      "æĥĬå¥ĩ": 2966,
      "åłĤ": 2967,
      "æī©æķ£": 2968,
      "èµ«å°Ķè¾Ľæł¹é»ĺæĸ¯èĤ¯": 2969,
      "æĸĲåħ¹ç½Ĺ": 2970,
      "19": 2971,
      "çĴ": 2972,
      "çļĦéķ¿": 2973,
      "äºķ": 2974,
      "åĲ¨": 2975,
      "å¼Ħ": 2976,
      "ä¼½": 2977,
      "ä¼ı": 2978,
      "èĪŀ": 2979,
      "éĥ½ä¼ļ": 2980,
      "åı¯è§ģ": 2981,
      "ä¹Łæ²¡": 2982,
      "æĺŁèĪ°": 2983,
      "æĸĩçİĭ": 2984,
      "åĪĨåĪ«": 2985,
      "çļĦç®": 2986,
      "ç®±": 2987,
      "åĵ²": 2988,
      "èµ°è¿Ľ": 2989,
      "éĴ®": 2990,
      "ä½łä»¬çļĦ": 2991,
      "åĸ»": 2992,
      "éĵ¾": 2993,
      "åįĥä¸ĩ": 2994,
      "æıĲåĩº": 2995,
      "ä¿ĿæĬ¤": 2996,
      "åĳ¨æĸĩçİĭ": 2997,
      "æī¾åĪ°äºĨ": 2998,
      "ç»ĦåĲĪ": 2999,
      "ä¸ĢçĽ´åľ¨": 3000,
      "æ¨¡æĭŁ": 3001,
      "çŁŃçŁŃ": 3002,
      "æħ¢æħ¢": 3003,
      "åĪ¤æĸŃ": 3004,
      "åĬŀåħ¬": 3005,
      "æ½ľ": 3006,
      "å¤©æĸĩåįķä½į": 3007,
      "é¦ĻçļĤ": 3008,
      "çļĦæģĴæĺŁ": 3009,
      "è®¨è®º": 3010,
      "ä¸Ģä¼ļåĦ¿": 3011,
      "ä¸ĢæĹ¦": 3012,
      "æĺ¯å¯¹": 3013,
      "åĲĲ": 3014,
      "åľ¨éĤ£": 3015,
      "äºĨä¸ĭæĿ¥": 3016,
      "å°ĸ": 3017,
      "æĹ¢": 3018,
      "ä»ĸå¯¹": 3019,
      "éĢĲ": 3020,
      "åĴĴ": 3021,
      "éĥ½èĥ½": 3022,
      "æķı": 3023,
      "æĥ³èµ·": 3024,
      "æĸĩä»¶": 3025,
      "æĮ¤": 3026,
      "åĿĳ": 3027,
      "çŁ¥è¯Ĩ": 3028,
      "çļĦç¤": 3029,
      "ä½ľæĪĺ": 3030,
      "äººç±»ç¤¾ä¼ļ": 3031,
      "å°Ĩåľ¨": 3032,
      "æİ¥æĶ¶": 3033,
      "åħ³éĶ®": 3034,
      "åĨĽäºº": 3035,
      "æįŁ": 3036,
      "ç©¿çĿĢ": 3037,
      "åĩºæĿ¥çļĦ": 3038,
      "åŃ©åŃĲä»¬": 3039,
      "æĦŁè§īåĪ°": 3040,
      "å°½ç®¡": 3041,
      "è§Ĵåº¦": 3042,
      "çļĦæ°Ķ": 3043,
      "æĢ¥åī§": 3044,
      "é¸Ł": 3045,
      "åĸĬéģĵ": 3046,
      "éĻ¨çŁ³": 3047,
      "ä»Ķ": 3048,
      "å¤ķ": 3049,
      "äºĨè®¸å¤ļ": 3050,
      "è¿Ļä¸įæĺ¯": 3051,
      "ä¸įçĶ¨": 3052,
      "åĩĮ": 3053,
      "åį¡": 3054,
      "éĢĶ": 3055,
      "åīįè¿Ľ": 3056,
      "çļĦèĤ": 3057,
      "çļĦç¼": 3058,
      "æŃ£ç¡®": 3059,
      "æ¶¡": 3060,
      "å¢¨": 3061,
      "åĳ½è¿Ĳ": 3062,
      "é¦Ĩ": 3063,
      "è¡ĮæĺŁéĺ²å¾¡": 3064,
      "å¹²æī°": 3065,
      "åı°ä¸Ĭ": 3066,
      "æ»¡äºĨ": 3067,
      "çĽĳæµĭ": 3068,
      "ä¸ĵå®¶": 3069,
      "æĬķåħ¥": 3070,
      "çĩĥçĥ§": 3071,
      "çļĦæģĲ": 3072,
      "éģ¿åħį": 3073,
      "åĪĽéĢł": 3074,
      "æĽ²çİĩé©±åĬ¨": 3075,
      "çļĦæ·±": 3076,
      "è¦ĨçĽĸ": 3077,
      "åį«éĺŁéķ¿": 3078,
      "è¹": 3079,
      "Ħå¥¥": 3080,
      "ķé¤": 3081,
      "æĺ¯ä»İ": 3082,
      "äºĨåĲĹ": 3083,
      "æĹ·": 3084,
      "æĿĤçļĦ": 3085,
      "æĪĳè¦ģ": 3086,
      "çļĦæ¶": 3087,
      "åºŀ": 3088,
      "ä¹Łèĥ½": 3089,
      "çĦ¦": 3090,
      "æĥ³æ³ķ": 3091,
      "æĸĩåŃĹ": 3092,
      "åĬ¨çļĦ": 3093,
      "çĤī": 3094,
      "å¤´åıĳ": 3095,
      "çļĦçª": 3096,
      "ç®Ń": 3097,
      "åħ³äºİ": 3098,
      "å¤±åİ»äºĨ": 3099,
      "åĨĽéĺŁ": 3100,
      "æħ°": 3101,
      "æĸ¯åĿ¦": 3102,
      "èĭĹ": 3103,
      "ä¸ĸçºªçļĦ": 3104,
      "ç¾İä¸½": 3105,
      "çĸı": 3106,
      "è®°å¾Ĺ": 3107,
      "éĺµåĪĹ": 3108,
      "é¥ķé¤": 3109,
      "ç§ĺå¯Ĩ": 3110,
      "çĵ¦åŃ£": 3111,
      "å®£å¸ĥ": 3112,
      "é¾Ļ": 3113,
      "çļĦèĥĮæĻ¯": 3114,
      "å´©æºĥ": 3115,
      "çĨĦçģŃ": 3116,
      "é¥ķé¤®": 3117,
      "çĵ¦åŃ£å§Ĩ": 3118,
      "IA": 3119,
      "çļĦç©ºéĹ´": 3120,
      "ä¸Ģéĥ¨åĪĨ": 3121,
      "åľ¨å¤§": 3122,
      "åľ¨ä»ĸä»¬": 3123,
      "ä¸įæĥ³": 3124,
      "ä¸ŃçļĦä¸Ģ": 3125,
      "è¯´æĺİ": 3126,
      "çļĦæĭ": 3127,
      "ä¸Ģä¸ªå°ı": 3128,
      "æĺŁäºĳ": 3129,
      "ä¸īäºº": 3130,
      "è¡Įä¸º": 3131,
      "æĥ³èµ·äºĨ": 3132,
      "æ³Ĭ": 3133,
      "å¾Ĺå¤ļ": 3134,
      "æĽ¿": 3135,
      "èĢħçļĦ": 3136,
      "åĽŀæĿ¥": 3137,
      "çĥ¦": 3138,
      "çĻ¾å¤ļ": 3139,
      "åĪ¶æŃ¢": 3140,
      "æ·±æ°´": 3141,
      "æľĢåĲİä¸Ģ": 3142,
      "æ¶ĪçģŃ": 3143,
      "å½±åĥı": 3144,
      "é¢ĹæģĴæĺŁ": 3145,
      "è§ĦåĪĻ": 3146,
      "èīĺé£ŀèĪ¹": 3147,
      "åı¤ä»£": 3148,
      "æİ¥çĿĢè¯´": 3149,
      "ç²ĴåŃĲ": 3150,
      "åºĬä¸Ĭ": 3151,
      "çľŁæŃ£çļĦ": 3152,
      "åħħæ»¡äºĨ": 3153,
      "æ¤ħ": 3154,
      "ä¼¦å¨ľ": 3155,
      "å¯ĤéĿĻ": 3156,
      "çļĦç²¾ç¥ŀ": 3157,
      "Ħå¥¥ä¼¦å¨ľ": 3158,
      "çļĦä¸¤": 3159,
      "çļĦéĤ£ä¸ª": 3160,
      "æĺ¯åĽłä¸º": 3161,
      "ä¸įå¤ª": 3162,
      "åĪ°æĿ¥": 3163,
      "ãĢĤâĢĿ</": 3164,
      "å°±åı¯ä»¥": 3165,
      "è¾Ī": 3166,
      "æµİ": 3167,
      "åıĳéĢģ": 3168,
      "ä½ĵç§¯": 3169,
      "æĭĽ": 3170,
      "è¿ĺæľīä¸Ģ": 3171,
      "è¿Ľåİ»": 3172,
      "åįģåĩł": 3173,
      "å¦»": 3174,
      "èĪ°ä¸Ĭ": 3175,
      "æĦıæĢĿ": 3176,
      "æ±½": 3177,
      "çľŁæĺ¯": 3178,
      "ä¸»ä»»": 3179,
      "éĺŁåĪĹ": 3180,
      "æĪĺå£«": 3181,
      "çĶµæ³¢": 3182,
      "æ³ķå¾ĭ": 3183,
      "å¼ºçĥĪ": 3184,
      "æķ°åŃĹ": 3185,
      "èĥ¡": 3186,
      "æ¼Ĥ": 3187,
      "ä¿Ŀè¯ģ": 3188,
      "ç»ĦæĪĲ": 3189,
      "åį³å°Ĩ": 3190,
      "è¶ħè¿ĩ": 3191,
      "éĨĴæĿ¥": 3192,
      "èģļéĽĨ": 3193,
      "èµĦæĸĻ": 3194,
      "çĵ¶": 3195,
      "ä¼Łå¤§çļĦ": 3196,
      "å·¥ç¨ĭå¸Ī": 3197,
      "æĹĭæ¶¡": 3198,
      "æĬ¬èµ·": 3199,
      "çº³ç±³": 3200,
      "è¶³å¤Ł": 3201,
      "ç¨³å®ļ": 3202,
      "çļĦæĶ¿": 3203,
      "åĵĪåĵĪ": 3204,
      "æĦıè¯ĨåĪ°": 3205,
      "èļģ": 3206,
      "èĲ¨ä¼Ĭ": 3207,
      "ä»Ķç»Ĩ": 3208,
      "çļĦæīĢæľī": 3209,
      "çļĦåŃĺåľ¨": 3210,
      "è¿Ļä¸¤ä¸ª": 3211,
      "æĿİ": 3212,
      "åŃĶ": 3213,
      "ä¸ŃéĹ´": 3214,
      "ä¸Ĭæ¬¡": 3215,
      "æĪĳä¼ļ": 3216,
      "å¼Ĺ": 3217,
      "çĽĴ": 3218,
      "çľĭåİ»": 3219,
      "éķĩ": 3220,
      "ç«¥": 3221,
      "æĮ¡": 3222,
      "é¢¤": 3223,
      "çļĦè°": 3224,
      "çģ¿": 3225,
      "é£ŀæĺŁ": 3226,
      "çĤ¹åĦ¿": 3227,
      "åħ¨æģ¯": 3228,
      "çĲĨæĥ³": 3229,
      "ä½įäºİ": 3230,
      "è¿Ļæł·ä¸Ģä¸ª": 3231,
      "åĩ»ä¸Ń": 3232,
      "èĥ¶": 3233,
      "åĮĸçļĦ": 3234,
      "æĶ¾åľ¨": 3235,
      "å¤įæĿĤçļĦ": 3236,
      "çĭĦå¥¥ä¼¦å¨ľ": 3237,
      "æŃ¤æĹ¶": 3238,
      "çļĦäºĭæĥħ": 3239,
      "åį°è±¡": 3240,
      "æ¢¦ä¸Ń": 3241,
      "é¡¹çĽ®": 3242,
      "å²ģæľĪ": 3243,
      "æ¼«éķ¿çļĦ": 3244,
      "ç¼ĸéĺŁ": 3245,
      "å¥³åŃ©åĦ¿": 3246,
      "çİīèı²": 3247,
      "çĺ": 3248,
      "çļĦä¸į": 3249,
      "åľ¨åľ°": 3250,
      "æľīè¿ĩ": 3251,
      "æĪĳçİ°åľ¨": 3252,
      "èĢ³": 3253,
      "æĬĽ": 3254,
      "æĥĳ": 3255,
      "éĿ¢ç§¯": 3256,
      "ç©ºçĻ½": 3257,
      "è¿ĺèĥ½": 3258,
      "åĪĨåŃĲ": 3259,
      "æľºæŀĦ": 3260,
      "çİ°åľ¨çļĦ": 3261,
      "è´´": 3262,
      "çľ¼éķľ": 3263,
      "åĽŀäºĭ": 3264,
      "æµ·ä¸Ń": 3265,
      "æµ·çİĭæĺŁ": 3266,
      "åģļåĪ°": 3267,
      "å¤±åİ»": 3268,
      "äºĶä¸ª": 3269,
      "æĹ¥åŃĲ": 3270,
      "åįĬå¾Ħ": 3271,
      "å½±åŃĲ": 3272,
      "æķ´ä½ĵ": 3273,
      "æ¼Ķ": 3274,
      "æĢİä¹Īæł·": 3275,
      "å¤ľç©º": 3276,
      "æ®µæĹ¶éĹ´": 3277,
      "éľ²çıł": 3278,
      "èŃ¦æĬ¥": 3279,
      "åħ«åįģ": 3280,
      "æĤ¬æµ®åľ¨": 3281,
      "å¹¸è¿Ĳ": 3282,
      "å±ħçĦ¶": 3283,
      "éº¦": 3284,
      "æ²¿çĿĢ": 3285,
      "çĲĨäºĭä¼ļ": 3286,
      "çĶ³çİīèı²": 3287,
      "18": 3288,
      "çļĦå®ĩå®Ļ": 3289,
      "ä»ĺ": 3290,
      "ä¸Ģå¤©": 3291,
      "è¯¾": 3292,
      "ä¸įæķ¢": 3293,
      "å¿§": 3294,
      "éĤ£ä½ł": 3295,
      "è¯´äºĨ": 3296,
      "åĴ±": 3297,
      "å¾Īä¸į": 3298,
      "å¾Īå°ı": 3299,
      "æ¯Ľ": 3300,
      "æ´Ĺ": 3301,
      "åĲĳä¸Ĭ": 3302,
      "çĽ¸åĲĮ": 3303,
      "é»ĳèī²çļĦ": 3304,
      "è¡¨ç¤º": 3305,
      "ä¾µ": 3306,
      "ä¸ĩåįĥç±³": 3307,
      "çĬ¹": 3308,
      "å¼ķèµ·": 3309,
      "æĻºæħ§": 3310,
      "æ®¿": 3311,
      "æ¯ıæ¬¡": 3312,
      "å®¤ä¸Ń": 3313,
      "å¿ħè¦ģ": 3314,
      "é¢Ħæµĭ": 3315,
      "å¼Ĥå¸¸": 3316,
      "æ½®": 3317,
      "çļĦè´£": 3318,
      "å¹¸ç¦ı": 3319,
      "çĩĥæĸĻ": 3320,
      "èĴ¸": 3321,
      "åħ±åĲĮ": 3322,
      "å¯»æī¾": 3323,
      "éļľç¢į": 3324,
      "èĶ½": 3325,
      "éĺ¶æ¢¯è®¡åĪĴ": 3326,
      "çģ¾éļ¾": 3327,
      "¹ģ": 3328,
      "èľ": 3329,
      "äº«": 3330,
      "å°¼": 3331,
      "âĢĿãĢĤ": 3332,
      "ç»ľ": 3333,
      "äººåľ¨": 3334,
      "åĩŃ": 3335,
      "ä¸Ĭæł¡": 3336,
      "åĨ¯": 3337,
      "éĤ£å°±": 3338,
      "è¡¥": 3339,
      "æĬĸ": 3340,
      "ç©ºæĹ·": 3341,
      "æµĵ": 3342,
      "åıªæľīä¸Ģ": 3343,
      "ç¨ĭåºı": 3344,
      "æĪĲä¸Ģ": 3345,
      "æĭĴ": 3346,
      "å°ıåŀĭ": 3347,
      "ç»ıæµİ": 3348,
      "å¾ĹåĪ°äºĨ": 3349,
      "ä»ĸä»¬åľ¨": 3350,
      "ä¸¤æ¬¡": 3351,
      "çĶ¨çļĦ": 3352,
      "ä¸ĸçķĮä¸Ĭ": 3353,
      "å®ŀéĻħ": 3354,
      "å¤ªç©ºä¸ŃçļĦ": 3355,
      "éĹ®éģĵ": 3356,
      "äººç±»æĸĩæĺİ": 3357,
      "åĽŀå¤´": 3358,
      "è¡¨è¾¾": 3359,
      "èĤ¡": 3360,
      "å¥³æĢ§": 3361,
      "ä¸ĸçºªåīį": 3362,
      "éĿĻéĿĻ": 3363,
      "å®ĺåĳĺ": 3364,
      "ä¹Łä¸įçŁ¥éģĵ": 3365,
      "åĢĴæĺ¯": 3366,
      "å¯¼èĩ´": 3367,
      "åĳ¨åĽ´çļĦ": 3368,
      "ç£¨": 3369,
      "çī©çĲĨåŃ¦å®¶": 3370,
      "ç§°ä¸º": 3371,
      "åĳ¼åĲ¸": 3372,
      "æ½ĺ": 3373,
      "éŃĶæĪĴ": 3374,
      "çīĽé¡¿": 3375,
      "çļĦç¾İ": 3376,
      "é²ľ": 3377,
      "è¡ĮæĺŁéĺ²å¾¡çĲĨäºĭä¼ļ": 3378,
      "çļĦè´£ä»»": 3379,
      "»çĴ": 3380,
      "å«": 3381,
      "çļĦå·¥ä½ľ": 3382,
      "æĺ¥": 3383,
      "ä»ĸæĬĬ": 3384,
      "æĪĳåľ¨": 3385,
      "çİ»çĴ": 3386,
      "æĹ¶çļĦ": 3387,
      "éĤ£æĺ¯ä¸Ģ": 3388,
      "è¯´è¿ĩ": 3389,
      "èµŀ": 3390,
      "æĬĹ": 3391,
      "ä½łåľ¨": 3392,
      "å°±è¡Į": 3393,
      "å¯¹ä»ĸ": 3394,
      "è¿ĩåİ»äºĨ": 3395,
      "æİł": 3396,
      "åħīç²Ĵ": 3397,
      "æĭ¦": 3398,
      "èµ·èĪª": 3399,
      "èī°éļ¾": 3400,
      "çļĦèĮ": 3401,
      "çķĮéĿ¢": 3402,
      "ä¸İä¼ļ": 3403,
      "æ¸Ĭ": 3404,
      "åı¯èĥ½æĢ§": 3405,
      "çļĦçĬ": 3406,
      "ä½¿ä»ĸ": 3407,
      "æ±ĩ": 3408,
      "åĵŃ": 3409,
      "é»ĳåŁŁ": 3410,
      "éĩįå¤į": 3411,
      "å¤ĦçĲĨ": 3412,
      "åħ¬ä¼Ĺ": 3413,
      "åĽĽåįģ": 3414,
      "èĤ©": 3415,
      "æľĽçĿĢ": 3416,
      "å¼Ģå§ĭäºĨ": 3417,
      "æįķ": 3418,
      "éªĳ": 3419,
      "åĲĦä½į": 3420,
      "åĨ·éĿĻ": 3421,
      "ç¾¤æĺŁ": 3422,
      "è¿Ļä¸ĢçĤ¹": 3423,
      "é»ĺé»ĺ": 3424,
      "æĮīéĴ®": 3425,
      "çĹĩ": 3426,
      "âĢĶâĢĶâĢĿ": 3427,
      "è¿¹è±¡": 3428,
      "åħ·ä½ĵ": 3429,
      "ä»¿ä½Ľæĺ¯": 3430,
      "èĮ¶": 3431,
      "ä¹±çºªåħĥ": 3432,
      "é¢ĦèŃ¦": 3433,
      "æĺ¾çĦ¶æĺ¯": 3434,
      "å°ģéĹŃ": 3435,
      "å²©çŁ³": 3436,
      "çĵ¦è¥¿": 3437,
      "æĴŀåĩ»": 3438,
      "çļĦç¥ŀ": 3439,
      "å®¡åĪ¤æĹ¥": 3440,
      "å¤ķéĺ³": 3441,
      "çİ»çĴĥ": 3442,
      "PIA": 3443,
      "çļĦçģ«": 3444,
      "çļĦéĩĳå±ŀ": 3445,
      "ãĢĤ</": 3446,
      "è¿«": 3447,
      "ä¸įéľĢè¦ģ": 3448,
      "å¾ª": 3449,
      "å¼¯": 3450,
      "å¤§åľ°": 3451,
      "æĥ¨": 3452,
      "èĩ£": 3453,
      "åºĵ": 3454,
      "ä½Ĩæ²¡æľī": 3455,
      "ç¬¼": 3456,
      "æľĢå¤§": 3457,
      "åĬ¨çĿĢ": 3458,
      "çļĦèĭ": 3459,
      "åĪĨä¹ĭ": 3460,
      "æĻĵ": 3461,
      "ä¸İåľ°çĲĥ": 3462,
      "åģı": 3463,
      "æ¸¯": 3464,
      "é£ŀåĲĳ": 3465,
      "å¤ĸçķĮ": 3466,
      "éĩįçļĦ": 3467,
      "çĥģ": 3468,
      "åħ³éĹŃ": 3469,
      "å®Įæķ´": 3470,
      "å¸¸è§Ħ": 3471,
      "è§£åĨ³": 3472,
      "çİĭå®«": 3473,
      "åİŁå§ĭ": 3474,
      "åıĳçİ°äºĨ": 3475,
      "ä½İè°·": 3476,
      "è¿Ľè¡ĮçļĦ": 3477,
      "å±Ĥæ¬¡": 3478,
      "èĲ½åĪ°": 3479,
      "çĭ±": 3480,
      "ç¾İçļĦ": 3481,
      "åįķåħĥ": 3482,
      "ä¹Łä¸įåı¯èĥ½": 3483,
      "çļĦæķ´": 3484,
      "åıĮæīĭ": 3485,
      "éĹªçĥģ": 3486,
      "æĪ¿åŃĲ": 3487,
      "åĨ°æ²Ļ": 3488,
      "å·®ä¸įå¤ļ": 3489,
      "ä¸Ŀæ¯«": 3490,
      "ä¸»è¦ģæĺ¯": 3491,
      "ç¢İçīĩ": 3492,
      "æ¹¿": 3493,
      "è½¯ä»¶": 3494,
      "ä¹ĭå¤ĸçļĦ": 3495,
      "çļĦèģĶ": 3496,
      "å¤ĸæĺŁæĸĩæĺİ": 3497,
      "èĤīçľ¼": 3498,
      "åĴĴè¯Ń": 3499,
      "æ½ĺå¯Ĵ": 3500,
      "**": 3501,
      "æĨ": 3502,
      "ä¸¢": 3503,
      "ä»ĸçŁ¥éģĵ": 3504,
      "è®¯": 3505,
      "å¤§åŃ¦": 3506,
      "æ²«": 3507,
      "çļĦæ¼": 3508,
      "éĺħ": 3509,
      "çº¹": 3510,
      "å¯¹æĸ¹": 3511,
      "æ²¡äºº": 3512,
      "åŃĲä¸Ĭ": 3513,
      "å¾Īé«ĺ": 3514,
      "åħīèĬĴ": 3515,
      "æĺİç¡®": 3516,
      "å®ĥæĺ¯": 3517,
      "èī¯": 3518,
      "ä¸¤èĪ°": 3519,
      "ç¨ĭå¿ĥçļĦ": 3520,
      "éĹ®èĢħ": 3521,
      "æ±ī": 3522,
      "ä¸īä½ĵæĺŁç³»": 3523,
      "äºĨä¸Ģçľ¼": 3524,
      "å®ĮäºĨ": 3525,
      "æıĴ": 3526,
      "åĳ½é¢ĺ": 3527,
      "å¸¸å¸¸": 3528,
      "è¿ĻéĩĮçļĦ": 3529,
      "å¸¦æĿ¥": 3530,
      "ä¿¡æģ¯çªĹåı£": 3531,
      "æŀĹæł¼": 3532,
      "æĻºåŃĲçļĦ": 3533,
      "èĪ¬çļĦ": 3534,
      "çħ§äº®": 3535,
      "ä¿ĿåŃĺ": 3536,
      "æĸŃäºĨ": 3537,
      "çĨĶ": 3538,
      "åĶĲ": 3539,
      "åĨ¬çľłèĢħ": 3540,
      "ä¼ĬæĽ¼": 3541,
      "åĩĨç¡®": 3542,
      "åıĤè°ĭ": 3543,
      "å¨ģæħĳçºªåħĥ": 3544,
      "åıĸå¾Ĺ": 3545,
      "çĮĽ": 3546,
      "å®¡éĹ®èĢħ": 3547,
      "çĽ¸å½ĵäºİ": 3548,
      "å§Ķåĳĺ": 3549,
      "è¯ºä¼ĬæĽ¼": 3550,
      "æŃĮèĢħ": 3551,
      "å¤§æ°Ķå±Ĥ": 3552,
      "æĺ¨": 3553,
      "æĺ¯åķĬ": 3554,
      "è¯¢": 3555,
      "æ²Ĳ": 3556,
      "åĩºäºĨä¸Ģ": 3557,
      "çļĦæ¬": 3558,
      "å¥¹è¯´": 3559,
      "å¿ĥä¸Ń": 3560,
      "æŀļ": 3561,
      "èĩªçĶ±": 3562,
      "ç¬¦": 3563,
      "å¤ļçļĦ": 3564,
      "ä»ĸä»¬éĥ½": 3565,
      "çĶ¨äºİ": 3566,
      "è¿Ļä¸ªæĹ¶ä»£": 3567,
      "å·²ç»ıæ²¡æľī": 3568,
      "çľŁçļĦæĺ¯": 3569,
      "çŁ¥éģĵäºĨ": 3570,
      "æĪĺå½¹": 3571,
      "èº«è¾¹": 3572,
      "å½¢è±¡": 3573,
      "æĳ¸": 3574,
      "èĦĨ": 3575,
      "åģļäºĨ": 3576,
      "æĺ¾çİ°": 3577,
      "åıªæĺ¯ä¸Ģä¸ª": 3578,
      "æīĵç®Ĺ": 3579,
      "ä½İåħīéĢŁ": 3580,
      "è§ĨçĿĢ": 3581,
      "å¼łæı´": 3582,
      "æĴĴ": 3583,
      "å¤ªéĺ³ç³»çļĦ": 3584,
      "æ¨ª": 3585,
      "æĶ¿å§Ķ": 3586,
      "èĵĿæĺŁ": 3587,
      "ä¸įåĲĮçļĦ": 3588,
      "èĪ±å£ģ": 3589,
      "åįģåĪĨéĴŁ": 3590,
      "éĺ¶æ®µ": 3591,
      "çļĩå¸Ŀ": 3592,
      "æİ¨è¿ĽåĻ¨": 3593,
      "éĢĴç»Ļ": 3594,
      "çļĦçĥŁ": 3595,
      "èĳĹ": 3596,
      "éĻįä¸´æ´¾": 3597,
      "çĸ¯çĭĤ": 3598,
      "èīºæľ¯": 3599,
      "å¼ĹéĽ·": 3600,
      "ç¬¼ç½©": 3601,
      "å¼łæı´æľĿ": 3602,
      "ç¹ģ": 3603,
      "èª": 3604,
      "ä¸°": 3605,
      "å¤®": 3606,
      "ä¸Ģä»¶": 3607,
      "å®Ŀ": 3608,
      "è¿Ļä¸ľè¥¿": 3609,
      "è¯¡": 3610,
      "è¯ĳ": 3611,
      "æľīåħ³": 3612,
      "ä¸ªå¤©æĸĩåįķä½į": 3613,
      "ä¸įèµ·": 3614,
      "ä¸įæ¸ħ": 3615,
      "æĹħ": 3616,
      "æĿĳ": 3617,
      "æī¶": 3618,
      "å¤§çīĩ": 3619,
      "ä¼ª": 3620,
      "éĤ£äºº": 3621,
      "çºµ": 3622,
      "å¯¹èĩªå·±": 3623,
      "ä¹Łå°±": 3624,
      "è½´": 3625,
      "åıªåī©ä¸ĭ": 3626,
      "éĩĮçļĦ": 3627,
      "å±ĭ": 3628,
      "å¤ļäºĨ": 3629,
      "å·²è¢«": 3630,
      "é»¯": 3631,
      "çĶ¨äºĨ": 3632,
      "åĲĮæŃ¥": 3633,
      "å¤ĸéĥ¨": 3634,
      "åĽ½çİĭ": 3635,
      "çŃĸ": 3636,
      "å¹³çº¿": 3637,
      "æĮĩä»¤": 3638,
      "è±«": 3639,
      "åĩºçİ°çļĦ": 3640,
      "å®īä¹Ĳ": 3641,
      "å¾®è§Ĥ": 3642,
      "æīĢæľīäºº": 3643,
      "ç¥ŀç»ı": 3644,
      "åĽ´ç»ķ": 3645,
      "è¿Ľè¡ĮäºĨ": 3646,
      "æ¡Ĩ": 3647,
      "èĭ¥": 3648,
      "åĿĲä¸ĭ": 3649,
      "åĲĦåĽ½": 3650,
      "çŁ³å¤´": 3651,
      "éĨī": 3652,
      "ä¸īä½ĵä¸ĸçķĮçļĦ": 3653,
      "éĹªçĶµ": 3654,
      "å°ıæĹ¶åĲİ": 3655,
      "çļĦè·¯": 3656,
      "åĿļæĮģ": 3657,
      "èĦ¸ä¸Ĭ": 3658,
      "å¤±è´¥ä¸»ä¹ī": 3659,
      "è·¨è¶Ĭ": 3660,
      "å¦»åŃĲ": 3661,
      "åĴ±ä»¬": 3662,
      "çĬ¹è±«": 3663,
      "10": 3664,
      "åª": 3665,
      "æ§": 3666,
      "ä¸Ľ": 3667,
      "çļĦå¤©": 3668,
      "äºĨåĲ§": 3669,
      "åħ°": 3670,
      "è¿ĻåĦ¿": 3671,
      "è¿Ļçīĩ": 3672,
      "è¯ŀ": 3673,
      "æľīå¤ļ": 3674,
      "ä»ĸå·²ç»ı": 3675,
      "ä¸Ńå¤®": 3676,
      "åįĹ": 3677,
      "è¯´ä»Ģä¹Ī": 3678,
      "çľĭæ¸ħ": 3679,
      "éĿ¢ä¸´": 3680,
      "éĥ½æ²¡": 3681,
      "ä¹Łå¾Ī": 3682,
      "ç©ºèį¡": 3683,
      "åĳĢ": 3684,
      "éģ®": 3685,
      "èĩªèº«": 3686,
      "å°ıç»Ħ": 3687,
      "æĸ¹æ³ķ": 3688,
      "éĥ¨éĺŁ": 3689,
      "äºĭä»¶": 3690,
      "å¹´ä»£": 3691,
      "ç½Ĺè¾ĳçļĦ": 3692,
      "å¤ĸçļĦ": 3693,
      "ç±»ä¼¼": 3694,
      "åĽŀå¿Ĩ": 3695,
      "èº«åĲİ": 3696,
      "å¢ħ": 3697,
      "ä¸ŃçļĦä¸Ģä¸ª": 3698,
      "çĪ¸": 3699,
      "å·¨åŀĭ": 3700,
      "åĪ«å¢ħ": 3701,
      "èĪªç¨ĭ": 3702,
      "ç»ĻæĪĳ": 3703,
      "ä»įæĺ¯": 3704,
      "ç©¿éĢı": 3705,
      "ç´¯": 3706,
      "æĢ§çļĦ": 3707,
      "æĺ¯ä¸Ģç§į": 3708,
      "ç»Īæŀģ": 3709,
      "è¶ħçº§": 3710,
      "åĭ¤": 3711,
      "æ²Ļåıĳ": 3712,
      "å¯¼å¼¹": 3713,
      "æĭ¿èµ·": 3714,
      "åħŃä¸ª": 3715,
      "ç¬¬ä¸Ģéĥ¨": 3716,
      "éļĲåĸ»": 3717,
      "èĮĦ": 3718,
      "å»¶ç»Ń": 3719,
      "åĳĬè¯īä½ł": 3720,
      "åİĨåı²ä¸Ĭ": 3721,
      "ç¦»å¼ĢäºĨ": 3722,
      "åĽĽç»´ç©ºéĹ´": 3723,
      "å°¾è¿¹": 3724,
      "å¼ķåĬĽæ³¢åıĳå°Ħ": 3725,
      "çļĦæŃ»": 3726,
      "å°ĺåŁĥäºĳ": 3727,
      "éĿ©åĳ½": 3728,
      "çļĦæŁĲ": 3729,
      "çģ¿çĥ": 3730,
      "ä¸²": 3731,
      "çļĦåŁºç¡Ģ": 3732,
      "æĺ¯ä¸ºäºĨ": 3733,
      "æľīåĩł": 3734,
      "æľīè®¸å¤ļ": 3735,
      "ç»ĥ": 3736,
      "ä¸įçĶ±": 3737,
      "ä¸įåŃĺåľ¨": 3738,
      "ä¸Ĭä¸Ģ": 3739,
      "å¼Ł": 3740,
      "åľ°æĬĬ": 3741,
      "å¤§çº¦": 3742,
      "çļĦæ¢": 3743,
      "çļĦæ´": 3744,
      "æĥ¯": 3745,
      "å¸½": 3746,
      "ä½ĨæĪĳ": 3747,
      "ä¸ĭéĿ¢çļĦ": 3748,
      "çīĪ": 3749,
      "è¿ĺè¦ģ": 3750,
      "å¤ļæ¬¡": 3751,
      "ç¨ĭå¿ĥéĹ®": 3752,
      "æīĢè¯´": 3753,
      "è¿Ļä¸ªéĹ®é¢ĺ": 3754,
      "æĹłè®º": 3755,
      "è·ĥ": 3756,
      "åħ¶ä½Ļ": 3757,
      "åħ¨äººç±»": 3758,
      "èº²": 3759,
      "äººç±»ä¸ĸçķĮ": 3760,
      "çĽ¸åºĶ": 3761,
      "äºĨä¸ĢåĪĩ": 3762,
      "çĽ´åįĩ": 3763,
      "è§ģçļĦ": 3764,
      "åİŁæĿ¥": 3765,
      "å®īæħ°": 3766,
      "æ¯ıå¤©": 3767,
      "ä¿ĿçķĻ": 3768,
      "éĽ·è¾¾": 3769,
      "é»ĳæļĹä¸Ń": 3770,
      "å°½å¿«": 3771,
      "æĹ©å·²": 3772,
      "éĽªèĮĦ": 3773,
      "å¹¿åľº": 3774,
      "åħŃåįģ": 3775,
      "æĬ¥åĳĬ": 3776,
      "çģ¯åħī": 3777,
      "åĲ¯ç¤º": 3778,
      "è½¨éģĵä¸Ĭ": 3779,
      "è·ŁçĿĢ": 3780,
      "å¢ĵç¢ĳ": 3781,
      "çļĦæİ¨": 3782,
      "éľĩæĥĬ": 3783,
      "éĺ´å½±": 3784,
      "åĳĪçİ°": 3785,
      "éĢĥäº¡ä¸»ä¹ī": 3786,
      "çł´å£ģäººäºĮåı·": 3787,
      "å°ºåº¦": 3788,
      "æĭĴç»Ŀ": 3789,
      "éĿĻéĿĻåľ°": 3790,
      "æĺ¨å¤©": 3791,
      "çļĦåĬĽéĩı": 3792,
      "ä¸Ģäºº": 3793,
      "åĪĳ": 3794,
      "æĺ¯æľī": 3795,
      "åĲŀ": 3796,
      "åľ¨éĤ£ä¸ª": 3797,
      "è¿ĻæĿ¡": 3798,
      "ä¸įåĩº": 3799,
      "ä»ĸæ²¡æľī": 3800,
      "åĪ°è¿ĻéĩĮ": 3801,
      "æīŃ": 3802,
      "å¹¢": 3803,
      "çļĦæļ": 3804,
      "èĢĲ": 3805,
      "è¡¡": 3806,
      "ä½łèĥ½": 3807,
      "åıĳå¸ĥ": 3808,
      "å¾Īåĥı": 3809,
      "ä»¥åıĬ": 3810,
      "åħīæ»ĳ": 3811,
      "çĶŁçļĦ": 3812,
      "çĶŁçī©": 3813,
      "æĺİå¤©": 3814,
      "åĮĢ": 3815,
      "å¼Ģåħ³": 3816,
      "æĹłæīĢ": 3817,
      "ç½Ĺè¾ĳåįļå£«": 3818,
      "å·²ç»ıè¢«": 3819,
      "çļĦçĭ": 3820,
      "åħ¨ä¸ĸçķĮ": 3821,
      "å¦ĤåĲĮ": 3822,
      "åĩłå¤©": 3823,
      "çĽ¸åıį": 3824,
      "èº«ä½ĵ": 3825,
      "åĦ¿åŃĲ": 3826,
      "å¹¶éĿŀ": 3827,
      "è¾¹çķĮ": 3828,
      "èĥ¸": 3829,
      "è½¬åĬ¨": 3830,
      "å¾®å¾®": 3831,
      "çŃīçĿĢ": 3832,
      "è¡ĮæĺŁçļĦ": 3833,
      "åį«åħµ": 3834,
      "æł¸å¿ĥ": 3835,
      "éĽĨåĽ¢": 3836,
      "æĺ¾ç¤ºåĩº": 3837,
      "èīĺæĪĺèĪ°": 3838,
      "èĢĥå¯Ł": 3839,
      "æĲ¬": 3840,
      "éŃĤ": 3841,
      "åıĤæķ°": 3842,
      "æĺŁçİ¯åŁİ": 3843,
      "æĵİ": 3844,
      "çĪ±çļĦ": 3845,
      "ç«ŁçĦ¶": 3846,
      "æ¯įäº²": 3847,
      "å®īåħ¨å£°æĺİ": 3848,
      "åĲ¦åĪĻ": 3849,
      "çĭ¬ç«ĭ": 3850,
      "å¦Īå¦Ī": 3851,
      "çļĦæŃ£": 3852,
      "æĬĵä½ı": 3853,
      "æĢĢçĸĳ": 3854,
      "æĺŁèĪ°åľ°çĲĥ": 3855,
      "çļĦç¤¾ä¼ļ": 3856,
      "é¥ķé¤®é±¼": 3857,
      "æİłè¿ĩ": 3858,
      "æĻĵæĺİ": 3859,
      "Ġåįģ": 3860,
      "ĵĿ": 3861,
      "çļĦå¤©ç©º": 3862,
      "åľ¨åĨħçļĦ": 3863,
      "äºĨä»ĸ": 3864,
      "äºĨå¥½": 3865,
      "ä¸įæĹ¶": 3866,
      "çĶ²": 3867,
      "ä»ĸçľĭåĪ°": 3868,
      "æīĳ": 3869,
      "ä¸Ĭåįĩ": 3870,
      "å¥¶": 3871,
      "å¿į": 3872,
      "çĿĢä¸Ģä¸ª": 3873,
      "çļĦæĽ": 3874,
      "åİ¦": 3875,
      "æĢĸ": 3876,
      "æµĨ": 3877,
      "èĩªåĬ¨": 3878,
      "æ²¡æľīä»Ģä¹Ī": 3879,
      "æ¯Ĵ": 3880,
      "èµ·é£ŀ": 3881,
      "æĮº": 3882,
      "æĮĸ": 3883,
      "ä»İè¿Ļä¸ª": 3884,
      "æ¬£": 3885,
      "åĬ¨ä½ľ": 3886,
      "å¼ĢæĿ¥": 3887,
      "çļĦèŃ¦": 3888,
      "çļĦèĵĿ": 3889,
      "èĪ°ä½ĵ": 3890,
      "ä¸ĸçķĮä¸Ń": 3891,
      "æľºæ¢": 3892,
      "æĹłåĬĽ": 3893,
      "ç½Ĺè¾ĳéĹ®": 3894,
      "å¤ĸéĿ¢çļĦ": 3895,
      "çľŁç©º": 3896,
      "æİ¥ä¸ĭæĿ¥": 3897,
      "æĪĺåľº": 3898,
      "çļĦäººéĥ½": 3899,
      "èģĮ": 3900,
      "è®©ä½ł": 3901,
      "çªĦ": 3902,
      "ç¦»åİ»": 3903,
      "è¡¨æĺİ": 3904,
      "èĪªçº¿": 3905,
      "èĥĢ": 3906,
      "æ·±æµ·": 3907,
      "çģ«çĲĥ": 3908,
      "çŃīçŃī": 3909,
      "çħ§çīĩ": 3910,
      "é¦ĸéķ¿": 3911,
      "çĸ²": 3912,
      "è¿ĺæľīä¸Ģä¸ª": 3913,
      "æķĻæİĪ": 3914,
      "é¢ĦæĸĻ": 3915,
      "æĵ¦": 3916,
      "è·Łè¸ª": 3917,
      "ç¢İåĿĹ": 3918,
      "è¿½åĩ»": 3919,
      "ç§ĺä¹¦": 3920,
      "æ¸©æļĸ": 3921,
      "éŃĶé¬¼": 3922,
      "å¹´è½»äºº": 3923,
      "çļĦæ³¢": 3924,
      "åįłæį®": 3925,
      "çī¹åĪ«æĺ¯": 3926,
      "å¹½çģµ": 3927,
      "åħ¬åħĥä¸ĸçºª": 3928,
      "æııè¿°": 3929,
      "å±ıå¹ķä¸Ĭ": 3930,
      "èĥľåĪ©": 3931,
      "çļĦçĬ¶": 3932,
      "å¼ĹéĽ·æĸ¯": 3933,
      "çļĦæ¢¦": 3934,
      "çĽ´åįĩæľº": 3935,
      "æľºæ¢°": 3936,
      "ce": 3937,
      "¨èĥĢ": 3938,
      "²Į": 3939,
      "è²Į": 3940,
      "çļĦçĻ½": 3941,
      "è¿Ł": 3942,
      "åĲĽ": 3943,
      "è¿Ļä¹Łæĺ¯": 3944,
      "ä¸įå¯¹": 3945,
      "ä»ĸå°±": 3946,
      "åĪ°çļĦ": 3947,
      "å¥Ķ": 3948,
      "çĽĶ": 3949,
      "å¸ħ": 3950,
      "ä½łæĥ³": 3951,
      "å¯¹è±¡": 3952,
      "ä¹Łä¸įæĺ¯": 3953,
      "çĶŁäº§": 3954,
      "æĸĩåŃ¦": 3955,
      "åŁĭ": 3956,
      "åĿĢ": 3957,
      "æĻĭ": 3958,
      "æĬĬèĩªå·±": 3959,
      "ç¨ĭå¿ĥçľĭåĪ°": 3960,
      "å¦Ļ": 3961,
      "ä¸İæŃ¤": 3962,
      "å¤ªç©ºæľį": 3963,
      "æĦıå¤ĸ": 3964,
      "çĽ¸æľº": 3965,
      "æĦŁåħ´è¶£": 3966,
      "èµ°åĲĳ": 3967,
      "åľ°çĲĥä¸īä½ĵ": 3968,
      "çļĦäººç¾¤": 3969,
      "éĩįå¤§": 3970,
      "åĨįè¯´": 3971,
      "åĨĽäºĭ": 3972,
      "ç¼ķ": 3973,
      "è¿Ļæł·åģļ": 3974,
      "è®©ç¨ĭå¿ĥ": 3975,
      "å»ºè®®": 3976,
      "äºĶå¹´": 3977,
      "å¼ķæĵİ": 3978,
      "éĵº": 3979,
      "ç¬ĳç¬ĳ": 3980,
      "æĴĳ": 3981,
      "äº®çļĦ": 3982,
      "äº®åº¦": 3983,
      "éļıæĦı": 3984,
      "AAè¯´": 3985,
      "ç²¾èĩ´": 3986,
      "åħ¶ä»ĸäºº": 3987,
      "çļĦéĤ£ç§į": 3988,
      "éĻĲåĪ¶": 3989,
      "è°Īè¯Ŀ": 3990,
      "çļĦèĦļ": 3991,
      "å¹ħçĶ»": 3992,
      "çº¢å²¸åŁºåľ°": 3993,
      "åŃ¤çĭ¬": 3994,
      "é¢ĳçİĩ": 3995,
      "çļĦèįī": 3996,
      "äºĭå®ŀä¸Ĭ": 3997,
      "çļĦæĻºåŃĲ": 3998,
      "çļĦè´¨éĩı": 3999,
      "çļĦæĪĺçķ¥": 4000,
      "äºĪ": 4001,
      "ä¸ĢæĹ¶": 4002,
      "æĺ¯äººç±»": 4003,
      "å®Ĺ": 4004,
      "æľīä¸¤": 4005,
      "æľīä¸¤ä¸ª": 4006,
      "ä»ĸåıĪ": 4007,
      "ä¸ŃæľĢ": 4008,
      "åįı": 4009,
      "ä¸Ĭçľĭ": 4010,
      "å¼¦": 4011,
      "åľ°çĤ¹çĤ¹å¤´": 4012,
      "éĤª": 4013,
      "æĹ¶åħī": 4014,
      "æĹ¶æľŁ": 4015,
      "å¤§éĻĨ": 4016,
      "çļĦæĵ": 4017,
      "çļĦæŃ¦": 4018,
      "éĺ¿": 4019,
      "æĬµ": 4020,
      "æĥ«": 4021,
      "å¯¹è¿Ļ": 4022,
      "å¯¹ä½ł": 4023,
      "åı¯æĢķ": 4024,
      "ä¹Łåı¯ä»¥": 4025,
      "ç©ºçģµ": 4026,
      "ä¸ºæŃ¢": 4027,
      "è¡ĮçļĦ": 4028,
      "æĪĲæŀľ": 4029,
      "éĹ´çļĦ": 4030,
      "è¿ĺä¸į": 4031,
      "çĤ®": 4032,
      "éļĨ": 4033,
      "åģ¥": 4034,
      "ä¹ĭå¤Ħ": 4035,
      "æĹłåħ³": 4036,
      "å¤ªç©ºçĶµæ¢¯": 4037,
      "è´®": 4038,
      "èº¬": 4039,
      "åĵ¥": 4040,
      "å§Ĳ": 4041,
      "é«ĺèĥ½": 4042,
      "èĦī": 4043,
      "éĴ»": 4044,
      "åĽłç´ł": 4045,
      "ä»»åĬ¡": 4046,
      "äºĶçĻ¾": 4047,
      "æĶ¾ä¸ĭ": 4048,
      "æ´»åĬ¨": 4049,
      "çģ«çĦ°": 4050,
      "èĢģå¼Ł": 4051,
      "åıįæŃ£": 4052,
      "è¶Ĭè¿ĩ": 4053,
      "åŀĤ": 4054,
      "éļ¾éģĵ": 4055,
      "æ£µ": 4056,
      "åĽ¾å½¢": 4057,
      "èĭį": 4058,
      "éĢłæĪĲ": 4059,
      "è®¾æĸ½": 4060,
      "è¿Ľåħ¥äºĨ": 4061,
      "å¤ľéĩĮ": 4062,
      "æĦŁè§īèĩªå·±": 4063,
      "ä¼łç»Ł": 4064,
      "åłª": 4065,
      "é£İä¸Ń": 4066,
      "åĬŁèĥ½": 4067,
      "æĿĥéĻĲ": 4068,
      "çļĦæĻ¯": 4069,
      "æ¿ĢåĬ¨": 4070,
      "æī©å¤§": 4071,
      "æĦ¿æĦı": 4072,
      "åĹ¡": 4073,
      "é¤Ĳ": 4074,
      "çĳŀ": 4075,
      "éŀł": 4076,
      "ä¼½å°Ķ": 4077,
      "åĬŀåħ¬å®¤": 4078,
      "å§Ķåĳĺä¼ļ": 4079,
      "çļĦä¸ī": 4080,
      "çļĦéĥ¨åĪĨ": 4081,
      "çļĦåĨħå®¹": 4082,
      "åı¬": 4083,
      "æľĭ": 4084,
      "ä¸Ģéģĵ": 4085,
      "åľ¨è¿Ļç§į": 4086,
      "åħ»": 4087,
      "æľīéĻĲ": 4088,
      "ä¸įå¥½": 4089,
      "ä¸įå®ī": 4090,
      "åĩ¶": 4091,
      "åĪ°å¤Ħ": 4092,
      "åŃĻ": 4093,
      "åįĸ": 4094,
      "æī¯": 4095,
      "åĬ²": 4096,
      "å¤§ä½İè°·": 4097,
      "ä¼¯": 4098,
      "ç©·": 4099,
      "åĩºä¸Ģä¸ª": 4100,
      "ä½łè¦ģ": 4101,
      "éĥ½è¦ģ": 4102,
      "å¯¹æŃ¤": 4103,
      "ï¼Łï¼ģ": 4104,
      "çĲ³": 4105,
      "ä¸ºæŃ¤": 4106,
      "å¾Īè¿ľ": 4107,
      "åıªæīĭ": 4108,
      "ä¼ļæľī": 4109,
      "åĬ¨åĬĽ": 4110,
      "éķ¿éķ¿çļĦ": 4111,
      "ä»Ģä¹Īä¸ľè¥¿": 4112,
      "åħ¨éĿ¢": 4113,
      "ä½¿å¥¹": 4114,
      "æŃ£å¼ı": 4115,
      "èµ°ä¸Ĭ": 4116,
      "é«ĺçļĦ": 4117,
      "æ¶ī": 4118,
      "åı²æĻĵæĺİ": 4119,
      "å²Ĺ": 4120,
      "èĤ²": 4121,
      "éĢļè®¯": 4122,
      "ä¸¤ä¸ªä¸ĸçķĮ": 4123,
      "åİŁçĲĨ": 4124,
      "æīĢæľīäººéĥ½": 4125,
      "è£¹": 4126,
      "æĴķ": 4127,
      "åķĨ": 4128,
      "æ¼ı": 4129,
      "éĽ·å¿Ĺ": 4130,
      "åħīéĢŁçļĦ": 4131,
      "åĶ¤": 4132,
      "éĽªçĻ½": 4133,
      "äºĮç»´åĮĸ": 4134,
      "äºĮç»´å¹³éĿ¢": 4135,
      "æĲľ": 4136,
      "é¢ĨåŁŁ": 4137,
      "æĿĥåĬĽ": 4138,
      "åĨ²åĩ»": 4139,
      "ä¼ļè®®ä¸Ĭ": 4140,
      "é»ĳæļĹæ£®æŀĹæīĵåĩ»": 4141,
      "å»¶ä¼¸": 4142,
      "å¾Ģäºĭ": 4143,
      "å¥½åĥıæĺ¯": 4144,
      "éĶĻäºĨ": 4145,
      "äº¿å¹´": 4146,
      "åı¦ä¸Ģä¾§": 4147,
      "æĿ¿ä¸Ĭ": 4148,
      "æĭįæĳĦ": 4149,
      "èħ¿": 4150,
      "æĻļä¸Ĭ": 4151,
      "åĽºå®ļ": 4152,
      "ç¨ĭå¿ĥåĴĮåħ³ä¸Ģå¸Ĩ": 4153,
      "éĢıæĺİçļĦ": 4154,
      "ç½ĳç»ľ": 4155,
      "éľĩåĬ¨": 4156,
      "å®ıè§Ĥ": 4157,
      "ä¸¤ä¸ªä¸ĸçºªåīį": 4158,
      "å¤§éĩıçļĦ": 4159,
      "å¸®åĬ©": 4160,
      "çŃīå¾ħçĿĢ": 4161,
      "æ£Ģæµĭ": 4162,
      "åĢŁåĬ©": 4163,
      "å¤§å¤ļæķ°": 4164,
      "çĵ¦è¥¿éĩĮ": 4165,
      "çļĦæĵį": 4166,
      "ä¼½å°Ķå®ģ": 4167,
      "90": 4168,
      "Ice": 4169,
      "çļĦçĶ»": 4170,
      "çļĦè¡¨éĿ¢": 4171,
      "çļĦéĺ³åħī": 4172,
      "è¿Ŀ": 4173,
      "ä¸Ģæł¹": 4174,
      "ä¸Ģåº§": 4175,
      "ä¸ĢæĶ¯": 4176,
      "æĺ¯åĲĹ": 4177,
      "åľ¨ç©ºä¸Ń": 4178,
      "è¿ĻçĤ¹": 4179,
      "æĿ°": 4180,
      "ä»ĸéĤ£": 4181,
      "å¼ĤçļĦ": 4182,
      "å¿½": 4183,
      "çĿ£": 4184,
      "çĿģ": 4185,
      "å¤§æ¦Ĥ": 4186,
      "å¤§èĩ£": 4187,
      "å¤§åİ¦": 4188,
      "ä¼°": 4189,
      "ä¼ģ": 4190,
      "çļĦæ±": 4191,
      "çļĦæĳ": 4192,
      "è¡°": 4193,
      "ä½łçľĭ": 4194,
      "å°±æ²¡æľī": 4195,
      "åĴĮåŃ©åŃĲ": 4196,
      "å¯¹äººç±»": 4197,
      "å¯¹è¯Ŀ": 4198,
      "æ²¡äºĨ": 4199,
      "å¥¹æĺ¯": 4200,
      "ä½Ĩå¾Īå¿«": 4201,
      "åıĳçļĦ": 4202,
      "ä»¥æĿ¥": 4203,
      "æĪĲçĨŁ": 4204,
      "éĻª": 4205,
      "åĮĨ": 4206,
      "æľĢå¥½": 4207,
      "ä»ĸä»¬æĺ¯": 4208,
      "éĥģ": 4209,
      "ä»Ģä¹ĪçļĦ": 4210,
      "æ·¹": 4211,
      "éĽķ": 4212,
      "å·²ç»ıåľ¨": 4213,
      "èĢĮä¸įæĺ¯": 4214,
      "åı¯èĥ½çļĦ": 4215,
      "ä½¿èĩªå·±": 4216,
      "æĤ²": 4217,
      "å®ļä½į": 4218,
      "åĽŀåĪ°äºĨ": 4219,
      "ä¸īä½ĵåį±æľº": 4220,
      "å®ĩå®Ļå¹¿æĴŃ": 4221,
      "é«ĺéĢŁ": 4222,
      "æ°´å¹³": 4223,
      "åģļä»Ģä¹Ī": 4224,
      "è½¬ç§»": 4225,
      "è¿Ĳè½½": 4226,
      "åı£æ°Ķ": 4227,
      "æłĩå¿Ĺ": 4228,
      "åįĬå¤©": 4229,
      "æ¯ıç§Ĵ": 4230,
      "èĲ½ä¸ĭ": 4231,
      "æ¼Ĩ": 4232,
      "éĿĻæŃ¢": 4233,
      "éŁ¦": 4234,
      "çŁ³åĿĹ": 4235,
      "çļĦéĤ£ä¸Ģ": 4236,
      "æĿ¨æĻĭ": 4237,
      "ä¸¥éĩį": 4238,
      "æĮ¥æīĭ": 4239,
      "éĶĻè¯¯": 4240,
      "æľ¨æĺŁçļĦ": 4241,
      "éĢĤåĲĪ": 4242,
      "èĦ±æ°´": 4243,
      "èĦ±ç¦»": 4244,
      "ä½ľçĶ¨åĬĽ": 4245,
      "åĶ¯ä¸ĢçļĦ": 4246,
      "èħ¾": 4247,
      "åį±æľºçºªåħĥ": 4248,
      "å´ĸ": 4249,
      "çļĦçł´": 4250,
      "æģ¢å¤įäºĨ": 4251,
      "æĺİçĻ½äºĨ": 4252,
      "å®¢åİħ": 4253,
      "åĳµåĳµ": 4254,
      "èģĶéĤ¦æĶ¿åºľ": 4255,
      "ä¼ĳæģ¯": 4256,
      "ä»İæĿ¥æ²¡æľī": 4257,
      "èººåľ¨": 4258,
      "çļĦæĥ³è±¡": 4259,
      "âĸ¡âĸ¡": 4260,
      "è½°é¸£": 4261,
      "æ·±æ°´çİĭåŃĲ": 4262,
      "ç©ºèį¡èį¡": 4263,
      "çļĦçĬ¶æĢģ": 4264,
      "æľĭåıĭ": 4265,
      "æĿ¨æĻĭæĸĩ": 4266,
      "çļĦéĹ¨": 4267,
      "ä¸Ģå¼ł": 4268,
      "æĺ¯çĶ±": 4269,
      "æľīä¸ī": 4270,
      "æĿĨ": 4271,
      "ä»ĸå¦Ī": 4272,
      "åĪ°çİ°åľ¨": 4273,
      "æī¬": 4274,
      "ä¸ĬçĻ¾": 4275,
      "æĪĳèĥ½": 4276,
      "å¤§äºĨ": 4277,
      "çļĦæ¡": 4278,
      "çļĦæ£": 4279,
      "çļĦæ¨": 4280,
      "çļĦæı": 4281,
      "æĥľ": 4282,
      "è¾¨": 4283,
      "å¯¹æĪĳ": 4284,
      "å¥¹çŁ¥éģĵ": 4285,
      "ä½Ĩä¹Ł": 4286,
      "åŃĲéĩĮ": 4287,
      "å¾Īéķ¿æĹ¶éĹ´": 4288,
      "å¾Īå®¹æĺĵ": 4289,
      "æĪĲä¸Ģä¸ª": 4290,
      "å¤©ä½ĵ": 4291,
      "æĭ¾": 4292,
      "æĮ¯": 4293,
      "è¿ĽæŃ¥": 4294,
      "åĲĳä»ĸ": 4295,
      "æĸ¹éĿ¢çļĦ": 4296,
      "ä¸¤åĲį": 4297,
      "ä¸¤åįĥ": 4298,
      "åŁ¹": 4299,
      "éķ¿è¾¾": 4300,
      "äºĭåĦ¿": 4301,
      "åĲĮæĦı": 4302,
      "ï¼ģï¼ģ": 4303,
      "å¤ªç©ºçļĦ": 4304,
      "åħ¶ä¸ŃçļĦ": 4305,
      "åħ¶ä»ĸçļĦ": 4306,
      "ä¿¡å¿ĥ": 4307,
      "äºĨä¸Ģç§į": 4308,
      "æīĭæ®µ": 4309,
      "æµ·åĨĽ": 4310,
      "å®ĩå®Ļä¸ŃçļĦ": 4311,
      "åħ¥ä¾µ": 4312,
      "åı¯ä»¥åľ¨": 4313,
      "çĻ½Ice": 4314,
      "çłĶ": 4315,
      "å¹³éĿ¢ä¸Ĭ": 4316,
      "æľ¬è´¨": 4317,
      "åĬłä¸Ĭ": 4318,
      "åĽłæŃ¤": 4319,
      "å¹¶ä¸Ķ": 4320,
      "æ´»çĿĢ": 4321,
      "è¿Ĳæ²³": 4322,
      "å¾®ç¬ĳçĿĢ": 4323,
      "è¿ĻäºĽäºº": 4324,
      "å¥³åŃ©åŃĲ": 4325,
      "çº¢åį«åħµ": 4326,
      "ç«Ļèµ·æĿ¥": 4327,
      "ç½®èº«": 4328,
      "åŃĺåľ¨çļĦ": 4329,
      "è¯ĨåĪ«": 4330,
      "æ¶Īå¤±åľ¨": 4331,
      "è¿ŀç»Ń": 4332,
      "äº§çĶŁäºĨ": 4333,
      "åŁİå¸ĤçļĦ": 4334,
      "ç¬¬äºĮæ¬¡": 4335,
      "çļĦæķĮ": 4336,
      "é£İåĲ¹": 4337,
      "ç¤¾ä¼ļåŃ¦": 4338,
      "çļĦå¤ªç©ºåŁİ": 4339,
      "é©¬ä¸Ĭ": 4340,
      "ä¹ĭéĹ´çļĦ": 4341,
      "å¢Ļå£ģ": 4342,
      "ä¸īç»´ç©ºéĹ´": 4343,
      "åī©ä¸ĭçļĦ": 4344,
      "è¸ı": 4345,
      "æĻ®éĢļäºº": 4346,
      "æĭħå¿ĥ": 4347,
      "æ¤į": 4348,
      "çļĦæĦıæĢĿ": 4349,
      "ä»·åĢ¼": 4350,
      "èĪĴæľį": 4351,
      "æĪĸèĢħè¯´": 4352,
      "æķıæĦŁ": 4353,
      "é»ĺé»ĺåľ°": 4354,
      "å¾ªçİ¯": 4355,
      "ä¸°å¯Į": 4356,
      "æ§½": 4357,
      "æ¼Ĩé»ĳ": 4358,
      "é¹": 4359,
      "çļĦé£ŀèĪ¹": 4360,
      "çļĦæłĳ": 4361,
      "çļĦåĽ¾åĥı": 4362,
      "ä¸Ģçľĭ": 4363,
      "ä¸Ģä½ĵ": 4364,
      "åĪĺ": 4365,
      "æĺ¯å¾Ī": 4366,
      "æĺ¯è¿Ļæł·": 4367,
      "åľ¨åľ°çĲĥ": 4368,
      "äºĨäºĽ": 4369,
      "è¿Ļä»¶äºĭ": 4370,
      "æľīçĿĢ": 4371,
      "ä¸įåıĬ": 4372,
      "ä¸įä¹ħ": 4373,
      "ä¸Ńæł¡": 4374,
      "ä¸ĬéĿ¢çļĦ": 4375,
      "æĪĳå·²ç»ı": 4376,
      "æĪĳä¸įçŁ¥éģĵ": 4377,
      "å¤§è§Ħæ¨¡": 4378,
      "æĿ¥å¾Ĺ": 4379,
      "æ²ĥ": 4380,
      "éĤ£å°±æĺ¯": 4381,
      "çĽĬ": 4382,
      "èµı": 4383,
      "æĬĳ": 4384,
      "åİĺ": 4385,
      "æĺŁåħī": 4386,
      "æİı": 4387,
      "å¾Īåı¯èĥ½": 4388,
      "æĮ£": 4389,
      "ä¿ĥ": 4390,
      "å¤ļå¹´": 4391,
      "åĲĳä¸ĭ": 4392,
      "åĲĳå¤ĸ": 4393,
      "åĿ¡": 4394,
      "åĿª": 4395,
      "éķ¿æľŁ": 4396,
      "ä»Ģä¹Īéĥ½æ²¡æľī": 4397,
      "ä¸İä»ĸ": 4398,
      "åģ¶": 4399,
      "é£ŀå¿«": 4400,
      "åı·ä¸ĬçļĦ": 4401,
      "æĹłäºº": 4402,
      "å¥½åĲ§": 4403,
      "æ±Ĺ": 4404,
      "åº¦çļĦ": 4405,
      "çĲĨçĶ±": 4406,
      "çľ¼ç¥ŀ": 4407,
      "èº«å¤Ħ": 4408,
      "å½¢æĢģ": 4409,
      "çĥĽ": 4410,
      "å®ĮæĪĲäºĨ": 4411,
      "ç¼Ŀ": 4412,
      "å£ģçĤī": 4413,
      "ç²®": 4414,
      "è¾¹çļĦ": 4415,
      "èĪ°éĺŁåĽ½éĻħ": 4416,
      "èĪ°éĺŁåı¸ä»¤": 4417,
      "çĻ¾åĪĨä¹ĭä¸Ģ": 4418,
      "çĻ¾åĪĨä¹ĭ": 4419,
      "æīĵéĩı": 4420,
      "åĩºçİ°äºĨä¸Ģä¸ª": 4421,
      "ä¸¤ä¸ªäºº": 4422,
      "éĹ¨åı£": 4423,
      "åıįå¤į": 4424,
      "ä¸Ģæł·çļĦ": 4425,
      "è®¡åĪĴçļĦ": 4426,
      "åĮĹç¾İ": 4427,
      "ç¾¤èĲ½": 4428,
      "çļĦäºĭåĦ¿": 4429,
      "æŀĦæĪĲçļĦ": 4430,
      "éĽªèĬ±": 4431,
      "ä¼łéĢĴ": 4432,
      "ç¬¬äºĮå¤©": 4433,
      "çļĦéĤ£æł·": 4434,
      "åį³ä½¿åľ¨": 4435,
      "é»ĳæļĹæ£®æŀĹå¨ģæħĳ": 4436,
      "çļĦå¤ªç©ºä¸Ń": 4437,
      "æĤ¬æµ®": 4438,
      "å²©æµĨ": 4439,
      "æ¯«æĹł": 4440,
      "ç»¿èī²": 4441,
      "ç¯®": 4442,
      "è¤Ĳ": 4443,
      "å©´": 4444,
      "çļĦèĦ¸ä¸Ĭ": 4445,
      "çļĦæģĲæĥ§": 4446,
      "çļĦçªĹ": 4447,
      "é»¯æ·¡": 4448,
      "çĸ²æĥ«": 4449,
      "å®ĹæķĻ": 4450,
      "éŀłèº¬": 4451,
      "éŁ¦æĸ¯": 4452,
      "13": 4453,
      "ET": 4454,
      "çļĦå¤ĸ": 4455,
      "çļĦç¬ĳ": 4456,
      "äºĨä¸ª": 4457,
      "äºĨä¸¤": 4458,
      "åħĨ": 4459,
      "è¿Ļä¹Ł": 4460,
      "è¿Ļç±»": 4461,
      "è¿Ļä¸Ģæ¬¡": 4462,
      "ä¹Ķ": 4463,
      "æľīæķĪ": 4464,
      "ç»ĺ": 4465,
      "ä¸įä¸į": 4466,
      "è®Ń": 4467,
      "å¤§å®ĩå®Ļ": 4468,
      "éĤ£é¢Ĺ": 4469,
      "éĢ¼": 4470,
      "åĲİéĿ¢çļĦ": 4471,
      "åİī": 4472,
      "ä½łæĢİä¹Ī": 4473,
      "æĢĴ": 4474,
      "ä¹Łä¼ļ": 4475,
      "ä½Ĩè¿ĺæĺ¯": 4476,
      "ä½ĨçĶ±äºİ": 4477,
      "æµĳ": 4478,
      "éĹ´éļĶ": 4479,
      "æĥ³äºĨ": 4480,
      "æĭĲ": 4481,
      "æĭĶ": 4482,
      "æĭľ": 4483,
      "æĸĩçī©": 4484,
      "å°ıå°ıçļĦ": 4485,
      "å®ĥåľ¨": 4486,
      "å¤ļä¹Ī": 4487,
      "å¤ļéķ¿æĹ¶éĹ´": 4488,
      "çļĦèĬ": 4489,
      "ä¸¤ä½į": 4490,
      "æĬĬå¥¹": 4491,
      "æĪĳä»¬æĺ¯": 4492,
      "æĪĳä»¬åľ¨": 4493,
      "é£ŀåĩº": 4494,
      "èĢħä»¬": 4495,
      "çļĦçħ§": 4496,
      "æ±ł": 4497,
      "äºĨä¸Ģä¼ļåĦ¿": 4498,
      "è§īå¯Ł": 4499,
      "çĶµå½±": 4500,
      "å¹³è¡¡": 4501,
      "æľ¬ä¹¦": 4502,
      "çºªå¿µ": 4503,
      "æ³ķæīİ": 4504,
      "èĪªåĲĳ": 4505,
      "å¼ºäºĴ": 4506,
      "æĢĿè®®": 4507,
      "ç»Łå¸ħ": 4508,
      "åĲ¬çĿĢ": 4509,
      "æĶ¾å¿ĥ": 4510,
      "æŁ¯": 4511,
      "æŁĦ": 4512,
      "æ·±æ·±": 4513,
      "éĶĲ": 4514,
      "çģ«ç®Ń": 4515,
      "ç¥ŀç§ĺ": 4516,
      "é©¾": 4517,
      "æī¾ä¸įåĪ°": 4518,
      "åĨ·éħ·": 4519,
      "çªģçł´": 4520,
      "æ¨¡å¼ı": 4521,
      "ç§ĳåŃ¦æī§æĶ¿å®ĺ": 4522,
      "æľĪåħī": 4523,
      "éĽªå±±": 4524,
      "å¯ĨéĽĨ": 4525,
      "èŃ¦åĳĬ": 4526,
      "åł¡": 4527,
      "ä¸įè¿ĩæĺ¯": 4528,
      "éĻįèĲ½": 4529,
      "ç´§æĢ¥": 4530,
      "éŃı": 4531,
      "æĺŁçİ¯éĽĨåĽ¢": 4532,
      "çĮ®": 4533,
      "å¹»è§ī": 4534,
      "èĨ¨èĥĢ": 4535,
      "ä¸įåı¯æĢĿè®®": 4536,
      "çļĦèº«ä»½": 4537,
      "å¹¸åŃĺ": 4538,
      "å±ħä½ı": 4539,
      "çļĦæĢĿç»´": 4540,
      "çļĦæİ¢": 4541,
      "çļĦæ³¨": 4542,
      "çľŁå®ŀçļĦ": 4543,
      "åĹ¯": 4544,
      "çļĦèģļ": 4545,
      "éģĹæĨ": 4546,
      "åĤ¬": 4547,
      "åįĬä¸ªä¸ĸçºª": 4548,
      "çº·çº·": 4549,
      "æľºåĻ¨äºº": 4550,
      "æ¸ħæĻ°åľ°": 4551,
      "ç¿¼ç¿¼": 4552,
      "å°ıå¿ĥç¿¼ç¿¼": 4553,
      "éĴĪçľ¼çĶ»å¸Ī": 4554,
      "æĹ¢çĦ¶": 4555,
      "å¢¨åŃĲ": 4556,
      "éľ²çıłåħ¬ä¸»": 4557,
      "èĦĨå¼±": 4558,
      "éĽ·å¿ĹæĪĲ": 4559,
      "åİĺç±³": 4560,
      "å©´åĦ¿": 4561,
      "æ³ķæīİåħ°": 4562,
      "å¼ºäºĴä½ľçĶ¨åĬĽ": 4563,
      "éģĹæĨ¾": 4564,
      "20": 4565,
      "200": 4566,
      "çļĦå½¢çĬ¶": 4567,
      "ä¸Ģå¹´": 4568,
      "è¿Ļåı¥è¯Ŀ": 4569,
      "ä¸įå¤§": 4570,
      "åĪ°ä¸Ģ": 4571,
      "ä¸ĬçļĦä¸Ģ": 4572,
      "å¼¥": 4573,
      "åľ°ä½į": 4574,
      "åľ°æĳĩæĳĩå¤´": 4575,
      "å¿ł": 4576,
      "åĩºçİ°åľ¨": 4577,
      "åĩºåı£": 4578,
      "çº¤": 4579,
      "çİ°è±¡": 4580,
      "åī²": 4581,
      "ä½Ĩä»İ": 4582,
      "ä½Ĩç¨ĭå¿ĥ": 4583,
      "éģŃ": 4584,
      "å¿ĥçģµ": 4585,
      "å¾Īå¤§çļĦ": 4586,
      "èĩªæĪĳ": 4587,
      "åıªéľĢ": 4588,
      "ç½²": 4589,
      "åĥıåľ¨": 4590,
      "ç«¹": 4591,
      "å°ıèĪ¹": 4592,
      "è¿ĽäºĨ": 4593,
      "å¼ĢçļĦ": 4594,
      "æĬĬæīĭ": 4595,
      "æĬĬçĽ®åħī": 4596,
      "çİ°åľ¨å·²ç»ı": 4597,
      "èĢĮæĿ¥": 4598,
      "æĦıçļĦ": 4599,
      "åıĺå½¢": 4600,
      "å§¿": 4601,
      "çĲĨä¼ļ": 4602,
      "èµ°å»Ĭ": 4603,
      "çļĦä¸Ģæ¬¡": 4604,
      "å°Ĩè¢«": 4605,
      "æĪĺæĸĹ": 4606,
      "æ»©": 4607,
      "é«ĺåº¦": 4608,
      "åħ¬æ°ĳ": 4609,
      "çĻ½èī²çļĦ": 4610,
      "åĽĽä¸ĭ": 4611,
      "å»ºæĪĲ": 4612,
      "æħĮ": 4613,
      "ç¥¨": 4614,
      "åı¶åĵ²": 4615,
      "è¿ĳè·Ŀç¦»": 4616,
      "åĮĸä¸º": 4617,
      "æŁĵ": 4618,
      "å¼Ģå§ĭæĹ¶": 4619,
      "éĶ¤": 4620,
      "ç»Ļä»ĸ": 4621,
      "æ¸ħçĲĨ": 4622,
      "æ¯ıä¸Ģä¸ª": 4623,
      "çº¢åħī": 4624,
      "çĸĨ": 4625,
      "çĸĹ": 4626,
      "æŀģç«¯": 4627,
      "æģĴçºªåħĥ": 4628,
      "è¿Ļä¹Īè¯´": 4629,
      "æľĪçĲĥ": 4630,
      "ç¬¬äºĮä¸ª": 4631,
      "è·¯ä¸Ĭ": 4632,
      "åĢĻéĢī": 4633,
      "åħ³ä¸Ģå¸Ĩè¯´": 4634,
      "åĪĿæŃ¥": 4635,
      "åı²å¼ºè¯´": 4636,
      "åĲĥåĬĽ": 4637,
      "åĺ¿": 4638,
      "è°ĥæķ´": 4639,
      "å¡ŀ": 4640,
      "çļĦæĹ¶éĹ´éĩĮ": 4641,
      "æĥ³è±¡çļĦ": 4642,
      "èĬ±æĿ¿": 4643,
      "åı¤èĢģ": 4644,
      "çģµéŃĤ": 4645,
      "å±ıèĶ½": 4646,
      "çļĦèĥľ": 4647,
      "åĽ½éĻħç¤¾ä¼ļ": 4648,
      "çļĦæµģ": 4649,
      "åī§çĥĪ": 4650,
      "æī¿è®¤": 4651,
      "æī¿æĭħ": 4652,
      "åĪĨéĴŁåĲİ": 4653,
      "ç¯·": 4654,
      "çĽĳåĲ¬åĳĺ": 4655,
      "æĪ¿éĹ´éĩĮ": 4656,
      "èİ·å¾Ĺ": 4657,
      "é¾Ħ": 4658,
      "ä¸įå¾Ĺä¸į": 4659,
      "çĮľæµĭ": 4660,
      "å¤±éĩįä¸Ń": 4661,
      "ä¹łæĥ¯": 4662,
      "åı¯è§ģåħī": 4663,
      "çļĦæĶ¿æ²»": 4664,
      "é¢¤æĬĸ": 4665,
      "å°±è¡ĮäºĨ": 4666,
      "æĭ¦æĪª": 4667,
      "ä¸İæŃ¤åĲĮæĹ¶": 4668,
      "906": 4669,
      "çļĦæ¨¡": 4670,
      "åı¶åĵ²æ³°": 4671,
      "³èŀ": 4672,
      "¸åĽŃ": 4673,
      "çļĦæĹ¶ä»£": 4674,
      "çļĦç»ĵæŀľ": 4675,
      "çļĦåİŁåĽł": 4676,
      "äº¬": 4677,
      "å¤ı": 4678,
      "ä¸ĢæĬĬ": 4679,
      "ä¸Ģéģį": 4680,
      "æĺ¯ä¸į": 4681,
      "æĺ¯ä»ĸ": 4682,
      "åĲĵ": 4683,
      "è¿Ļåº§": 4684,
      "è¿Ļé¡¹": 4685,
      "çĶ¸åĽŃ": 4686,
      "åĩĳ": 4687,
      "åĽ°": 4688,
      "å¼§": 4689,
      "åľ°å±Ĥ": 4690,
      "åľ°éĿ¢ä¸Ĭ": 4691,
      "éĹ²": 4692,
      "æĬĢ": 4693,
      "å°±ç®Ĺ": 4694,
      "åĴĮä½ł": 4695,
      "å¤ªå¹³": 4696,
      "ä¹Łéĥ½": 4697,
      "æĺŁæµ·": 4698,
      "ä½Ĩä»ĸä»¬": 4699,
      "æµ´": 4700,
      "ä¸ĭæĸ¹": 4701,
      "çĲ´": 4702,
      "çīĮ": 4703,
      "ä½ĵç³»": 4704,
      "å¤©åĲİ": 4705,
      "åĥ»": 4706,
      "éĻĮ": 4707,
      "æľĢå¤ļ": 4708,
      "è¿ĽåĮĸ": 4709,
      "ä¸¤èĢħ": 4710,
      "æĻĥ": 4711,
      "å¦¹": 4712,
      "éļĻ": 4713,
      "æĹłå£°": 4714,
      "å·²ç»ıå¾Ī": 4715,
      "èī²ä¸Ń": 4716,
      "ä¸īä½ĵéĹ®é¢ĺ": 4717,
      "åľ°çĲĥä¸ĸçķĮ": 4718,
      "éľĸ": 4719,
      "èº«ä»½": 4720,
      "çĻ½æ²Ĳ": 4721,
      "åĻ©": 4722,
      "çł¸": 4723,
      "è®©æĪĳä»¬": 4724,
      "å·¥ä¸ļ": 4725,
      "åĩºçİ°äºĨä¸Ģ": 4726,
      "åŁºåĽł": 4727,
      "ç¤ºæĦı": 4728,
      "åİŁåĪĻ": 4729,
      "ä¿¡æģ¯çļĦ": 4730,
      "é¢Ĺè¡ĮæĺŁ": 4731,
      "æķ´é½Ĳ": 4732,
      "èį£": 4733,
      "éļıä¾¿": 4734,
      "åĪ©çĶ¨": 4735,
      "èĵĿè¥¿": 4736,
      "æľįåĬ¡": 4737,
      "æľ¨åį«": 4738,
      "æĶ¶éĽĨ": 4739,
      "èĥ½å¤Łåľ¨": 4740,
      "æĹ©åľ¨": 4741,
      "åħ·å¤ĩ": 4742,
      "èİ¹": 4743,
      "ä¼ĬçĶ¸åĽŃ": 4744,
      "è¿Ĳè¡ĮçļĦ": 4745,
      "é¥°": 4746,
      "åħħåĪĨ": 4747,
      "å¸Ńä¼ļè®®": 4748,
      "éĿłè¿ĳ": 4749,
      "èŀ³èŀ": 4750,
      "çļĦèº«å½±": 4751,
      "å®ģéĿĻ": 4752,
      "è®²è¿°": 4753,
      "éĿ¢å¯¹çĿĢ": 4754,
      "æķĪåºĶ": 4755,
      "æĥħåĨµä¸ĭ": 4756,
      "ä¸įæĸŃåľ°": 4757,
      "åĤ»": 4758,
      "åģľæŃ¢äºĨ": 4759,
      "æŁĶè½¯": 4760,
      "çľĭäºĨçľĭ": 4761,
      "ç¨Ģçĸı": 4762,
      "äº«åıĹ": 4763,
      "ETO": 4764,
      "éŃıæĪĲ": 4765,
      "çĻ½æ²Ĳéľĸ": 4766,
      "èŀ³èŀĤ": 4767,
      "==": 4768,
      "IDC": 4769,
      "ç°": 4770,
      "çħ": 4771,
      "ķè¿¹": 4772,
      "ĺæĽ²": 4773,
      "ļå²©": 4774,
      "çļĦåŃ©åŃĲ": 4775,
      "æľĹ": 4776,
      "ä¸Ģç¬ĳ": 4777,
      "åľ¨åĵªåĦ¿": 4778,
      "äºĨå¥¹": 4779,
      "åħģ": 4780,
      "å°ī": 4781,
      "è¯Ĺ": 4782,
      "ä¸įå¤Ł": 4783,
      "ä¸įè¶³": 4784,
      "åĪ°åºķ": 4785,
      "å·§": 4786,
      "æĿ¥åĪ°äºĨ": 4787,
      "éĤ£ä½į": 4788,
      "éĤ£åĲį": 4789,
      "éĢ¸": 4790,
      "ç§ģ": 4791,
      "å°±è¿Ļæł·": 4792,
      "å¯¹å¥¹": 4793,
      "å¤ªå¤ļ": 4794,
      "ä¸ĭåįĪ": 4795,
      "åıĳè¨Ģ": 4796,
      "ä¸ºä¸Ģä½ĵ": 4797,
      "çŁ¿": 4798,
      "æĥ³åĪ°äºĨ": 4799,
      "æ´Ľ": 4800,
      "è¿ĺæ²¡": 4801,
      "æģ¨": 4802,
      "çļĦè£": 4803,
      "éĥ¨éĹ¨": 4804,
      "æĪĳä»¬è¦ģ": 4805,
      "æĪĳä»¬çİ°åľ¨": 4806,
      "ä»Ģä¹Īæł·": 4807,
      "ä»Ģä¹ĪæĹ¶åĢĻ": 4808,
      "ç½ĹèĢģå¸Ī": 4809,
      "ä¹ĭæīĢä»¥": 4810,
      "åħ¨çĲĥ": 4811,
      "ä¸»æµģ": 4812,
      "æŃ£å¥½": 4813,
      "çŃ¾": 4814,
      "çļĦä¸Ģç§į": 4815,
      "éľŀ": 4816,
      "æİ¥æĶ¶åĪ°": 4817,
      "å°±æĺ¯ä¸Ģä¸ª": 4818,
      "çĽ´çº¿": 4819,
      "åı¯ä»¥èĤ¯å®ļ": 4820,
      "åħ³æ³¨": 4821,
      "åħ¬å¸ĥ": 4822,
      "çĶµè·¯": 4823,
      "å¹³åı°": 4824,
      "åĽłæĸ¯åĿ¦": 4825,
      "åĲ¬åĪ°äºĨ": 4826,
      "è§ģäºĨ": 4827,
      "éĶĢ": 4828,
      "æľĢåĲİä¸Ģæ¬¡": 4829,
      "æľīä¸Ģå¤©": 4830,
      "ç´«": 4831,
      "å®īæİĴ": 4832,
      "çŃīäºİ": 4833,
      "èģĶå¸Ńä¼ļè®®": 4834,
      "æĴ¼": 4835,
      "æł¹æį®": 4836,
      "æıĲç¤º": 4837,
      "éĽ·æĶ¿å§Ķ": 4838,
      "ç»Ĩçľĭ": 4839,
      "å±ķç¤º": 4840,
      "åģľæ³Ĭ": 4841,
      "çģŃç»Ŀ": 4842,
      "åĶ±": 4843,
      "åĶī": 4844,
      "æľŁéĹ´": 4845,
      "åĭĥ": 4846,
      "åĮħåĲ«": 4847,
      "éĹªäº®": 4848,
      "çĪ±åĽłæĸ¯åĿ¦": 4849,
      "åľĨæŁ±": 4850,
      "é¢ľèī²": 4851,
      "çıį": 4852,
      "æ²»å®ī": 4853,
      "åĪ°è¾¾å¤ªéĺ³ç³»": 4854,
      "æ²īé»ĺäºĨ": 4855,
      "æĪĺäºīä¸Ń": 4856,
      "ä¸¾èµ·": 4857,
      "åĲ¯åĬ¨äºĨ": 4858,
      "æ¿Ģåħī": 4859,
      "è¿·æĥĳ": 4860,
      "ç»ĵæĿŁäºĨ": 4861,
      "çİ©æĦı": 4862,
      "çĶµç£ģæ³¢": 4863,
      "çĶµç£ģè¾Ĳå°Ħ": 4864,
      "æĩĴ": 4865,
      "åı¹æģ¯": 4866,
      "éĩĩåıĸ": 4867,
      "çĹĽèĭ¦": 4868,
      "çļĦçĹħ": 4869,
      "çļĦèĮĥåĽ´": 4870,
      "è¯ŀçĶŁ": 4871,
      "éŁ¦æĸ¯çī¹": 4872,
      "çļĦèĥľåĪ©": 4873,
      "3906": 4874,
      "DX": 4875,
      "ºéªĹ": 4876,
      "çļĦéĤ£äºĽ": 4877,
      "çļĦèĥ½åĬĽ": 4878,
      "çļĦæĸ¹å¼ı": 4879,
      "ä¸ĢçĶŁ": 4880,
      "åĪ·": 4881,
      "æĺ¯æĢİä¹Ī": 4882,
      "åľ¨äºİ": 4883,
      "åľ¨å¤ªéĺ³": 4884,
      "äºĨè¿Ļä¸ª": 4885,
      "è¿Ļå£°éŁ³": 4886,
      "è¿Ļä½¿å¾Ĺ": 4887,
      "ä¹Į": 4888,
      "æľīåĩłä¸ª": 4889,
      "çľ©": 4890,
      "çľģ": 4891,
      "ä»ĸåĴĮ": 4892,
      "ä»ĸçĶ¨": 4893,
      "ä¸Ńéĥ¨": 4894,
      "æīĩ": 4895,
      "ä¸Ĭæĺ¯": 4896,
      "ä¸ĬæĿ¥": 4897,
      "ä¸Ĭçº§": 4898,
      "æĪĳå¯¹": 4899,
      "æĪĳçľŁçļĦ": 4900,
      "åľ°å¹³çº¿": 4901,
      "å¤§åŀĭ": 4902,
      "éĤ£ä¸ľè¥¿": 4903,
      "çĽı": 4904,
      "ä¸ĭéĥ¨": 4905,
      "å¾Īå¥ĩæĢª": 4906,
      "åĥµ": 4907,
      "æ°§": 4908,
      "éĻ¶": 4909,
      "éģĵå¾·": 4910,
      "æ³Ľ": 4911,
      "ç¬¨": 4912,
      "ä¿©": 4913,
      "åĬ¨çī©": 4914,
      "äºĽä»Ģä¹Ī": 4915,
      "åĪĨè¾¨": 4916,
      "é»İ": 4917,
      "æĬĬä¼ŀ": 4918,
      "éĽħ": 4919,
      "åģ·": 4920,
      "å¹´é¾Ħ": 4921,
      "å®ŀæĹ¶": 4922,
      "å¥½åľ¨": 4923,
      "å¤ĸå½¢": 4924,
      "ç»´å¥ĩ": 4925,
      "åŃ¦çĶŁ": 4926,
      "åŃ¦ä¹ł": 4927,
      "å½ĵå¹´": 4928,
      "æĤŁ": 4929,
      "åĵ¨": 4930,
      "æĦŁåıĹ": 4931,
      "å®ĩèĪª": 4932,
      "æİ¥è¿ĩ": 4933,
      "åħ³å¿ĥ": 4934,
      "åħ¬çĲĨ": 4935,
      "å®Įå¥½": 4936,
      "æĽ´å¤§çļĦ": 4937,
      "è¥¿åŃĲ": 4938,
      "å¹³åĿĩ": 4939,
      "æĺ¾å¾Ĺå¾Ī": 4940,
      "æĤ¨æĺ¯": 4941,
      "æħİ": 4942,
      "è¿Ļç§įæĦŁè§ī": 4943,
      "æ±ªæ·¼è¯´": 4944,
      "éĶ¯": 4945,
      "ç»Ļä½ł": 4946,
      "èĢģå¼ł": 4947,
      "å£«åĿ¦": 4948,
      "åħĪè¿Ľ": 4949,
      "åıªæľīä¸Ģä¸ª": 4950,
      "çĭŃ": 4951,
      "ç«Ļèµ·èº«": 4952,
      "è®¾å®ļ": 4953,
      "æĺ¯ä¸Ģçīĩ": 4954,
      "æĶ¶åĪ°äºĨ": 4955,
      "ç§ĳåŃ¦è¾¹çķĮ": 4956,
      "çĨĬ": 4957,
      "å®Įåħ¨ä¸įåĲĮ": 4958,
      "ç«łåĮĹæµ·è¯´": 4959,
      "åĮºåĪ«": 4960,
      "çł´åĿı": 4961,
      "ä¸īä¸ªä¸ĸçºª": 4962,
      "åıĮæĸ¹": 4963,
      "éļĲçº¦": 4964,
      "æĿĢäºĨ": 4965,
      "äº¿äºº": 4966,
      "é»Ħèī²": 4967,
      "åľŁæĺŁ": 4968,
      "æ¼«éķ¿": 4969,
      "æ¡Įä¸Ĭ": 4970,
      "çļĦèģĮ": 4971,
      "èī¾AA": 4972,
      "ä¹Ŀåįģ": 4973,
      "çļĦæķ°åŃ¦": 4974,
      "éº»çĥ¦": 4975,
      "çļĦçĥŃ": 4976,
      "æŁĶåĴĮ": 4977,
      "è¤ļå²©": 4978,
      "çĶ°åĽŃ": 4979,
      "ä¸Ģåıªæīĭ": 4980,
      "åĿłèĲ½": 4981,
      "çļĦçĪ±": 4982,
      "èĮ«çĦ¶": 4983,
      "äºļæ´²èĪ°éĺŁ": 4984,
      "ä¼ĺåĬ¿": 4985,
      "ä¸İä¼ļèĢħ": 4986,
      "è¯¡å¼Ĥ": 4987,
      "åĲĽå£«åĿ¦": 4988,
      "çļĦæĻ¯è±¡": 4989,
      "çļĦæĵįä½ľ": 4990,
      "æ²ĥç»´å¥ĩ": 4991,
      "åħģè®¸": 4992,
      "æ²»å®īåĨĽ": 4993,
      "çİ©æĦıåĦ¿": 4994,
      "åĲĽå£«åĿ¦ä¸ģ": 4995,
      "47": 4996,
      "âħ": 4997,
      "Ġé»ĳæļĹæ£®æŀĹ": 4998,
      "Ġä¸ĭéĥ¨": 4999,
      "Īç¥": 5000,
      "çļĦåľ°çĲĥ": 5001,
      "çļĦåĲĹ": 5002,
      "çļĦç¬¬ä¸Ģ": 5003,
      "çļĦåĽŀçŃĶ": 5004,
      "çļĦæľºä¼ļ": 5005,
      "çļĦåĲ«ä¹ī": 5006,
      "å¤º": 5007,
      "åľ¨æµ·": 5008,
      "åľ¨å¤ªéĺ³ç³»": 5009,
      "åľ¨å¥¹çļĦ": 5010,
      "å®¿": 5011,
      "ä¸įåĥı": 5012,
      "äººçī©": 5013,
      "åĩĢ": 5014,
      "å¾Ĵ": 5015,
      "ä¸Ńæľī": 5016,
      "ä¸Ĭæľī": 5017,
      "æĪĳæ²¡": 5018,
      "æĪĳå°Ĩ": 5019,
      "æĪĳè§īå¾Ĺ": 5020,
      "åĬ³": 5021,
      "åľ°çĭ±": 5022,
      "å¤§å¤§": 5023,
      "ä¼´": 5024,
      "æ²Ł": 5025,
      "çľĭäºĨä¸Ģçľ¼": 5026,
      "æĬ¢": 5027,
      "ä½łåı¯ä»¥": 5028,
      "ä½łåºĶè¯¥": 5029,
      "ä½łè¯´çļĦ": 5030,
      "åĴĮå¹³": 5031,
      "åĴĮåħ¶ä»ĸ": 5032,
      "è¾ī": 5033,
      "å¯¹æĪĳä»¬": 5034,
      "å¯¹ç¨ĭå¿ĥ": 5035,
      "å¥¹åĴĮ": 5036,
      "å¥¹çľĭåĪ°": 5037,
      "ä½Ĩä¸İ": 5038,
      "ä½Ĩå¦Ĥæŀľ": 5039,
      "ä¸ºèĩªå·±": 5040,
      "ä»¥èĩ³äºİ": 5041,
      "ä¸īæ¬¡": 5042,
      "ä¼ļéĿ¢": 5043,
      "çŁ©": 5044,
      "åīįèĢħ": 5045,
      "å¤©ä½¿": 5046,
      "å±Ĭ": 5047,
      "æ³¥": 5048,
      "å¤ļä¸ª": 5049,
      "ä»İäºĭ": 5050,
      "ç»ıéªĮ": 5051,
      "å¼Ģåıĳ": 5052,
      "éĥ¨çļĦ": 5053,
      "åĪĨå¸ĥ": 5054,
      "è¢«æĳ§æ¯ģ": 5055,
      "å®ŀä½ĵ": 5056,
      "å¥½å¥½": 5057,
      "ç½Ĺè¾ĳåľ¨": 5058,
      "åŃ¦æľ¯": 5059,
      "çļĦç¢": 5060,
      "æĤ£": 5061,
      "æĤĦ": 5062,
      "çľŁçĽ¸": 5063,
      "åĩłæ¬¡": 5064,
      "æŃ£å¦Ĥ": 5065,
      "çī©é¦Ĩ": 5066,
      "åħ³ä¸Ĭ": 5067,
      "æĳĺ": 5068,
      "åħ¬è·¯": 5069,
      "å¤±æķĪ": 5070,
      "å°ĦçĶµ": 5071,
      "åĨĽè£ħ": 5072,
      "åŃĺè´®": 5073,
      "å·¥åħ·": 5074,
      "æ³ķå®ĺ": 5075,
      "æĮĩåĲĳ": 5076,
      "å¼ºåº¦": 5077,
      "å¼ķåıĳ": 5078,
      "è½»æĺĵ": 5079,
      "åıįçī©è´¨": 5080,
      "äº®èµ·": 5081,
      "ç§»å¼Ģ": 5082,
      "æŀģåĬĽ": 5083,
      "æĺ¯ä¸ĢåĲį": 5084,
      "åģľä¸ĭ": 5085,
      "æĶ¶åĽŀ": 5086,
      "æĥĬåı«": 5087,
      "æĥĬæģĲ": 5088,
      "çº§åĪ«": 5089,
      "è£ħç½®": 5090,
      "åĨ³è®®": 5091,
      "æģĴæĺŁçº§": 5092,
      "å¿ħçĦ¶": 5093,
      "èĪ±åĨħ": 5094,
      "èĪ±éĹ¨": 5095,
      "èĤ¯å®ļæĺ¯": 5096,
      "çļĦæĢ»": 5097,
      "ãĢĭï¼Į": 5098,
      "å¡ĳ": 5099,
      "åįļçī©é¦Ĩ": 5100,
      "åı¤åħ¸": 5101,
      "å¹»æĥ³": 5102,
      "åĮ»éĻ¢": 5103,
      "æŃ¦è£ħ": 5104,
      "æ¾Ī": 5105,
      "è¿½éļı": 5106,
      "ä»£è¡¨è¯´": 5107,
      "å´ĩ": 5108,
      "æĺ¯ä»Ģä¹Īæł·åŃĲ": 5109,
      "æŁĲä¸ª": 5110,
      "éľĩæĴ¼": 5111,
      "åĵĪåĭĥ": 5112,
      "æİ©ä½ĵå·¥ç¨ĭ": 5113,
      "èİ«æ²ĥç»´å¥ĩ": 5114,
      "åĿĩåĮĢ": 5115,
      "èĪĴéĢĤ": 5116,
      "èĽĩ": 5117,
      "åĲĮå¿Ĺä»¬": 5118,
      "æĻ¶èİ¹": 5119,
      "ä»ħä»ħæĺ¯": 5120,
      "äºĨåĩłç§ĴéĴŁ": 5121,
      "æĮģç»ŃäºĨ": 5122,
      "æļĤæĹ¶": 5123,
      "æĬ¬èµ·å¤´": 5124,
      "çĺ¦": 5125,
      "èĴ¸åıĳ": 5126,
      "åªĴ": 5127,
      "ç§ĺä¹¦éķ¿": 5128,
      "21": 5129,
      "ªæĺİ": 5130,
      "®ĭ": 5131,
      "åļ": 5132,
      "ï¼ĮâĢĺ": 5133,
      "çļĦä¸¤ä¸ª": 5134,
      "çļĦåıĺåĮĸ": 5135,
      "çļĦåı¯èĥ½æĢ§": 5136,
      "ä¸Ģåı¥": 5137,
      "åľ¨ä»ĸçļĦ": 5138,
      "åľ¨è·Ŀ": 5139,
      "è¿Ļä¸į": 5140,
      "æĸ¤": 5141,
      "ä¸ŃæŃ¢": 5142,
      "ä¸Ĭéĥ½": 5143,
      "æĪĳåİ»": 5144,
      "éĢ»": 5145,
      "çĽ²": 5146,
      "çĽĪ": 5147,
      "çļĦæ®ĭ": 5148,
      "åĲİæŀľ": 5149,
      "åİĮ": 5150,
      "å°±æľī": 5151,
      "å¥¹éĤ£": 5152,
      "å¥¹åıĪ": 5153,
      "ä½ĨæĪĳä»¬": 5154,
      "æµ©": 5155,
      "æİª": 5156,
      "ä»¥ä¸Ĭ": 5157,
      "ä»¥ä¸ĭ": 5158,
      "æķŀ": 5159,
      "ç½ķ": 5160,
      "æ²¡æľīè¢«": 5161,
      "å¤©è¾¹": 5162,
      "éĩĮéĿ¢çļĦ": 5163,
      "å°ıå°ı": 5164,
      "ä¿Ħ": 5165,
      "æģĭ": 5166,
      "åĬ¨äºĨ": 5167,
      "æĹłéĻħ": 5168,
      "å¤ĸåĽ´": 5169,
      "å·²ç»ıæĺ¯": 5170,
      "åĩłç§ĴéĴŁ": 5171,
      "èºģ": 5172,
      "è°¨": 5173,
      "çŃĴ": 5174,
      "äºĨä¸ĢæĿ¡": 5175,
      "é»ĳçĻ½": 5176,
      "çļĦäººçĶŁ": 5177,
      "çī©ç§į": 5178,
      "åĨįä¹Łæ²¡æľī": 5179,
      "åĽĽçĻ¾": 5180,
      "åĽĽåĳ¨": 5181,
      "æ¯ĶæĪĳ": 5182,
      "çĶµåŃĲ": 5183,
      "è®©ä»ĸä»¬": 5184,
      "ä»»çĲĨäºĭ": 5185,
      "ä¸ĩäºº": 5186,
      "å·¨äºº": 5187,
      "è¾¹çĸĨ": 5188,
      "èĪªç©º": 5189,
      "ç¥ĸ": 5190,
      "å¸¸ä»»çĲĨäºĭ": 5191,
      "èĥŀ": 5192,
      "åĮĸäºĨ": 5193,
      "æŁľ": 5194,
      "æĻºèĥ½": 5195,
      "å¸¦æľī": 5196,
      "å°ĳäºĨ": 5197,
      "çī¹å¾ģ": 5198,
      "æ¶ĪèĢĹ": 5199,
      "å¾®å¼±": 5200,
      "è£ģ": 5201,
      "çļĦå¤§åľ°": 5202,
      "çļĦå¤§éĥ¨åĪĨ": 5203,
      "èĵī": 5204,
      "æĸŃéĿ¢": 5205,
      "éĢıåĩº": 5206,
      "åŃĺåľ¨çĿĢ": 5207,
      "æĹ¶ä»£çļĦ": 5208,
      "ä¹Łä¸įèĥ½": 5209,
      "äººä»¬éĥ½": 5210,
      "æİ¨æµĭ": 5211,
      "æľªæĿ¥çļĦ": 5212,
      "åº§ä½į": 5213,
      "è¯ģæį®": 5214,
      "æľĪäº®": 5215,
      "æ²Ļçĳŀ": 5216,
      "ç®¡éģĵ": 5217,
      "åłµ": 5218,
      "âĢĻï¼Į": 5219,
      "åľ¨è¿ĻåĦ¿": 5220,
      "ç®Ģæ´ģ": 5221,
      "æĲŃ": 5222,
      "åĥıä¸Ģåıª": 5223,
      "éĢĥç¦»": 5224,
      "éĢĥèĦ±": 5225,
      "è§ĴèĲ½": 5226,
      "é¡¶ç«¯": 5227,
      "åĨ°åĨ·": 5228,
      "çĮİ": 5229,
      "å®½éĺĶ": 5230,
      "å®īåħ¨çļĦ": 5231,
      "å¢Ļä¸Ĭ": 5232,
      "çĿ¡çľł": 5233,
      "åĿļå®ļ": 5234,
      "æģĲæĢĸ": 5235,
      "å¢ĵå²Ľ": 5236,
      "ç®ĢåįķçļĦ": 5237,
      "åĲ¸å¼ķ": 5238,
      "çº³æ£®": 5239,
      "æķħäºĭçİĭåĽ½": 5240,
      "æ¯«ä¸į": 5241,
      "çľĭä¸įåĩº": 5242,
      "åŃ¤å³°": 5243,
      "æĽ´å¤ļçļĦ": 5244,
      "èī¾åħĭ": 5245,
      "çļĦæĦıè¯Ĩ": 5246,
      "æĪĳè¯´è¿ĩ": 5247,
      "å¿ĺè®°": 5248,
      "é¼ĵ": 5249,
      "é¼ł": 5250,
      "è¿ĻäºĭåĦ¿": 5251,
      "çļĦæ¸©": 5252,
      "çļĦæĥħåĨµä¸ĭ": 5253,
      "è·ĮèĲ½": 5254,
      "çļĦèĤ©": 5255,
      "çļĦæ¶Ī": 5256,
      "è¾ĪåŃĲ": 5257,
      "ç«¥è¯Ŀ": 5258,
      "æĺ¥å¤©": 5259,
      "åıĤè°ĭéķ¿": 5260,
      "ç¥ŀç»ıåħĥ": 5261,
      "è¤Ĳèļģ": 5262,
      "ä¹Ķçº³æ£®": 5263,
      "é©¾é©¶": 5264,
      "çļĦæ³¨æĦı": 5265,
      "å¤ªå¹³æ´ĭ": 5266,
      "ĺæĽ²çĤ¹": 5267,
      "è¿½éļıèĢħ": 5268,
      "å¸¸ä»»çĲĨäºĭåĽ½": 5269,
      "æ²Ļçĳŀå±±": 5270,
      "16": 5271,
      "£çİĭ": 5272,
      "¥çļĤ": 5273,
      "ºæĹĭ": 5274,
      "ģçģŃ": 5275,
      "çļĦå»ºçŃĳ": 5276,
      "çļĦå·¨å¤§": 5277,
      "çļĦå½±åĵį": 5278,
      "è¿Ī": 5279,
      "æľµ": 5280,
      "ä¸Ģå°ı": 5281,
      "ä¸Ģåľº": 5282,
      "æĺ¯çĶ¨": 5283,
      "åľ¨æĪĳ": 5284,
      "åľ¨ç¨ĭå¿ĥ": 5285,
      "è¿Ļåıªæĺ¯": 5286,
      "è¿Ļåľº": 5287,
      "ä¸įè¿ľå¤Ħ": 5288,
      "æĿĸ": 5289,
      "çľ¸": 5290,
      "ä»ĸè¿ĺ": 5291,
      "æĸľ": 5292,
      "æī£": 5293,
      "æĪĳåı¯ä»¥": 5294,
      "æĪĳè¿ĺæĺ¯": 5295,
      "æĪĳè®¤ä¸º": 5296,
      "åľ°åıĳçİ°": 5297,
      "éĤ»": 5298,
      "å¤§åĽ½": 5299,
      "æĿ¥çľĭ": 5300,
      "éĤ£çīĩ": 5301,
      "ç©¹": 5302,
      "çĽĨ": 5303,
      "çļĦæ¹": 5304,
      "çļĦæ½": 5305,
      "èµ¤": 5306,
      "è¡Ĺ": 5307,
      "ä½łè¿ĺ": 5308,
      "å°±è¢«": 5309,
      "è¾ŀ": 5310,
      "çº£çİĭ": 5311,
      "éĥ½åı¯ä»¥": 5312,
      "åı¯ç¬ĳ": 5313,
      "æĺŁæľŁ": 5314,
      "åıĳçĿĢ": 5315,
      "ç¨ļ": 5316,
      "æķ²": 5317,
      "åıªåľ¨": 5318,
      "åıªåī©": 5319,
      "çķı": 5320,
      "å¤©èĬ±æĿ¿": 5321,
      "éĻĪ": 5322,
      "åĥıè¢«": 5323,
      "æĭ¨": 5324,
      "ç«ŀ": 5325,
      "ä»İä¸Ń": 5326,
      "æ¬²": 5327,
      "æ¬¾": 5328,
      "æ¬ºéªĹ": 5329,
      "æĸ¹éĺµ": 5330,
      "ç§įåŃĲ": 5331,
      "çļĦèĲ": 5332,
      "è¢Ń": 5333,
      "åĬĽçļĦ": 5334,
      "éķ¿èĢģ": 5335,
      "ä»Ģä¹Īäºĭ": 5336,
      "ä¸İå¥¹": 5337,
      "åĲĮäºĭ": 5338,
      "å®ŀåľ¨": 5339,
      "å¤´ä¸Ĭ": 5340,
      "çļĦçĮ": 5341,
      "çļĦçĸ": 5342,
      "ä½¿åħ¶": 5343,
      "åıĺå¹»": 5344,
      "åĵĢ": 5345,
      "åĵĹ": 5346,
      "ä¸»äºº": 5347,
      "åĽ½åĨħ": 5348,
      "çĽ¸ä¼¼": 5349,
      "èµ°è¿ĩ": 5350,
      "èĪ¹ä½ĵ": 5351,
      "æ°´ä¸Ń": 5352,
      "çĻ½èĵī": 5353,
      "åĽĽåħīå¹´": 5354,
      "å¤±æľĽ": 5355,
      "èģªæĺİ": 5356,
      "çłį": 5357,
      "åĨħå¿ĥ": 5358,
      "éĴī": 5359,
      "åĬłåħ¥": 5360,
      "åĽłèĢĮ": 5361,
      "å·¨çŁ³": 5362,
      "å·¨æłĳ": 5363,
      "é£ŀèĪ¹A": 5364,
      "äºĶåįĥ": 5365,
      "å¼ķèµ·äºĨ": 5366,
      "æ±ªæ·¼éĹ®": 5367,
      "äºĳå³°": 5368,
      "åĲ¬è¯ģ": 5369,
      "æŃ»çº¿": 5370,
      "æ·±æ¸Ĭ": 5371,
      "éª¸": 5372,
      "è¾¾åĪ°äºĨ": 5373,
      "èĢģæĿİ": 5374,
      "è®¤çľŁ": 5375,
      "ä½İå£°": 5376,
      "æ¸ħæ¾Ī": 5377,
      "å¤įæ´»": 5378,
      "å¤ªéĺ³ç³»èĪ°éĺŁ": 5379,
      "çĭ¼": 5380,
      "çļĦå¤§æ°Ķ": 5381,
      "çļĦå¤§èĦĳ": 5382,
      "ä»¤å¥¹": 5383,
      "è¿Ľåħ¥åĨ¬çľł": 5384,
      "ä¸ĭæĿ¥çļĦ": 5385,
      "ç¢°": 5386,
      "æĬĢæľ¯çļĦ": 5387,
      "ä¹Łä¸įä¼ļ": 5388,
      "å¤ľç©ºä¸Ń": 5389,
      "ç§ĳåŃ¦éĻ¢": 5390,
      "è¶ħéĩį": 5391,
      "è®°èĢħ": 5392,
      "æĺ¾ç¤ºçĿĢ": 5393,
      "å¼ıçļĦ": 5394,
      "ä¼łæĿ¥": 5395,
      "ä¸īä¸ªäºº": 5396,
      "èŃ¦å¯Ł": 5397,
      "æģĴæĺŁçļĦ": 5398,
      "çļĦæķħ": 5399,
      "æłĳæŀĿ": 5400,
      "å°Ķçī¹": 5401,
      "çĬ¶æĢģä¸ĭ": 5402,
      "ä¸¥å¯Ĵ": 5403,
      "åĵįèµ·": 5404,
      "èģĶåĲĪèĪ°éĺŁ": 5405,
      "é£ĺæµ®åľ¨": 5406,
      "èĨĢ": 5407,
      "åĢ¼çıŃ": 5408,
      "èģĶåĲĪåĽ½åĴĮ": 5409,
      "å°ģéĶģ": 5410,
      "ç¡®å®ŀæĺ¯": 5411,
      "ä¸Ģä¸ĭåŃĲ": 5412,
      "å¸ĿåĽ½": 5413,
      "çļĦæ¯ģçģŃ": 5414,
      "åĽĽç»´ç¢İåĿĹ": 5415,
      "çļĦæĥħæĬ¥": 5416,
      "çļĦæĶ»åĩ»": 5417,
      "æĬ±çĿĢ": 5418,
      "æ³¡æ²«": 5419,
      "ä¸ĢçĤ¹åĦ¿": 5420,
      "èģļåıĺåıĳåĬ¨æľº": 5421,
      "å¯»å¸¸": 5422,
      "ä¿ĿæĮģçĿĢ": 5423,
      "é£Łåĵģ": 5424,
      "èĽĭ": 5425,
      "è¯ģå®ŀäºĨ": 5426,
      "åĢ¾åĲĳ": 5427,
      "çĻ»ä¸Ĭ": 5428,
      "æ··ä¹±": 5429,
      "æĺıæļĹ": 5430,
      "çļĦæĥ³æ³ķ": 5431,
      "æī«æıı": 5432,
      "åıĽåĨĽ": 5433,
      "èĥ¶åį·": 5434,
      "çļĦæķ´ä½ĵ": 5435,
      "è¯ĳè§£": 5436,
      "æ²Ļåıĳä¸Ĭ": 5437,
      "çģ¿çĥĤçļĦ": 5438,
      "çļĦæŃ¦åĻ¨": 5439,
      "ç©ºçģµçĶ»å¸Ī": 5440,
      "æĿ°æ£®": 5441,
      "åĢĻéĢīäºº": 5442,
      "åĲ¬è¯ģä¼ļ": 5443,
      "ä¸Ī": 5444,
      "çļĦé»ĳ": 5445,
      "çļĦæĹ¥": 5446,
      "çļĦè½¦": 5447,
      "çļĦåĲĮæĹ¶": 5448,
      "çļĦè¾¹ç¼ĺ": 5449,
      "ä¸Ģç¾¤": 5450,
      "ä¸Ģæ®µ": 5451,
      "æĪ·": 5452,
      "è¿Ļèīĺ": 5453,
      "è¯¦": 5454,
      "ç»µ": 5455,
      "ä¸įä¸Ĭ": 5456,
      "ä¸įè§ī": 5457,
      "äººæĺ¯": 5458,
      "äººä½ĵ": 5459,
      "ä»ĸå°Ĩ": 5460,
      "åįĵ": 5461,
      "æĪĳåıªæĺ¯": 5462,
      "éĤ£å¤©": 5463,
      "éĤ£æĪĳä»¬": 5464,
      "éĤ£åĿĹ": 5465,
      "éĤ£æĺ¯ä¸Ģä¸ª": 5466,
      "å¹¼": 5467,
      "è¯´æ³ķ": 5468,
      "è¯´åĩºæĿ¥": 5469,
      "çļĦæĤ": 5470,
      "æĬļ": 5471,
      "ä½łçľŁçļĦ": 5472,
      "å¥¹å°±": 5473,
      "ä¹Łè¦ģ": 5474,
      "ä¹Łåıªèĥ½": 5475,
      "ç©ºçļĦ": 5476,
      "å¿ĥèĦı": 5477,
      "çīĻ": 5478,
      "åıªå¥½": 5479,
      "å¤©åķĬ": 5480,
      "å¤©åłĤ": 5481,
      "åİ»åģļ": 5482,
      "ç«ĸ": 5483,
      "å°ıè¯´": 5484,
      "å·²æĺ¯": 5485,
      "é¢Ŀ": 5486,
      "è¿Ľç¨ĭ": 5487,
      "æĬĬä¸Ģä¸ª": 5488,
      "ä»Ģä¹Īåľ°æĸ¹": 5489,
      "è¿Ļä¸ªè¯į": 5490,
      "çİ°åľ¨çľĭæĿ¥": 5491,
      "å¤´çĽĶ": 5492,
      "è°ĵ": 5493,
      "çĽ®çļĦåľ°": 5494,
      "åĽŀå®¶": 5495,
      "ä¸īä½ĵæĹ¶": 5496,
      "æīĭéĩĮ": 5497,
      "æīĭæŀª": 5498,
      "åľ°çĲĥäºº": 5499,
      "æŀľçĦ¶": 5500,
      "éĩıçļĦ": 5501,
      "å®Įç¾İ": 5502,
      "åģļä¸įåĪ°": 5503,
      "åĨĽæĸ¹": 5504,
      "åĬłå¿«": 5505,
      "æµĭè¯ķ": 5506,
      "å¼ºå¤§çļĦ": 5507,
      "æĸ¯ç§ĳ": 5508,
      "è½¬å¤´": 5509,
      "ç¬ĳäºĨ": 5510,
      "ç»Ļå¥¹": 5511,
      "éªļ": 5512,
      "å¾®æ³¢": 5513,
      "ä½İç»´": 5514,
      "ä½İå£°è¯´": 5515,
      "åħĥç´ł": 5516,
      "æ®Ĭ": 5517,
      "å¤įåĪ¶": 5518,
      "ä»ĸçļĦçĽ®åħī": 5519,
      "åĩºæĿ¥äºĨ": 5520,
      "æıĲåīį": 5521,
      "åŀĭæ°¢å¼¹": 5522,
      "åĨ·åį´": 5523,
      "æĺ¯ä¸Ģä»¶": 5524,
      "éĩĳèī²": 5525,
      "æĢİä¹ĪåĬŀ": 5526,
      "åĩºäºĨä¸Ģä¸ª": 5527,
      "å°½éĩı": 5528,
      "äº¤éĢļ": 5529,
      "éĽªåľ°": 5530,
      "çªĹå¤ĸ": 5531,
      "æ°¸æģĴ": 5532,
      "çĽĳçĿ£": 5533,
      "èĪ±å®¤": 5534,
      "æİ¢ç´¢": 5535,
      "æĿ¨æ¯į": 5536,
      "ä»ªåĻ¨": 5537,
      "åĳĬè¯īæĪĳ": 5538,
      "ä¹Łè®¸æĺ¯": 5539,
      "åĨħéĥ¨çļĦ": 5540,
      "åĮ»åŃ¦": 5541,
      "æ¿Ģæ´»": 5542,
      "èħ°": 5543,
      "ä¼¸åĩº": 5544,
      "ä¼¸æīĭ": 5545,
      "æĺłåĥı": 5546,
      "ä½łæĺ¯è¯´": 5547,
      "èĢĥèĻĳåĪ°": 5548,
      "æ¯ıä¸ªäºº": 5549,
      "ä¾Ŀæ¬¡": 5550,
      "å®³æĢķ": 5551,
      "å¥¥å°Ķçī¹": 5552,
      "èĪªå¤©æľį": 5553,
      "æīĶåĪ°": 5554,
      "åĤ¨": 5555,
      "æ²¹èĨľ": 5556,
      "ç¬ĳçĿĢæĳĩæĳĩå¤´": 5557,
      "èĥĮæĻ¯è¾Ĳå°Ħ": 5558,
      "èĪ·æ¢¯": 5559,
      "çļĦæµ·æ´ĭ": 5560,
      "ç¨įå¾®": 5561,
      "å°Ĭä¸¥": 5562,
      "çļĦè¶ħçº§": 5563,
      "è¾ĵåħ¥": 5564,
      "æĶ¾å¼ĥäºĨ": 5565,
      "çļĦæĮĩæĮ¥": 5566,
      "ç¦ģæŃ¢": 5567,
      "ç»Īç«¯ç«Ļ": 5568,
      "éĢĲæ¸Ĳ": 5569,
      "çļĦæ¶²": 5570,
      "æĸ¯åĿ¦é¡¿": 5571,
      "èĥ¡æĸĩ": 5572,
      "ç¬¦åı·": 5573,
      "ç±»ä¼¼äºİ": 5574,
      "éĽ·è¾¾å³°": 5575,
      "Īç¥·": 5576,
      "æĸ¯ç§ĳçī¹": 5577,
      "å¥¥å°Ķçī¹æĺŁäºĳ": 5578,
      "ay": 5579,
      "§åĪ¶": 5580,
      "èĿ": 5581,
      "çļ±": 5582,
      "çļĦéĿ¢": 5583,
      "çļĦåħ¨": 5584,
      "çļĦæľĢåĲİ": 5585,
      "çļĦå±±": 5586,
      "çļĦåİĨåı²": 5587,
      "çļĦæĺŁæĺŁ": 5588,
      "çļĦåı¦ä¸Ģ": 5589,
      "çļĦå°½å¤´": 5590,
      "ä¸Ģæīĭ": 5591,
      "ä¸Ģä¸Ŀ": 5592,
      "ä¸ĢèĦ¸": 5593,
      "ä¸Ģè¾Ĩ": 5594,
      "æĺ¯ä»¥": 5595,
      "æĺ¯è°ģ": 5596,
      "åľ¨å¯¹": 5597,
      "åľ¨æĪĳä»¬": 5598,
      "åľ¨æĦı": 5599,
      "åľ¨åľ°ä¸Ĭ": 5600,
      "å°¸": 5601,
      "æľīæīĢ": 5602,
      "æľīå¾Īå¤ļ": 5603,
      "ä¸įå°ĳ": 5604,
      "åĩ¡": 5605,
      "ä»ĸæĥ³": 5606,
      "ä»ĸåĲĳ": 5607,
      "ä¸Ńå¾®": 5608,
      "æĪĳæľī": 5609,
      "åľ°å¯¹": 5610,
      "è®¿": 5611,
      "å¤§åľ°ä¸Ĭ": 5612,
      "ä¼Ĳ": 5613,
      "ä¼Ļ": 5614,
      "éĤ£æĿ¡": 5615,
      "å¯Ħ": 5616,
      "éĢĤçļĦ": 5617,
      "çĿĢå¥¹": 5618,
      "çĿĢä»Ģä¹Ī": 5619,
      "åĩºäºİ": 5620,
      "çľĭè¿ĩ": 5621,
      "æĬ¹": 5622,
      "åİĤ": 5623,
      "ä½łä¸į": 5624,
      "çİ°æľī": 5625,
      "éĥ½å¤Ħäºİ": 5626,
      "ä½Ĩå¯¹": 5627,
      "ä¸ĭè½¦": 5628,
      "ä¸ĭä¸ĢæŃ¥": 5629,
      "éģ£": 5630,
      "åħīæ´ģ": 5631,
      "æĪĲç«ĭ": 5632,
      "æ²¡æľīåĽŀçŃĶ": 5633,
      "æ¯¯": 5634,
      "ä»İè¿ĻéĩĮ": 5635,
      "ä»İå®¹": 5636,
      "çĤ½": 5637,
      "æĬĬä»ĸ": 5638,
      "æĪĳä»¬éĥ½": 5639,
      "éķ¿åı¹": 5640,
      "åįģåŃĹ": 5641,
      "çĲĥçĬ¶": 5642,
      "è¢«ç§°ä¸º": 5643,
      "èĩªå·±åľ¨": 5644,
      "çĤ¹çĩĥ": 5645,
      "æĹłæĦı": 5646,
      "ç½Ĺè¾ĳåĴĮ": 5647,
      "å¤ªç©ºèĪ°éĺŁ": 5648,
      "è´¯": 5649,
      "å·²ç»ıä¸į": 5650,
      "æĤĶ": 5651,
      "èº¯": 5652,
      "å§ĵ": 5653,
      "ä½ľå®¶": 5654,
      "ä¸īä½ĵæĸĩæĺİçļĦ": 5655,
      "ä½įéĿ¢å£ģèĢħ": 5656,
      "æ»¤": 5657,
      "é«ĺçº§": 5658,
      "æĹ¶éĹ´ä¹ĭå¤ĸçļĦ": 5659,
      "èģĬ": 5660,
      "çĶ±æŃ¤": 5661,
      "è¿Ļæł·çļĦäºº": 5662,
      "å£ģä¸Ĭ": 5663,
      "æŃ»åİ»": 5664,
      "æ·±åħ¥": 5665,
      "è½»æĿ¾": 5666,
      "éĶ¥": 5667,
      "ä¸ĬçļĦä¸Ģä¸ª": 5668,
      "ç©¿è¶Ĭ": 5669,
      "åıĳçİ°èĩªå·±": 5670,
      "åįĬçĲĥ": 5671,
      "è§ĨçķĮ": 5672,
      "è§Ĩè§ī": 5673,
      "è½¦éĩĮ": 5674,
      "å¥³åĦ¿": 5675,
      "æµģéĢĿ": 5676,
      "å¾Īå¿«åıĳçİ°": 5677,
      "ä»¤ä»ĸ": 5678,
      "å¸Ĥéķ¿": 5679,
      "éļıåĲİ": 5680,
      "ä¿ĿéĻ©": 5681,
      "æĳĩç¯®": 5682,
      "æĢİä¹Īèĥ½": 5683,
      "æĢİä¹Īä¼ļ": 5684,
      "æĢİä¹Īåı¯èĥ½": 5685,
      "æ²īéĩį": 5686,
      "æ²īæµ¸": 5687,
      "éķľçīĩ": 5688,
      "åģľä¸ĭæĿ¥": 5689,
      "åıªèĥ½çľĭåĪ°": 5690,
      "éĨĴçĽ®": 5691,
      "æĺ¾ç¤ºå±ı": 5692,
      "è¯·æ±Ĥ": 5693,
      "çŁŃæļĤ": 5694,
      "å¯¼è½¨": 5695,
      "æĭ¿çĿĢ": 5696,
      "åĩłä¹İæĺ¯": 5697,
      "ç¿Ķ": 5698,
      "åįģåĪĨä¹ĭä¸Ģ": 5699,
      "åıĤçħ§": 5700,
      "ä¸¥æł¼": 5701,
      "çļĦæĬķ": 5702,
      "ç»´å¾·è¯´": 5703,
      "æķ´ä¸ªå®ĩå®Ļ": 5704,
      "å·®å¼Ĥ": 5705,
      "å¢ĵåľ°": 5706,
      "çļĦæ¯į": 5707,
      "çļĦæİ§åĪ¶": 5708,
      "éģĩåĪ°äºĨ": 5709,
      "æĺłçĿĢ": 5710,
      "æ¯ķäºĳå³°": 5711,
      "åį±éĻ©çļĦ": 5712,
      "ä¸įçŁ¥ä¸įè§ī": 5713,
      "èıľ": 5714,
      "ä¼¤å®³": 5715,
      "æī°åĬ¨": 5716,
      "èĦļæŃ¥": 5717,
      "éĴ¢åį°æĹı": 5718,
      "éĩĩçĶ¨": 5719,
      "æĪ´çĿĢ": 5720,
      "çļĦæ··": 5721,
      "å£®ä¸½": 5722,
      "çļĦçĪ¶": 5723,
      "ç¼ºå°ĳ": 5724,
      "çĲĥå½¢èĪ±": 5725,
      "è§Ĩéĩİä¸Ń": 5726,
      "çļĦç®¡": 5727,
      "çļĦç®Ģ": 5728,
      "åĩĮæĻ¨": 5729,
      "ç¾İä¸½çļĦ": 5730,
      "çļĦèĥĮæĻ¯ä¸Ĭ": 5731,
      "æĬĽå¼ĥ": 5732,
      "é¢ĦèŃ¦ç³»ç»Ł": 5733,
      "éĺħè¯»": 5734,
      "æĺ¾çİ°åĩºæĿ¥": 5735,
      "èªī": 5736,
      "åĳĪçİ°åĩº": 5737,
      "çļĦçł´å£ģäºº": 5738,
      "è½°é¸£å£°": 5739,
      "çļĦæıĲ": 5740,
      "çļĦæķĮäºº": 5741,
      "çļĦèĬ±": 5742,
      "é»İæĺİ": 5743,
      "åªĴä½ĵ": 5744,
      "éĢ»è¾ĳ": 5745,
      "æĹ¶éĹ´ä¹ĭå¤ĸçļĦå¾Ģäºĭ": 5746,
      ")**": 5747,
      "¨è¯¢": 5748,
      "µé": 5749,
      "ºçī": 5750,
      "Ġç¬¬äºĮ": 5751,
      "ĳ«": 5752,
      "Ľä¸ĭ": 5753,
      "çļĦåĩł": 5754,
      "çļĦåıĳå°Ħ": 5755,
      "çļĦæĪĺèĪ°": 5756,
      "çļĦè¿ĩç¨ĭ": 5757,
      "çļĦä½¿åĳ½": 5758,
      "ä»ĵ": 5759,
      "è¿ģ": 5760,
      "ä¸Ģç»´": 5761,
      "ä¸ĢæĹ¶éĹ´": 5762,
      "ä¸Ģå¹ħ": 5763,
      "æĺ¯æ²¡æľī": 5764,
      "åľ¨åħ¶ä¸Ń": 5765,
      "åľ¨æ°´æĺŁ": 5766,
      "äºĨåĩºæĿ¥": 5767,
      "å®ª": 5768,
      "è¿ĻåĿĹ": 5769,
      "è¿Ļæ®µ": 5770,
      "ä¹ı": 5771,
      "ä¸įåģľ": 5772,
      "ä¸įåłª": 5773,
      "çĶľ": 5774,
      "åĩĦ": 5775,
      "å¾Ĳ": 5776,
      "ä¸Ĭéĥ¨": 5777,
      "å¤§èĪ°éĺŁ": 5778,
      "å¤§æī¹": 5779,
      "å¤§åĪĺ": 5780,
      "çĿĢäºĨ": 5781,
      "åĴ¨è¯¢": 5782,
      "èµµé": 5783,
      "ä½łå°±": 5784,
      "ä½łä¹Ł": 5785,
      "å½¼": 5786,
      "å¯¹äºĨ": 5787,
      "å¯¹ä¸įèµ·": 5788,
      "æ²¡æĥ³åĪ°": 5789,
      "å¤ªå¤§": 5790,
      "ä¹Łè¢«": 5791,
      "ä¹Łå°Ĩ": 5792,
      "ä½Ĩè¿Ļæ¬¡": 5793,
      "ä¸ºåŁºç¡Ģ": 5794,
      "å¾Īç®Ģåįķ": 5795,
      "ä¸īå¤©": 5796,
      "çīºçī": 5797,
      "èĩªæĿĢ": 5798,
      "èĩªæĦ¿": 5799,
      "åıªæĥ³": 5800,
      "è¦ģæĥ³": 5801,
      "ç«Ń": 5802,
      "æ³ī": 5803,
      "ä¸ĸä¸»": 5804,
      "å®ĥä¸İ": 5805,
      "ä¿Ĺ": 5806,
      "å¾Ĺå¤ª": 5807,
      "è¿Ľå±ķ": 5808,
      "å¼ĢçĿĢ": 5809,
      "ä¸¤èīĺé£ŀèĪ¹": 5810,
      "ç³Ł": 5811,
      "éķ¿å¸Ĩ": 5812,
      "åįģäºĮ": 5813,
      "åįģåĩłä¸ª": 5814,
      "ç¨ĭå¿ĥæĦŁåĪ°": 5815,
      "åĲĮåŃ¦": 5816,
      "æ¸Ĺ": 5817,
      "å®ŀè´¨": 5818,
      "å®ŀæĸ½": 5819,
      "å¤ĸå¤ªç©º": 5820,
      "å¤´éĥ¨": 5821,
      "èĢĮæĪĺ": 5822,
      "åŃ¦ç§ĳ": 5823,
      "å½ĵåĪĿ": 5824,
      "åĩłçĻ¾": 5825,
      "çŁ¥éģĵçļĦ": 5826,
      "åº¦è¿ĩ": 5827,
      "ä¸»ä½ĵ": 5828,
      "çĲĨæĻº": 5829,
      "ä½ľåĵģ": 5830,
      "æŃ£ä¸Ń": 5831,
      "è¿ľç¦»": 5832,
      "çĽ¸è·Ŀ": 5833,
      "èµ°åĲİ": 5834,
      "æīĭä¸ŃçļĦ": 5835,
      "å®ĩå®Ļç¤¾ä¼ļåŃ¦": 5836,
      "åħ¥åı£": 5837,
      "çĽ´è§ī": 5838,
      "æĳĬ": 5839,
      "å¿«éĢŁ": 5840,
      "å¢Ł": 5841,
      "è¥¿æĸ¹": 5842,
      "å¹³æ·¡": 5843,
      "å·¥è´¨": 5844,
      "èĤ¥çļĤ": 5845,
      "ä¸ĩä¸ª": 5846,
      "å·¨æĳĨ": 5847,
      "çĶ»ä¸Ń": 5848,
      "é£ŀèĪ¹ä¸Ĭ": 5849,
      "éĢļçŁ¥": 5850,
      "è±ª": 5851,
      "æīĵä¼ŀ": 5852,
      "æļĹç¤º": 5853,
      "è½¬è¿ĩ": 5854,
      "åĲ¬è¯´": 5855,
      "åĲĪæĪĲ": 5856,
      "åĮĸåŃ¦": 5857,
      "ç»ĵå±Ģ": 5858,
      "åİŁä¸Ĭ": 5859,
      "è±¡å¾ģ": 5860,
      "ä½ķåįļå£«": 5861,
      "å®ĥä»¬åľ¨": 5862,
      "ä»ĸçļĦè¯Ŀ": 5863,
      "åķ¦": 5864,
      "çĦ¶åĲİåıĪ": 5865,
      "ç«ĻçĿĢ": 5866,
      "æıĲé«ĺ": 5867,
      "æıĲéĨĴ": 5868,
      "æıĲåĩºçļĦ": 5869,
      "è·Ŀå¤ªéĺ³": 5870,
      "è¡ĮæĺŁå¸¦": 5871,
      "æĢ»éĥ¨": 5872,
      "ç»Ĩèĥŀ": 5873,
      "ä¸ĢçĽ´æ²¡æľī": 5874,
      "çĨµ": 5875,
      "åıĺæĪĲäºĨä¸Ģ": 5876,
      "æľŁå¾ħ": 5877,
      "è¿Ļä¹Īåģļ": 5878,
      "éĽĨä½ĵ": 5879,
      "äºĳå¤©æĺİçļĦ": 5880,
      "å¹¿åĳĬ": 5881,
      "æģĴæĺŁéĻħ": 5882,
      "èİİ": 5883,
      "ç¼ĵæħ¢": 5884,
      "æĲº": 5885,
      "ãĢĭ(": 5886,
      "æĥ³è±¡çĿĢ": 5887,
      "åİĭåĬĽ": 5888,
      "æķħéļľ": 5889,
      "æĶ¯æĴĳ": 5890,
      "è§ĤæµĭåĪ°": 5891,
      "èĬĤéĢī": 5892,
      "çļĦèĦĳ": 5893,
      "æĳĨèĦ±": 5894,
      "æķħäºĭä¸Ń": 5895,
      "ä¸ĥåįģ": 5896,
      "çļĦæ³¡": 5897,
      "è§Ĥå¯ŁåĪ°": 5898,
      "è§Ĥå¯ŁèĢħ": 5899,
      "æµªè´¹": 5900,
      "çļĦæ°´æ»´": 5901,
      "åįłé¢Ĩ": 5902,
      "çľĭä¸įæ¸ħ": 5903,
      "åī¯èĪ°éķ¿": 5904,
      "èī¾ä¼¦": 5905,
      "ä»°æľĽ": 5906,
      "åĸ·åĩº": 5907,
      "æ£ĢæŁ¥": 5908,
      "æľ«æĹ¥æĪĺå½¹": 5909,
      "ä¹ĺåĿĲ": 5910,
      "èĳ¬": 5911,
      "ç¨ĢèĸĦ": 5912,
      "æĮĤåľ¨": 5913,
      "èįĴåĩī": 5914,
      "æ¦Ĥå¿µ": 5915,
      "éĽĨä¸ŃåĪ°": 5916,
      "çĶŁæĢģå¾ªçİ¯": 5917,
      "187": 5918,
      "å¼¯æĽ²": 5919,
      "çļĦèĭ±": 5920,
      "**ãĢĬ": 5921,
      "çļĦæ¼«": 5922,
      "æĹħè¡Į": 5923,
      "æ¬£èµı": 5924,
      "æ·±æµ·çĬ¶æĢģ": 5925,
      "çļĦèĦļæŃ¥": 5926,
      "éĤªæģ¶": 5927,
      "æ¶īåıĬ": 5928,
      "ä¼°è®¡": 5929,
      "ç½®èº«äºİ": 5930,
      "ç²®é£Ł": 5931,
      "æĭĲæĿĸ": 5932,
      "çļĦèģļåıĺ": 5933,
      "åĺ¿åĺ¿": 5934,
      "åĻ©æ¢¦": 5935,
      "éĻ¶éĨī": 5936,
      "ä¸Īå¤«": 5937,
      "ä¸Ńå¾®åŃĲ": 5938,
      "çĲĥçĬ¶éĹªçĶµ": 5939,
      "èµµéĳ«": 5940,
      "çīºçī²": 5941,
      "50": 5942,
      "Way": 5943,
      "´æľĽ": 5944,
      "çĢ": 5945,
      "çļĦåŁİå¸Ĥ": 5946,
      "æľ¦": 5947,
      "ä¸ĢåĬ¨": 5948,
      "ä¸Ģå¤Ħ": 5949,
      "ä¸ĢåįĬ": 5950,
      "ä¸ĢèĤ¡": 5951,
      "æĺ¯è¦ģ": 5952,
      "åľ¨å®ĥ": 5953,
      "åľ¨èĩªå·±": 5954,
      "åľ¨å¤ªç©º": 5955,
      "åľ¨ä¸īä½ĵä¸ĸçķĮ": 5956,
      "è¿Ļå¤©": 5957,
      "è¿Ļä½į": 5958,
      "è¯±": 5959,
      "ç»³": 5960,
      "ç»¼": 5961,
      "ä¸įåıĺ": 5962,
      "ä¸įä¸Ģæł·": 5963,
      "ä¸įæŃ¢": 5964,
      "äººè¯´": 5965,
      "åĪ°çĶ»": 5966,
      "ä¸ŃåŃ¦": 5967,
      "åįĳ": 5968,
      "æĪĳä¸įæĺ¯": 5969,
      "æĿ¥æºĲ": 5970,
      "éĤ£å¼ł": 5971,
      "è¯´åĩºäºĨ": 5972,
      "èĪį": 5973,
      "èµĽ": 5974,
      "è¡·": 5975,
      "åĲİæĿ¥çļĦ": 5976,
      "ä½łçİ°åľ¨": 5977,
      "å°±åĥıä¸Ģ": 5978,
      "åĴĮäºº": 5979,
      "åĴĮåľ°çĲĥ": 5980,
      "éĥ½å·²": 5981,
      "å¯¹éĿ¢": 5982,
      "å¯¹ä»ĸä»¬": 5983,
      "å¯¹è§Ĩ": 5984,
      "å¥¹çİ°åľ¨": 5985,
      "åīª": 5986,
      "ä¸ĭä¸Ģä¸ª": 5987,
      "ä¸ĭåİ»äºĨ": 5988,
      "åıĳåĩºäºĨ": 5989,
      "ä¸ºä½ł": 5990,
      "ä¸īçĻ¾": 5991,
      "ä¼ļè¢«": 5992,
      "å¤©çİĭæĺŁ": 5993,
      "éĻĽä¸ĭ": 5994,
      "æĭ¼": 5995,
      "åİ»æī¾": 5996,
      "æĸĩéĿ©": 5997,
      "åĮ¹": 5998,
      "åĲĳå¤ªç©º": 5999,
      "æĸ¹ç¢ĳ": 6000,
      "ä¸¤é¢Ĺ": 6001,
      "éĥ¨ç½²": 6002,
      "æĬĬè¿Ļä¸ª": 6003,
      "æĪĳä»¬å°±": 6004,
      "æĪĳä»¬ä¹Ł": 6005,
      "çģ¼": 6006,
      "ç¨ĭå¿ĥä¹Ł": 6007,
      "çĶ¨æĿ¥": 6008,
      "ä¸İå¤ªéĺ³": 6009,
      "äºĭä¸ļ": 6010,
      "éļ§": 6011,
      "åĲĮä¸Ģä¸ª": 6012,
      "èĩªå·±ä¹Ł": 6013,
      "é£ŀåİ»": 6014,
      "é£ŀè½¦": 6015,
      "æĹłçĸĳ": 6016,
      "æĹłæķħäºĭçİĭåĽ½": 6017,
      "å¤ĸä¾§": 6018,
      "ä¿¡ä»°": 6019,
      "çļĦçŃ": 6020,
      "åħ¨ä½ĵ": 6021,
      "æĤł": 6022,
      "å®ļå¾ĭ": 6023,
      "ä½ľèĢħ": 6024,
      "äºĨä¸Ģå£°": 6025,
      "æīĭæĮĩ": 6026,
      "å°Ĩæĺ¯": 6027,
      "èº«ä¸ĬçļĦ": 6028,
      "å°±æĺ¯è¯´": 6029,
      "åħ¬æĸ¤": 6030,
      "æ¯Ķèµ·": 6031,
      "å®¶åºŃ": 6032,
      "çªĥ": 6033,
      "å¹³è¡Į": 6034,
      "å¹³æģ¯": 6035,
      "è¡¨éĿ¢çļĦ": 6036,
      "å¼ºåħī": 6037,
      "è§£éĻ¤": 6038,
      "èĥ§": 6039,
      "æĸ°ä¸ĸçķĮ": 6040,
      "çģ«æµ·": 6041,
      "è®¤åĩºäºĨ": 6042,
      "éĹ¨åīį": 6043,
      "å®īè£ħ": 6044,
      "æłĩåĩĨ": 6045,
      "ä½İçĨµ": 6046,
      "ç©ºéĹ´ä¸Ń": 6047,
      "åħĪæĺ¯": 6048,
      "å¨ĺ": 6049,
      "æ¡¥": 6050,
      "æ¡¶": 6051,
      "çļĦæĺ¯ä»Ģä¹Ī": 6052,
      "çļĦå¤§å°ı": 6053,
      "åĿĲåĪ°": 6054,
      "åĲĦèĩª": 6055,
      "ä¿Ŀåį«": 6056,
      "å¹²äºĨ": 6057,
      "æĬĢæľ¯ä¸Ĭ": 6058,
      "è¶ħè¶Ĭ": 6059,
      "è¿ŀæİ¥": 6060,
      "åº§æ¤ħ": 6061,
      "è§ĦåĪĴ": 6062,
      "çĽ®åħīä¸Ń": 6063,
      "ç²¾åº¦": 6064,
      "æĹ©æĻ¨": 6065,
      "è£ħå¤ĩ": 6066,
      "èŃ¦å®ĺ": 6067,
      "æĪĲä¸ºä¸Ģä¸ª": 6068,
      "æµ®çİ°": 6069,
      "é£İæł¼": 6070,
      "çº¸ä¸Ĭ": 6071,
      "åħ¶å®ŀæĺ¯": 6072,
      "ä¼Ĭä¼¯": 6073,
      "è°ģéĥ½": 6074,
      "ç´§æİ¥çĿĢ": 6075,
      "ç®ĢçŁŃ": 6076,
      "ç¿ĺæĽ²çĤ¹": 6077,
      "åĮħè£¹": 6078,
      "çļĦæĥĬ": 6079,
      "åĺ¶": 6080,
      "ä»¥åĲİçļĦ": 6081,
      "é¡¶éĥ¨": 6082,
      "æ¯įèĪ°": 6083,
      "å®īåħ¨å¸¦": 6084,
      "éĤ£æł·çļĦ": 6085,
      "å¤©ç©ºä¸Ń": 6086,
      "æĤ¬å´ĸ": 6087,
      "ä¸ºä»Ģä¹Īä¸į": 6088,
      "é»Ħæĺı": 6089,
      "ä¸¾åĬ¨": 6090,
      "å¤§éĥ¨åĪĨæĺ¯": 6091,
      "çº¢å²¸å·¥ç¨ĭ": 6092,
      "ç®Ģåįķåľ°": 6093,
      "åŁºç¡ĢçĲĨè®º": 6094,
      "çļĦæ¯Ķ": 6095,
      "çļĦæİ¥": 6096,
      "æ¬¢è¿İ": 6097,
      "æīĵå¼ĢäºĨ": 6098,
      "çļĦå¿ĥçĲĨ": 6099,
      "å®ıä¼Ł": 6100,
      "å®ıåİŁåŃĲ": 6101,
      "å®«æ®¿": 6102,
      "èĦļä¸ĭ": 6103,
      "å¥ĩæĢªçļĦ": 6104,
      "éº»æľ¨": 6105,
      "æľ«æĹ¥ä¹ĭ": 6106,
      "ç¦ıåħ¨": 6107,
      "ç»įçĲ³": 6108,
      "çļĦèįĴ": 6109,
      "æĺİæĺ¾çļĦ": 6110,
      "è¢ĭä¸Ń": 6111,
      "åĿłåħ¥": 6112,
      "åºŁå¢Ł": 6113,
      "åĩĿåĽº": 6114,
      "çļĦæŀģ": 6115,
      "çļĦçĹķè¿¹": 6116,
      "å¹¿éĺĶçļĦ": 6117,
      "åĨĴéĻ©": 6118,
      "éĺ»åĬĽ": 6119,
      "éĺ»æŃ¢": 6120,
      "æĭ¯æķĳæ´¾": 6121,
      "æķ°åŃ¦æ¨¡åŀĭ": 6122,
      "åĺ´éĩĮ": 6123,
      "åºŀå¤§çļĦ": 6124,
      "æĿİç»´": 6125,
      "çļĦèģĶç³»": 6126,
      "çĨĶåĮĸ": 6127,
      "åĽ´ç»ķçĿĢ": 6128,
      "åįłæį®äºĨ": 6129,
      "åľ°çĲĥä¸īä½ĵç»Ħç»ĩ": 6130,
      "å¿½çķ¥": 6131,
      "æĿ¥å¾ĹåıĬ": 6132,
      "æīĵéĩıçĿĢ": 6133,
      "è®Ńç»ĥ": 6134,
      "åĤ¬çľł": 6135,
      "éĻĮçĶŁ": 6136,
      "æĹłå£°åľ°": 6137,
      "çĽ²åĮº": 6138,
      "ç¬ĳäºĨç¬ĳ": 6139,
      "Ġç¬¬äºĮåį·": 6140,
      "ä¼Ĭä¼¯å¸¦": 6141,
      "647": 6142,
      "ĩæĭī": 6143,
      "Ĵæģ¯": 6144,
      "ĸĩæĭī": 6145,
      "çļĦè¿Ļ": 6146,
      "çļĦåīį": 6147,
      "çļĦæĸĩæĺİ": 6148,
      "çļĦä¸»è¦ģ": 6149,
      "çļĦä½ľçĶ¨": 6150,
      "æľ´": 6151,
      "ä¸Ģåı°": 6152,
      "ä¸Ģèĩ´": 6153,
      "ä¸Ģæŀ¶": 6154,
      "ä¸Ģé¡¹": 6155,
      "ä½©": 6156,
      "æĺ¯ä¸įåı¯èĥ½": 6157,
      "åľ¨è¿ĻäºĽ": 6158,
      "åľ¨ä¸īç»´": 6159,
      "åľ¨åĵªéĩĮ": 6160,
      "åľ¨åľ°çĲĥä¸Ĭ": 6161,
      "äºĨæĪĳ": 6162,
      "å®ľ": 6163,
      "åħ½": 6164,
      "è¿Ļæīį": 6165,
      "ä¹¡": 6166,
      "æľīå¤ļå°ĳ": 6167,
      "ä¸įè§ģ": 6168,
      "ä¸įçŃī": 6169,
      "ä¸įä½ı": 6170,
      "ä¸įéĶĻ": 6171,
      "äººäºĨ": 6172,
      "äººåı£": 6173,
      "ä»ĸè¦ģ": 6174,
      "ä»ĸä¸İ": 6175,
      "åĪ°è¿ĩ": 6176,
      "åĪ°çĽ®åīį": 6177,
      "ä¸ŃæĸŃ": 6178,
      "æĪĳè¿ĺ": 6179,
      "åĬĿ": 6180,
      "æĹ¶ç©º": 6181,
      "éĢĬ": 6182,
      "çĿĢéĻĨ": 6183,
      "è¯´åĩº": 6184,
      "è¯´åĲ§": 6185,
      "èĥ½ä¸įèĥ½": 6186,
      "èĥ½åĲ¬åĪ°": 6187,
      "åĩºçĶŁ": 6188,
      "çľĭå¾Ĺ": 6189,
      "ä½łä¼ļ": 6190,
      "çº½": 6191,
      "å¯¹ç¨ĭå¿ĥè¯´": 6192,
      "ä½ĨéĤ£": 6193,
      "ä½Ĩè¦ģ": 6194,
      "ä½Ĩåį´": 6195,
      "å¾Īå¼º": 6196,
      "ä»¥åħīéĢŁ": 6197,
      "è¡Įèµ°": 6198,
      "è¡Įé©¶": 6199,
      "éĹ´è·Ŀ": 6200,
      "åīįå¾Ģ": 6201,
      "æĥ³è¯´": 6202,
      "å¾Ĺä¸į": 6203,
      "åĲĳå¤ªéĺ³": 6204,
      "æĸ¹å½¢": 6205,
      "çļĦè¥¿": 6206,
      "çļĦèĸĦ": 6207,
      "ä¸¤çľ¼": 6208,
      "è¢ĸ": 6209,
      "æĬĬè¿Ļ": 6210,
      "æĪĳä»¬åı¯ä»¥": 6211,
      "éķ¿çļĦæĹ¶éĹ´": 6212,
      "éķ¿åīĳ": 6213,
      "ç¨ĭå¿ĥåľ¨": 6214,
      "äºĭæķħ": 6215,
      "ç½Ĺæĸ¯": 6216,
      "èĪ°å°¾": 6217,
      "ä¹ĭä¸Ĭ": 6218,
      "ä¹ĭä¸ĭ": 6219,
      "çİ°åľ¨æĺ¯": 6220,
      "ï¼ģï¼ģâĢĿ": 6221,
      "æĹłæ¯Ķ": 6222,
      "ç½Ĺè¾ĳå¯¹": 6223,
      "ç±»åľ°": 6224,
      "å½ĵéĩı": 6225,
      "çľŁè¯ļ": 6226,
      "çľ¼ä¸ŃçļĦ": 6227,
      "çľ¼æ³ª": 6228,
      "åĽŀäºĨ": 6229,
      "æĦŁåºĶ": 6230,
      "å£°æ³¢": 6231,
      "çļĦä¸Ģå°ı": 6232,
      "çļĦä¸Ģè§Ĵ": 6233,
      "åľ°çĲĥåĴĮ": 6234,
      "çļĦäººåĳĺ": 6235,
      "éĩįéĩı": 6236,
      "æ»ŀ": 6237,
      "æ°´çļĦ": 6238,
      "æ¶¦": 6239,
      "ãĢģâĢľ": 6240,
      "åģļåĩºçļĦ": 6241,
      "åĽĽåįģäºĶ": 6242,
      "å®¶éĩĮ": 6243,
      "æıŃ": 6244,
      "å¹³æĹ¶": 6245,
      "æ³ķåºŃ": 6246,
      "ä¾¦": 6247,
      "å·¨è½®": 6248,
      "çĶ»åĪ°çĶ»": 6249,
      "å¼ºå¤§": 6250,
      "æħ¨": 6251,
      "å¦Ĥæŀľæ²¡æľī": 6252,
      "äºĳå±Ĥ": 6253,
      "äºĳåĽ¢": 6254,
      "åı¶åŃĲ": 6255,
      "åĩºçİ°æĹ¶": 6256,
      "æĶ¾çĿĢ": 6257,
      "æľĽåİ»": 6258,
      "åĸĥ": 6259,
      "æ·±åĪ»": 6260,
      "æį·": 6261,
      "éĶĭ": 6262,
      "å¸¦æĿ¥çļĦ": 6263,
      "éª¤": 6264,
      "çī¹çĤ¹": 6265,
      "çī¹æ®Ĭ": 6266,
      "çģ«åħī": 6267,
      "èĢģèĢħ": 6268,
      "æłĩç¤º": 6269,
      "åıįåĬ¨": 6270,
      "åıįèĢĮ": 6271,
      "ä½İå¤´": 6272,
      "æĹ¥æľ¬": 6273,
      "ç±³å·¦åı³": 6274,
      "åĽ¾æĻ¯": 6275,
      "åı¦ä¸Ģç§į": 6276,
      "çº¢çģ¯": 6277,
      "çº¢èī²çļĦ": 6278,
      "çļĦäºĭå®ŀ": 6279,
      "å½ĵçĦ¶æĺ¯": 6280,
      "å°½åı¯èĥ½": 6281,
      "åıªèĥ½åľ¨": 6282,
      "çłĶç©¶çļĦ": 6283,
      "æĮīåĬ¨": 6284,
      "åıĺæĪĲä¸Ģä¸ª": 6285,
      "çĹķ": 6286,
      "åĭĩ": 6287,
      "äº¤æİ¥": 6288,
      "åŁİå¸Ĥä¸Ń": 6289,
      "çł´ç¢İ": 6290,
      "çļĦåľ°éĿ¢": 6291,
      "èŃ¦æĸ¹": 6292,
      "åĬłéĢŁåĪ°": 6293,
      "æłĳæŀĹ": 6294,
      "äº²çĪ±çļĦ": 6295,
      "çļĦæĢĢ": 6296,
      "éĤ£æĺ¯ä»Ģä¹Ī": 6297,
      "èĥĮåĲİ": 6298,
      "åıĤä¸İ": 6299,
      "é¡¶ä¸Ĭ": 6300,
      "æĽ²çº¿": 6301,
      "éĽ·è¿ªäºļåħ¹åħĪçĶŁ": 6302,
      "éĤ£æĹ¶çļĦ": 6303,
      "çŀĦ": 6304,
      "è§¦åıĳ": 6305,
      "äºĮåįģä¸Ģ": 6306,
      "å·®åĪ«": 6307,
      "åľĨå½¢": 6308,
      "è½®åĢ¼": 6309,
      "å³»": 6310,
      "è¡Ģæ¶²": 6311,
      "éĩįè¦ģçļĦ": 6312,
      "åĪ°è¾¾åľ°çĲĥ": 6313,
      "å¢ŀéķ¿": 6314,
      "å±ħæ°ĳ": 6315,
      "è¿½ä¸Ĭ": 6316,
      "æĦıä¹īçļĦ": 6317,
      "äºĴçĽ¸": 6318,
      "çļĦæĶ¯": 6319,
      "çĹħæĪ¿": 6320,
      "çļĦæľĢå¤§": 6321,
      "çļĦæľĢé«ĺ": 6322,
      "éĢĢä¼ĳ": 6323,
      "éĿ¢å£ģè®¡åĪĴçļĦ": 6324,
      "æķĮäººçļĦ": 6325,
      "çİ°ä»£äºº": 6326,
      "æī¿åıĹ": 6327,
      "æĦıè¯Ĩä¸Ń": 6328,
      "æ¸ħæ¥ļåľ°": 6329,
      "æİ¥è¿ĳåħīéĢŁ": 6330,
      "æİ©ä½ĵè®¡åĪĴ": 6331,
      "æł¹æľ¬æ²¡æľī": 6332,
      "è°ĭæĿĢ": 6333,
      "çļĦæķ°åŃĹ": 6334,
      "åģĩè®¾": 6335,
      "å¤§å®¶éĥ½": 6336,
      "ç¤¼çī©": 6337,
      "èĭ±åĽ½": 6338,
      "é¡ºåĪ©": 6339,
      "çļĦçĪĨ": 6340,
      "æ¹ĸè¾¹": 6341,
      "èĻļå¼±": 6342,
      "å°Ĭéĩį": 6343,
      "é£ĺæµ®çĿĢ": 6344,
      "äºķä¸Ĭ": 6345,
      "åĲ¨çº§": 6346,
      "æŃ£ç¡®çļĦ": 6347,
      "è¹²": 6348,
      "èĭĹç¦ıåħ¨": 6349,
      "çĨĦçģŃäºĨ": 6350,
      "åħ³éĹŃäºĨ": 6351,
      "èªĵ": 6352,
      "æī¶çĿĢ": 6353,
      "åĲĮæŃ¥è½¨éģĵ": 6354,
      "çļĦæļĹ": 6355,
      "æĬµæĬĹ": 6356,
      "æĲľç´¢": 6357,
      "ç©ºèį¡èį¡çļĦ": 6358,
      "æĮ£æīİ": 6359,
      "é£ŀå¿«åľ°": 6360,
      "åħĨèµ«": 6361,
      "çĭŃçªĦ": 6362,
      "çļĦç¢İ": 6363,
      "åĵĪåĭĥäºĮåı·": 6364,
      "ä¿Ħç½Ĺæĸ¯": 6365,
      "çļĦæķħäºĭ": 6366,
      "éķ¿åı¹ä¸Ģå£°": 6367,
      "åıĤçħ§ç³»": 6368,
      "æľ«æĹ¥ä¹ĭæĪĺ": 6369,
      "27": 6370,
      "MD": 6371,
      "¡çĥĽ": 6372,
      "ĠéĿ¢å£ģèĢħ": 6373,
      "Ġç¬¬ä¸ī": 6374,
      "Ġä¸Ĭéĥ¨": 6375,
      "ĥåľ": 6376,
      "ĭçļĦ": 6377,
      "çļĦå¾®": 6378,
      "çļĦæ²Ļ": 6379,
      "çļĦè¦ģæ±Ĥ": 6380,
      "çļĦæĺŁç©º": 6381,
      "çļĦèī²å½©": 6382,
      "çļĦå¾®ç¬ĳ": 6383,
      "ä»ĩ": 6384,
      "ä¸ĢåĽ¢": 6385,
      "æĺ¯æĪĳ": 6386,
      "åľ¨å°ı": 6387,
      "åľ¨è¢«": 6388,
      "åľ¨åľº": 6389,
      "åľ¨å¤ĸéĿ¢": 6390,
      "æľīåĬĽ": 6391,
      "ä¸įä¸Ģ": 6392,
      "ä¸įä¸º": 6393,
      "ä¸įåĩºæĿ¥": 6394,
      "ä¸įè§ĦåĪĻ": 6395,
      "äººæķ°": 6396,
      "æĪĳæĿ¥": 6397,
      "å·¡": 6398,
      "å·¾": 6399,
      "åľ°åĮº": 6400,
      "å¤§éĹ¨": 6401,
      "å¤§å°ıçļĦ": 6402,
      "å¤§æĹĭæ¶¡": 6403,
      "éĤ£åĩł": 6404,
      "éĤ£è¾¹": 6405,
      "è¯´è¯´": 6406,
      "æĬ«": 6407,
      "å¸ĺ": 6408,
      "ä½łæľī": 6409,
      "ä½łå¥½": 6410,
      "åĴĮå¥¹": 6411,
      "éĿ¢ç½©": 6412,
      "çİ°æľīçļĦ": 6413,
      "å¯¹è¿Ļä¸ª": 6414,
      "ä¹ŁæĹłæ³ķ": 6415,
      "æĺŁçĲĥ": 6416,
      "åīĤ": 6417,
      "ä½Ĩæĺ¯": 6418,
      "ä½Ĩè¿Ļä¸ª": 6419,
      "éģµ": 6420,
      "ä¸īåĲį": 6421,
      "ä¸īå¤§èĪ°éĺŁ": 6422,
      "æ´¼": 6423,
      "åĥıæľº": 6424,
      "æ³Ħ": 6425,
      "æģ°": 6426,
      "å·²æĪĲä¸º": 6427,
      "å¼Ģè½¦": 6428,
      "ï¼ŁâĢĿ</": 6429,
      "çļĦè¢": 6430,
      "ä¸¤æł¹": 6431,
      "ä¸¤ä¾§": 6432,
      "éĥ¨ä»¶": 6433,
      "æĪĳä»¬å°Ĩ": 6434,
      "æĪĳä»¬åºĶè¯¥": 6435,
      "åįģå¹´": 6436,
      "ç¨ĭå¿ĥçŁ¥éģĵ": 6437,
      "ä¸İåħ¶ä»ĸ": 6438,
      "ä¸İä»¥åīį": 6439,
      "è¢«åĩ»": 6440,
      "éĽĦ": 6441,
      "æ¸´æľĽ": 6442,
      "åı·æĺ¯": 6443,
      "åı·åľ¨": 6444,
      "æĹłæįŁ": 6445,
      "å¥½å¥ĩ": 6446,
      "ç½Ĺè¾ĳçľĭåĪ°": 6447,
      "å¤ªéĺ³åľ¨": 6448,
      "ä¿¡ä»»": 6449,
      "çļĦç¡": 6450,
      "çļĦç´": 6451,
      "åħ¨èĪ°": 6452,
      "æ±Ł": 6453,
      "åĩłä½ķ": 6454,
      "è°±": 6455,
      "ä¸»å¼ł": 6456,
      "çĲĨæĢ§": 6457,
      "äººç±»åľ¨": 6458,
      "äººç±»æĸĩæĺİçļĦ": 6459,
      "åĽŀæĿ¥äºĨ": 6460,
      "åĽŀå½Ĵ": 6461,
      "è¿ľäºĨ": 6462,
      "ä¸īä½ĵæİ¢æµĭåĻ¨": 6463,
      "çĽ¸éģĩ": 6464,
      "æĦŁåĪ°äºĨ": 6465,
      "èµ°æĿ¥": 6466,
      "çļĦä¸ĢçĶŁ": 6467,
      "çļĦä¸Ģçīĩ": 6468,
      "çļĦä¸ĢåįĬ": 6469,
      "çļĦä¸Ģåı¥è¯Ŀ": 6470,
      "æīĭè¯´": 6471,
      "åľ°çĲĥä¸ĬçļĦ": 6472,
      "å®ĩå®Ļæľį": 6473,
      "éĩįçĤ¹": 6474,
      "æ»Ķ": 6475,
      "é«ĺç»´": 6476,
      "é«ĺWay": 6477,
      "å½¢æĪĲäºĨ": 6478,
      "ä»£æĽ¿": 6479,
      "åħ³åĪĩ": 6480,
      "é¡½": 6481,
      "å®¶åĽŃ": 6482,
      "æĽ´æĺ¯": 6483,
      "çªĴæģ¯": 6484,
      "æ³ķåĽ½": 6485,
      "æ³ķæ¡Ī": 6486,
      "å²Ń": 6487,
      "ä¸ĩåħ¬éĩĮ": 6488,
      "éĤ£ä¸ªæĸ¹åĲĳ": 6489,
      "å¦Ĥæŀľä½ł": 6490,
      "æīĵçł´": 6491,
      "åĪ¶å®ļ": 6492,
      "æĥħç»ª": 6493,
      "è§ģéĿ¢": 6494,
      "æ·±å¤ľ": 6495,
      "ç¡®è®¤": 6496,
      "æįĤ": 6497,
      "çİ¯æĹ¥": 6498,
      "æľĢåĲİä¸Ģä¸ª": 6499,
      "ç©¿è¿ĩäºĨ": 6500,
      "æľīä¸ĢäºĽ": 6501,
      "æľīä¸ĢçĤ¹": 6502,
      "å°ĳæķ°": 6503,
      "å°ĳå¥³": 6504,
      "æĸ°çĶŁæ´»": 6505,
      "å®īéĿĻ": 6506,
      "ç¥ŀè¿¹": 6507,
      "ç©ºéĹ´ç«Ļ": 6508,
      "åŀĥåľ": 6509,
      "æ¡ĳ": 6510,
      "åı¶æĸĩæ´ģçļĦ": 6511,
      "æĴ¤": 6512,
      "æŃ¥æŀª": 6513,
      "ä½ıå¤Ħ": 6514,
      "æıĲæ¡Ī": 6515,
      "ç¾İå¥½": 6516,
      "è¿Ľåħ¥å¤ªç©º": 6517,
      "è¿Ľåħ¥åħīéĢŁ": 6518,
      "åĳ¨æľŁ": 6519,
      "æĢ»å¾Ĺ": 6520,
      "ç»Ħå»º": 6521,
      "æº¢": 6522,
      "éķľåŃĲ": 6523,
      "èĵĿå¤©": 6524,
      "æĶ¶ç¼©": 6525,
      "è¶ħåĩºäºĨ": 6526,
      "åı°çĲĥ": 6527,
      "æľªçŁ¥": 6528,
      "äº¤éĶĻ": 6529,
      "æĺ¾ç¤ºçļĦ": 6530,
      "çĶļèĩ³è¿ŀ": 6531,
      "è¯·æĮī": 6532,
      "çŁŃçļĦæĹ¶éĹ´": 6533,
      "å¯Ĩå¯Ĩ": 6534,
      "æ°´æ»´çļĦ": 6535,
      "æĭ¿åĩº": 6536,
      "èŃ¦åį«": 6537,
      "æĻ¯è±¡": 6538,
      "è¯Ńæ°Ķ": 6539,
      "çŃĶåºĶ": 6540,
      "åľ¨è¿Ļåľº": 6541,
      "èĩ´åĳ½": 6542,
      "éĢĥéĢ¸": 6543,
      "åºķéĥ¨": 6544,
      "æ³¨æĦıåĬĽ": 6545,
      "æ³¨æĦıåĪ°äºĨ": 6546,
      "éĵ¶èī²çļĦ": 6547,
      "æľīäººåľ¨": 6548,
      "æİ§åĪ¶ä¸Ńå¿ĥ": 6549,
      "è§Ĥæµĭç«Ļ": 6550,
      "ä¼Łå¤§": 6551,
      "é¥®": 6552,
      "åĳĬè¯īä»ĸ": 6553,
      "åİĨåı²çļĦ": 6554,
      "å·®è·Ŀ": 6555,
      "æĭ¥æĬ±": 6556,
      "åºĦä¸¥": 6557,
      "å»ºç«ĭäºĨ": 6558,
      "ä½ľä¸ºä¸Ģä¸ª": 6559,
      "ç§°åĳ¼": 6560,
      "é»Ħéĩĳ": 6561,
      "æ·¡æ·¡": 6562,
      "çº¢å²¸ç³»ç»Ł": 6563,
      "ä¸½èİİ": 6564,
      "æķĳä¸ĸä¸»": 6565,
      "å¤©æĸĩåŃ¦å®¶": 6566,
      "çļĦæĦŁè§īä¸Ń": 6567,
      "çļĦä¸ĢåĪĩéĥ½": 6568,
      "ç¼©çŁŃ": 6569,
      "æ¯ķä¸ļ": 6570,
      "çģ°èī²": 6571,
      "è¶ĬæĿ¥è¶Ĭå¤ļ": 6572,
      "éļĶç»Ŀ": 6573,
      "å®ŀéªĮå®¤": 6574,
      "æ²¹çĶ»": 6575,
      "çĶ»éĿ¢ä¸Ń": 6576,
      "åİļçļĦ": 6577,
      "èŀįåĮĸ": 6578,
      "èŀįä¸ºä¸Ģä½ĵ": 6579,
      "éĵ¶æ²³ç³»çļĦ": 6580,
      "çļĦæķ°éĩı": 6581,
      "å¿ĺäºĨ": 6582,
      "çļĦç¾¤": 6583,
      "çļĦæĻºæħ§": 6584,
      "118": 6585,
      "çļĦæ¸ħ": 6586,
      "çĽ¸å¯¹è®º": 6587,
      "æ¯ķç«Łæĺ¯": 6588,
      "æµ¸æ³¡": 6589,
      "èĻ«åŃĲ": 6590,
      "196": 6591,
      "åĵ²åŃ¦": 6592,
      "èµ°è¿ĽäºĨ": 6593,
      "èĢ³è¾¹": 6594,
      "è¯¾é¢ĺ": 6595,
      "çĽ¸åĲĮçļĦ": 6596,
      "è¡¥åħħ": 6597,
      "å«Į": 6598,
      "æįķèİ·": 6599,
      "ä¸¢å¤±": 6600,
      "èĳĹåĲį": 6601,
      "æĹłè®ºæĺ¯": 6602,
      "çľŁç©ºåħīéĢŁ": 6603,
      "èĭįçĻ½": 6604,
      "è¿Ĳè½½èĪ±": 6605,
      "æŁ¯ä¼Ĭä¼¯å¸¦": 6606,
      "æľ¨åį«äºĮ": 6607,
      "è°¨æħİ": 6608,
      "è¯¦ç»Ĩ": 6609,
      "æľ¦èĥ§": 6610,
      "çº½çº¦": 6611,
      "Ġç¬¬ä¸īåį·": 6612,
      "çİ¯æĹ¥åĬłéĢŁåĻ¨": 6613,
      "åŀĥåľ¾": 6614,
      "ªå£°": 6615,
      "®æŀĹ": 6616,
      "³çļĦ": 6617,
      "½æ¯Ľ": 6618,
      "èĸĩæĭī": 6619,
      "Ĥèļģ": 6620,
      "ĮçļĦ": 6621,
      "įç¼©": 6622,
      "Ŀçģ«": 6623,
      "çļĦæľªæĿ¥": 6624,
      "çļĦåŁºæľ¬": 6625,
      "çļĦçľŁå®ŀ": 6626,
      "çļĦçĶ·äºº": 6627,
      "çļĦç©ºæ°Ķ": 6628,
      "ä¸Ģå¤§": 6629,
      "ä¸Ģè¡Į": 6630,
      "ä¸Ģæ®µæĹ¶éĹ´": 6631,
      "åĪĥ": 6632,
      "åľ¨æķ´ä¸ª": 6633,
      "è¿Ļåľ¨": 6634,
      "è¿Ļè¾¹": 6635,
      "è¿Ļå¼ł": 6636,
      "è¿Ļé¢Ĺ": 6637,
      "è¿Ļä¹ĭåīį": 6638,
      "è¿ĻæĦıåĳ³çĿĢ": 6639,
      "æľīä¸ª": 6640,
      "ä¸ªå°ıæĹ¶": 6641,
      "ç»Ĵ": 6642,
      "ç»ŀ": 6643,
      "ä¸įè§£": 6644,
      "ä»ĸçªģçĦ¶": 6645,
      "æī³": 6646,
      "ä¸Ĭä¸ĸçºª": 6647,
      "æĪĳæ²¡æľī": 6648,
      "æĪĳçľŁ": 6649,
      "æĪĳå½ĵçĦ¶": 6650,
      "æĹ¶æīį": 6651,
      "çĿ¹": 6652,
      "å¤§ä¼ļ": 6653,
      "å¤§æµ·": 6654,
      "å¤§æ®¿": 6655,
      "æĿ¥ä¸įåıĬ": 6656,
      "éĤ£æĪĳ": 6657,
      "éĤ£æ¬¡": 6658,
      "éĤ£åĦ¿": 6659,
      "éĤ£ä¸¤ä¸ª": 6660,
      "éĿ¶": 6661,
      "æłı": 6662,
      "çľĭæ³ķ": 6663,
      "çľĭèµ·æĿ¥": 6664,
      "çļĦæ¤": 6665,
      "çļĦæĦ¿": 6666,
      "èĢ½": 6667,
      "éĺ±": 6668,
      "èµĭ": 6669,
      "å¸Ĳ": 6670,
      "å¸ľ": 6671,
      "ä½łå¥½åĥı": 6672,
      "åĴĮä»ĸ": 6673,
      "ä¸Ģä¸ªä¸ª": 6674,
      "éĥ½ä¸Ģæł·": 6675,
      "å¯¹å®ĥ": 6676,
      "å¯¹åĩĨ": 6677,
      "åı¯æĥľ": 6678,
      "å¥¹ä»İ": 6679,
      "æĺŁåĽ¾": 6680,
      "ç©ºæĹł": 6681,
      "ä½Ĩç½Ĺè¾ĳ": 6682,
      "ä½Ĩè¿Ļç§į": 6683,
      "æµħ": 6684,
      "ä¸ºéĽ¶": 6685,
      "ä»¥ä¾¿": 6686,
      "èĩªè½¬": 6687,
      "åīįéĿ¢çļĦ": 6688,
      "å¤©çļĦ": 6689,
      "æĥ³çļĦ": 6690,
      "æĥ³çŁ¥éģĵ": 6691,
      "æĺİäº®": 6692,
      "æľĢæĹ©": 6693,
      "å¤ļå°ıæĹ¶": 6694,
      "ä»İä»ĸ": 6695,
      "åĲĳåĲİ": 6696,
      "åĬ¨æĢģ": 6697,
      "ä»ĸä»¬ä¹Ł": 6698,
      "éĥĳ": 6699,
      "åĬĽåľº": 6700,
      "åĪĨæĪĲ": 6701,
      "åĿŁ": 6702,
      "åĿįç¼©": 6703,
      "éķ¿å¾Ĺ": 6704,
      "ç¨ĭå¿ĥåıĪ": 6705,
      "ä»Ģä¹Īéĥ½ä¸į": 6706,
      "æīĢéľĢ": 6707,
      "æīĢè¯´çļĦ": 6708,
      "åĲĮä¸Ģ": 6709,
      "é£ŀåĪ°": 6710,
      "é£ŀéĢŁ": 6711,
      "ä¹ĭç±»": 6712,
      "ä¹ĭéĻħ": 6713,
      "ä¹ĭåĪĿ": 6714,
      "æĹłå½±": 6715,
      "è´¢": 6716,
      "å¤´è¯´": 6717,
      "åħ¶éĹ´": 6718,
      "åŃ¦ä¼ļ": 6719,
      "çļĦç£": 6720,
      "åħ¨æĺ¯": 6721,
      "çľŁæľī": 6722,
      "åĩłå¹´": 6723,
      "çľĭåĪ°è¿ĩ": 6724,
      "è¿ľåİ»": 6725,
      "çĽ¸ç»§": 6726,
      "æĦŁæħ¨": 6727,
      "äºĨä¸ĢçĤ¹": 6728,
      "äºĨä¸Ģä»¶": 6729,
      "äºĨä¸ĢåįĬ": 6730,
      "èµ°åĲ§": 6731,
      "çļĦä¸ĢäºĽ": 6732,
      "çļĦä¸Ģæ®µ": 6733,
      "æµ·éĿ¢": 6734,
      "åľ°çĲĥæĸĩæĺİçļĦ": 6735,
      "å®ĩå®ĻéĹ´": 6736,
      "å®ĩå®Ļæĸĩæĺİ": 6737,
      "å®ĩå®ĻéĢŁåº¦": 6738,
      "èº«æĿĲ": 6739,
      "å°±æĺ¯åľ¨": 6740,
      "é«ĺåħ´": 6741,
      "é«ĺæ¸©": 6742,
      "å½¢åĬ¿": 6743,
      "æ¶Ĥ": 6744,
      "å°Ħçº¿": 6745,
      "å¿«ä¹Ĳ": 6746,
      "çĶµæ±ł": 6747,
      "æĽ´ä¸º": 6748,
      "çīĩä¸Ĭ": 6749,
      "å¹¶åľ¨": 6750,
      "èĤĥ": 6751,
      "æ±ªæķĻæİĪ": 6752,
      "äºĶåĪĨéĴŁ": 6753,
      "è±Ĩ": 6754,
      "å¦Ĥæŀľä¸įæĺ¯": 6755,
      "åı¶èĢģå¸Ī": 6756,
      "æļĹçº¢èī²": 6757,
      "åĪļä»İ": 6758,
      "åĩºçİ°è¿ĩ": 6759,
      "æ´ģçĻ½": 6760,
      "åĲĪä½ľ": 6761,
      "åĲĪæł¼": 6762,
      "èµ·æĿ¥çļĦ": 6763,
      "èµ·æĿ¥äºĨ": 6764,
      "åĲįç§°": 6765,
      "æĶ¾æĿ¾": 6766,
      "è¿Ĳç®Ĺ": 6767,
      "å¼Ģå§ĭåĲİ": 6768,
      "ç»ĵè®º": 6769,
      "ç¬ĳè¯Ŀ": 6770,
      "ç¬ĳå®¹": 6771,
      "ç»ĻäºĨ": 6772,
      "éĹ¨å¤ĸ": 6773,
      "åıįå¯¹": 6774,
      "åıįæĺł": 6775,
      "æĹ¥åĩº": 6776,
      "ç¥ŀè¯Ŀ": 6777,
      "åĽ´çĿĢ": 6778,
      "å¨ĥ": 6779,
      "è£¸": 6780,
      "åıªæľīåľ¨": 6781,
      "åı¶æĸĩæ´ģè¯´": 6782,
      "å¤ŁäºĨ": 6783,
      "é¢Ĺç²Ĵ": 6784,
      "ä»ĸçļĦæīĭ": 6785,
      "çľĭçĿĢä»ĸ": 6786,
      "æµģåĬ¨": 6787,
      "çļĦå¤§åİħ": 6788,
      "ç«ĻäºĨèµ·æĿ¥": 6789,
      "éĢłæĪĲçļĦ": 6790,
      "åĿĲçĿĢ": 6791,
      "æıĲåįĩ": 6792,
      "çħ§èĢĢ": 6793,
      "è¡ĮæĺŁä¸Ĭ": 6794,
      "ç½®ä¿¡": 6795,
      "é¦ĸæ¬¡": 6796,
      "æĢ»ç»Ł": 6797,
      "éĢıéķľ": 6798,
      "çļĦäºĭäºĨ": 6799,
      "çļĦäºĭä¸ļ": 6800,
      "æŀģåº¦": 6801,
      "å®¹çº³": 6802,
      "æĢİä¹Īè¯´": 6803,
      "çªģåıĺ": 6804,
      "éŁ³ä¹Ĳ": 6805,
      "æ²īæĢĿ": 6806,
      "åį´æĺ¯": 6807,
      "è¶ħè¿ĩäºĨ": 6808,
      "å®¤éĩĮ": 6809,
      "è¿Ļä¹Īå¤ļ": 6810,
      "è¯·ä½ł": 6811,
      "æ»¡è¶³": 6812,
      "å¯Ĩåº¦": 6813,
      "æĭ¿é©¬": 6814,
      "éĿ¢å£ģèĢħéĽ·è¿ªäºļåħ¹": 6815,
      "å¸ĥæ»¡": 6816,
      "æĪĲä¸ºéĿ¢å£ģèĢħ": 6817,
      "åĨ¬çľłä¸Ń": 6818,
      "åľ¨ä¸Ģçīĩ": 6819,
      "è°ģä¹Łä¸įçŁ¥éģĵ": 6820,
      "åĵªä¸ª": 6821,
      "ä»¿ä½Ľåľ¨": 6822,
      "åį³ä½¿æĺ¯": 6823,
      "éĵ¶èī²": 6824,
      "æĺŁçİ¯åħ¬åı¸": 6825,
      "å¡«": 6826,
      "çļĦå¤ªç©ºèīĩ": 6827,
      "æİĴåĪĹ": 6828,
      "ä¸ĵéĹ¨": 6829,
      "åħµåĽ¢": 6830,
      "åħ¶ä¸Ńä¸Ģä¸ª": 6831,
      "æľīäººéĹ®": 6832,
      "æĥ³è±¡ä¸ŃçļĦ": 6833,
      "æİ§åĪ¶æĿĥ": 6834,
      "è§Ĥæµĭæķ°æį®": 6835,
      "åıĬæĹ¶": 6836,
      "ä¸ģä»ªè¯´": 6837,
      "ä¸īç»´ä¸ĸçķĮ": 6838,
      "æĻ®éģį": 6839,
      "éĿłçĿĢ": 6840,
      "é¦ĸåħĪè¦ģ": 6841,
      "å¾ĦçĽ´": 6842,
      "é£ŀè¡Įè½¦": 6843,
      "åĳ¼åı«": 6844,
      "æ²īé»ĺçĿĢ": 6845,
      "åĿļåĨ³": 6846,
      "éĹŃä¸Ĭ": 6847,
      "å¢ŀå¤§": 6848,
      "é¸¡": 6849,
      "åĲ¸æĶ¶": 6850,
      "è¶³ä»¥": 6851,
      "çªĹåı£ä¸Ń": 6852,
      "ä¸»ä¹īèĢħ": 6853,
      "æķĪçİĩ": 6854,
      "æ¡ĮåŃĲ": 6855,
      "çļĦæ³ķ": 6856,
      "æĵįçºµ": 6857,
      "å±ķå¼ĢæĿ¥": 6858,
      "ä¸ĢçĻ¾äºĶåįģ": 6859,
      "åľ¨è¿Ļä¸ªæĹ¶ä»£": 6860,
      "éĻ·éĺ±": 6861,
      "ç»ĵæĿŁåĲİ": 6862,
      "æ¯ıä¸ªäººéĥ½": 6863,
      "000": 6864,
      "ä¾ĿéĿł": 6865,
      "ä¾ĿæĹ§": 6866,
      "çģ°æĺŁ": 6867,
      "å¹¿æĴŃçºªåħĥ": 6868,
      "èįīåĿª": 6869,
      "ç²¾ç¥ŀä¸Ĭ": 6870,
      "æĸĩæĸ¯åŁº": 6871,
      "æĹłæķ°æ¬¡": 6872,
      "åİļåº¦": 6873,
      "æĶ¹åıĺäºĨ": 6874,
      "çĦ°çģ«": 6875,
      "æĬ¬å¤´çľĭçľĭ": 6876,
      "åŃ¦èĢħä»¬": 6877,
      "éħįåĲĪ": 6878,
      "å¨ľä¸½èİİ": 6879,
      "çļĦé«ĺåº¦": 6880,
      "æİĮæı¡äºĨ": 6881,
      "å·´æĭ¿é©¬": 6882,
      "æĹĹå¸ľ": 6883,
      "å°ıå¿ĥåľ°": 6884,
      "åĨľä¸ļ": 6885,
      "è¿ľè¿ľåľ°": 6886,
      "åı¸ä»¤å®ĺ": 6887,
      "è§Ĵåº¦çľĭ": 6888,
      "åīįè¿ĽåĽĽ": 6889,
      "çļĦçªģ": 6890,
      "æĭĽåĳ¼": 6891,
      "åľ¨åľ°éĿ¢ä¸Ĭ": 6892,
      "èī°éļ¾åľ°": 6893,
      "çļĦç¥ŀç»ı": 6894,
      "å®Įæķ´çļĦ": 6895,
      "çļĦæķ´ä¸ª": 6896,
      "çģ¿çĥĤ": 6897,
      "ä¸įçĶ±å¾Ĺ": 6898,
      "åĪ°è¿ĻéĩĮæĿ¥": 6899,
      "çļĦçĭĤ": 6900,
      "çļĦæĽ²": 6901,
      "ç²¾èĩ´çļĦ": 6902,
      "åĹ¡åĹ¡": 6903,
      "å²Ĺä½į": 6904,
      "åĶ¤éĨĴ": 6905,
      "çļĦæ£®æŀĹ": 6906,
      "ä¸įè¶³éģĵ": 6907,
      "æ´Ľæĸĩæĸ¯åŁº": 6908,
      "åľĨæŁ±ä½ĵ": 6909,
      "æģĴæĺŁçº§æĪĺèĪ°": 6910,
      "çļĦæ¹ĸ": 6911,
      "çļĦæ½ľ": 6912,
      "å¹¼ç¨ļ": 6913,
      "çļĦæ¯įäº²": 6914,
      "çĶŁæĢģå¾ªçİ¯ç³»ç»Ł": 6915,
      "è½®åĢ¼ä¸»å¸Ń": 6916,
      "éĢĥéĢ¸éĢŁåº¦": 6917,
      "¬æĦı": 6918,
      "æ©": 6919,
      "é¥¿": 6920,
      "ï¼ĮãĢĬ": 6921,
      "çļĦäººç±»": 6922,
      "çļĦèĢģ": 6923,
      "çļĦçĽ®æłĩ": 6924,
      "çļĦè½¨éģĵ": 6925,
      "çļĦçİ¯å¢ĥ": 6926,
      "çļĦèµĦæºĲ": 6927,
      "çļĦè¡¨æĥħ": 6928,
      "çļĦæĪĲåĳĺ": 6929,
      "ä¸Ģä»£": 6930,
      "ä¸Ģå®¶": 6931,
      "ä¸ĢæĹłæīĢ": 6932,
      "æĺ¯æĪĳä»¬": 6933,
      "åĲĬ": 6934,
      "åľ¨æľ¨æĺŁ": 6935,
      "åľ¨éĺ³åħī": 6936,
      "æľīçĶŁ": 6937,
      "æľīæĦı": 6938,
      "æľīä¸īä¸ª": 6939,
      "æľīå¾Īå¤§": 6940,
      "ä¸įæĩĤ": 6941,
      "çĶ©": 6942,
      "äººå®¶": 6943,
      "æīģ": 6944,
      "ä¸Ĭè¯´": 6945,
      "ä¸Ĭç©º": 6946,
      "ä¸Ĭå±Ĥ": 6947,
      "æĪĳéĥ½": 6948,
      "æĪĳæĬĬ": 6949,
      "åĬ£": 6950,
      "åľ°åĲĳ": 6951,
      "å¿Į": 6952,
      "å¤§äºĭ": 6953,
      "è¯´æĺ¯": 6954,
      "èĥ½åľ¨": 6955,
      "èĥ½æĬĬ": 6956,
      "çĽĽ": 6957,
      "çļĦæį": 6958,
      "åĴ¬": 6959,
      "åĲİåĨį": 6960,
      "ç§Ģ": 6961,
      "å°±åľ¨è¿Ļ": 6962,
      "åĴĮä¸Ģä¸ª": 6963,
      "ä¸Ģä¸ªæľĪ": 6964,
      "å½Ĺ": 6965,
      "éĥ½å°Ĩ": 6966,
      "å¯¹æİ¥": 6967,
      "åı¯è¡Į": 6968,
      "åı¯éĿł": 6969,
      "æ²¡åħ³ç³»": 6970,
      "å¥¹å¯¹": 6971,
      "å¥¹ä¹Ł": 6972,
      "ä¹Łåı¯èĥ½": 6973,
      "ä¹Łæ²¡ä»Ģä¹Ī": 6974,
      "ç©ºå¤©": 6975,
      "è¿ĩè½½": 6976,
      "åıĳè¡¨": 6977,
      "ä¸īåı·": 6978,
      "ä¼ļåľ¨": 6979,
      "çŁ®": 6980,
      "åħīçļĦ": 6981,
      "çĦ¶èĢĮ": 6982,
      "éĹ´æĸŃ": 6983,
      "åİ»ä¸ĸ": 6984,
      "åİ»åĲ§": 6985,
      "å°ıå®ĩå®Ļ": 6986,
      "å°ıåı¶": 6987,
      "èī°": 6988,
      "æĶ»": 6989,
      "æĶĢ": 6990,
      "è¿ĺåı¯ä»¥": 6991,
      "æģ¼": 6992,
      "å¤ļå¤§": 6993,
      "è¿ĽèĢĮ": 6994,
      "ä»ĸä»¬å¯¹": 6995,
      "ä»ĸä»¬åıĪ": 6996,
      "çĤŃ": 6997,
      "çļĦèĻ": 6998,
      "çļĦèĽ": 6999,
      "åįģåħŃ": 7000,
      "æ¸º": 7001,
      "é£ŀè¿ĩ": 7002,
      "è¿Ļä¸ªäºº": 7003,
      "æľºçļĦ": 7004,
      "æľºåĬ¨": 7005,
      "çĤ¹ä¸Ĭ": 7006,
      "çĤ¹éĺµ": 7007,
      "æĹłè¾¹": 7008,
      "æĹłè¸ª": 7009,
      "å¤ĸå£³": 7010,
      "å·²ç»ıå¼Ģå§ĭ": 7011,
      "èĢĮè¿ĩ": 7012,
      "åı¯èĥ½ä¼ļ": 7013,
      "åħ¨åĬĽ": 7014,
      "ä½¿äºº": 7015,
      "æ±¡": 7016,
      "çľŁå¥½": 7017,
      "ç¬¬åĽĽ": 7018,
      "ç¬¬ä¸īä¸ª": 7019,
      "ä¸»åĬ¨": 7020,
      "çľ¼åħī": 7021,
      "çĽ¸åħ³": 7022,
      "äºĨä¸Ģæ¬¡": 7023,
      "äºĨä¸Ģéĺµ": 7024,
      "çļĦä¸ĢçĤ¹": 7025,
      "æīĭå¥Ĺ": 7026,
      "é»ĳçĲĥ": 7027,
      "æİ¥åĪ°": 7028,
      "è®¡è°ĭ": 7029,
      "èº«ç©¿": 7030,
      "åıĪåľ¨": 7031,
      "å°±æĺ¯è¿Ļæł·": 7032,
      "å½¢å¼ı": 7033,
      "æ¶µ": 7034,
      "åĨįä¸Ģæ¬¡": 7035,
      "æĳĶ": 7036,
      "çĻ½å¤©": 7037,
      "çĻ½èī¾": 7038,
      "åģļåĩºäºĨ": 7039,
      "åĽĽçĻ¾å¤ļ": 7040,
      "æ¯Ķä¾ĭ": 7041,
      "ç¼¸": 7042,
      "è®©å®ĥ": 7043,
      "è®©èĩªå·±": 7044,
      "è®©ç½Ĺè¾ĳ": 7045,
      "æĽ´å¤§": 7046,
      "å¹³çŃī": 7047,
      "æīįçŁ¥éģĵ": 7048,
      "åŃĺåĤ¨": 7049,
      "è¿Ļæĺ¯ä¸Ģç§į": 7050,
      "èĤ¢": 7051,
      "çĶ»éĿ¢ä¸Ĭ": 7052,
      "éĢļåĲĳ": 7053,
      "èĪ°éĺŁèģĶå¸Ńä¼ļè®®": 7054,
      "åıªæĺ¯ä¸ºäºĨ": 7055,
      "ç¥Īç¥·": 7056,
      "è§£èĦ±": 7057,
      "æīĵäºĨä¸ª": 7058,
      "åĩºçİ°åĲİ": 7059,
      "åĪĩåī²": 7060,
      "åĲĪéĢĤ": 7061,
      "è¿ĻéĩĮæĺ¯": 7062,
      "éĵĥ": 7063,
      "éĵħ": 7064,
      "è¿Ĳè¾ĵ": 7065,
      "æ·±åº¦": 7066,
      "èĲ¥": 7067,
      "ç§ĳæĬĢ": 7068,
      "çī¹éģ£": 7069,
      "çģ«æĬĬ": 7070,
      "è®¤åĩº": 7071,
      "å®īå²Ń": 7072,
      "æ¶Īæģ¯": 7073,
      "å¾®ä¸įè¶³éģĵ": 7074,
      "æīĢæľīçļĦäºº": 7075,
      "æĹ¥çĤ¹": 7076,
      "ç³»ç»Łä¸Ń": 7077,
      "è¿ĻäºĽä¸ľè¥¿": 7078,
      "ç©ºéĹ´çļĦ": 7079,
      "æ¯ıä¸Ģ": 7080,
      "å¼łåĮ»çĶŁ": 7081,
      "åĮĹäº¬": 7082,
      "èĲ½åľ¨": 7083,
      "çĭĹ": 7084,
      "ä»¤æ±ªæ·¼": 7085,
      "åĽłä¸ºè¿Ļ": 7086,
      "åįķçĭ¬": 7087,
      "é»ĳæļĹæĪĺå½¹": 7088,
      "æ³¢æ®µ": 7089,
      "æ²īç¨³": 7090,
      "éķľå¤´": 7091,
      "å¤ľèī²ä¸Ń": 7092,
      "äººä»¬çļĦ": 7093,
      "å½ĵçĦ¶åı¯ä»¥": 7094,
      "è®°ä½ı": 7095,
      "åº§å¤ªç©ºåŁİ": 7096,
      "æľŁæľĽ": 7097,
      "çĹ´": 7098,
      "è£ħåħ·": 7099,
      "éĽªæµª": 7100,
      "ä¼łè¯´": 7101,
      "ä¼łè¾¾": 7102,
      "éľ²åĩºäºĨ": 7103,
      "å¯Ĩå°ģ": 7104,
      "åħŃåįģå¤ļ": 7105,
      "æģĴæĺŁç³»": 7106,
      "åıĳçĶŁçļĦ": 7107,
      "å¯Łè§ī": 7108,
      "çķĻä¸ĭçļĦ": 7109,
      "éĻįåĪ°": 7110,
      "åĪĿæľŁ": 7111,
      "éĻĲäºİ": 7112,
      "ç´§ç´§": 7113,
      "æķ£æŃ¥": 7114,
      "éĢģç»Ļ": 7115,
      "éĤ£ä¹Īå¤ļ": 7116,
      "æĦŁåĪ°èĩªå·±": 7117,
      "ä»ªå¼ı": 7118,
      "è°ĥæŁ¥": 7119,
      "ãĢĭãĢĤ": 7120,
      "å°ıæĹ¶åĢĻ": 7121,
      "åħ´å®īå²Ń": 7122,
      "æĪĳçļĦçİĭ": 7123,
      "çĶŁåĳ½çļĦ": 7124,
      "æķ´ä¸ªä¸ĸçķĮ": 7125,
      "å®½æķŀ": 7126,
      "æ¯įæĺŁ": 7127,
      "åĳĬè¯īå¥¹": 7128,
      "çľĭä¸Ĭåİ»åĥı": 7129,
      "åĩłä¸ªäºº": 7130,
      "çĿ¡è§ī": 7131,
      "æĬķä¸ĭ": 7132,
      "ä»įçĦ¶æĺ¯": 7133,
      "åĢ¼å¾Ĺ": 7134,
      "éĩįè¦ģçļĦæĺ¯": 7135,
      "çļĦèĦĸ": 7136,
      "éĺ¶å±Ĥ": 7137,
      "é»Ħæ²³": 7138,
      "è¿ĩåİ»çļĦ": 7139,
      "åĿļç¡¬": 7140,
      "å¤§éĥ¨åĪĨäºº": 7141,
      "æĪĺçķ¥è®¡åĪĴ": 7142,
      "æĳĩæĳĩå¤´è¯´": 7143,
      "å¢ŀå¼º": 7144,
      "ä¹Ĳè¶£": 7145,
      "å·¦æīĭ": 7146,
      "çĽ¸ä¿¡æĪĳ": 7147,
      "åŁºç¡ĢçłĶç©¶": 7148,
      "åĳ³éģĵ": 7149,
      "çº³å°Ķ": 7150,
      "æĻļéľŀ": 7151,
      "æī©å¼ł": 7152,
      "çĸĳéĵ¾": 7153,
      "æİīäºĨ": 7154,
      "ä¼Ĺäºº": 7155,
      "æĪªèİ·": 7156,
      "ç¬ĳçĿĢè¯´": 7157,
      "è¿ĶèĪª": 7158,
      "èİ«æµĭ": 7159,
      "ä¹Ŀä¸ª": 7160,
      "çļĦæĦıä¹ī": 7161,
      "åı¹éģĵ": 7162,
      "çķĻä¸ĭäºĨ": 7163,
      "èĶĵ": 7164,
      "æĳĦåĥıæľº": 7165,
      "èĽĽ": 7166,
      "æĿ¯åŃĲ": 7167,
      "æĮĩæĮ¥å®ĺ": 7168,
      "å©Ĩ": 7169,
      "ç»ıåİĨè¿ĩ": 7170,
      "çĬ¯ç½ª": 7171,
      "åĸĦæĦı": 7172,
      "éĢĤåºĶäºĨ": 7173,
      "èĴĻå¨ľä¸½èİİ": 7174,
      "è¯ģæĺİäºĨ": 7175,
      "çļĦæŀĹ": 7176,
      "éļ¾ä»¥ç½®ä¿¡": 7177,
      "ä¸Ģçľ¼å°±": 7178,
      "ä¹Łå°±æĺ¯è¯´": 7179,
      "è¿İæİ¥": 7180,
      "ä¸īé¢Ĺå¤ªéĺ³": 7181,
      "çļĦæ¯ıä¸Ģä¸ª": 7182,
      "æĥĬå¥ĩåľ°åıĳçİ°": 7183,
      "åĪ¶æŃ¢äºĨ": 7184,
      "éº¦çĶ°": 7185,
      "æ±ĩæĬ¥": 7186,
      "åĨ°æ²ĻçİĭåŃĲ": 7187,
      "çļĦèģĶåĲĪ": 7188,
      "çļĦæİ¨è¿Ľ": 7189,
      "çļĦèĵĿèī²": 7190,
      "å¹½çģµåĢĴè®¡æĹ¶": 7191,
      "å§Ĳå§Ĳ": 7192,
      "è¿Ŀåıį": 7193,
      "ä¼ģåĽ¾": 7194,
      "ä¼ģä¸ļ": 7195,
      "æ·¹æ²¡": 7196,
      "æĮ¯åĬ¨": 7197,
      "æ¤įçī©": 7198,
      "çļĦçħ§çīĩ": 7199,
      "çļĦæİ¢æµĭ": 7200,
      "åĽĽä¸ĭçľĭçľĭ": 7201,
      "åĲĥåĬĽåľ°": 7202,
      "åĵ¨åħµ": 7203,
      "å®Įå¥½æĹłæįŁ": 7204,
      "ç±»åľ°è¡ĮæĺŁ": 7205,
      "çļĦæĦ¿æľĽ": 7206,
      "æĹłå½±æĹłè¸ª": 7207,
      "ç©ºå¤©é£ŀæľº": 7208,
      "17": 7209,
      "28": 7210,
      "ä¸§": 7211,
      "çļĦä¸Ń": 7212,
      "çļĦåĲİ": 7213,
      "çļĦæĸ°": 7214,
      "çļĦåıĳçİ°": 7215,
      "çļĦè¡ĮæĺŁ": 7216,
      "çļĦè¡Ģ": 7217,
      "çļĦå£«åħµ": 7218,
      "çļĦéķľéĿ¢": 7219,
      "ä¸Ģå¼Ģå§ĭ": 7220,
      "ä¸ĢåľĪ": 7221,
      "åĪ¹": 7222,
      "æĺ¯ä½ł": 7223,
      "åĲŁ": 7224,
      "åľ¨æīĢæľī": 7225,
      "åľ¨ä¸ĬéĿ¢": 7226,
      "è¿Ļåı¯èĥ½": 7227,
      "è¿ĻæŃ£æĺ¯": 7228,
      "ç»ļ": 7229,
      "ä¸įå¦Ĥ": 7230,
      "ä¸įå®ļ": 7231,
      "ä»ĸä¹Ł": 7232,
      "ä»ĸèĩªå·±": 7233,
      "ä»ĸçİ°åľ¨": 7234,
      "ä»ĸèµ°": 7235,
      "ä»ĸçĶļèĩ³": 7236,
      "åĪ°ä»ĸ": 7237,
      "ä¸Ĭæ²¡æľī": 7238,
      "ä¸ĬåįĪ": 7239,
      "å¥ī": 7240,
      "æĪĳä»¥åīį": 7241,
      "å¼ĵ": 7242,
      "åľ°çļĦ": 7243,
      "åľ°éĿ¢çļĦ": 7244,
      "å¤§äºİ": 7245,
      "å¤§æ¥¼": 7246,
      "æ²§": 7247,
      "éĤ£å¥½": 7248,
      "éĤ£åı¥è¯Ŀ": 7249,
      "èĥ½æºĲ": 7250,
      "çľĭè§ģ": 7251,
      "çļĦæ»": 7252,
      "åĲİå°±": 7253,
      "åĲİåıĪ": 7254,
      "ä½łèĤ¯å®ļ": 7255,
      "å°±è¿Ļä¹Ī": 7256,
      "åĴĮæĬĢæľ¯": 7257,
      "åĴĮåħ³ä¸Ģå¸Ĩ": 7258,
      "åºĹ": 7259,
      "éĥ½ä¸įèĥ½": 7260,
      "æĢľ": 7261,
      "å¯¹æ¯Ķ": 7262,
      "åı¯æİ§": 7263,
      "å¥¹æ²¡æľī": 7264,
      "ä¹Łåı¯èĥ½æĺ¯": 7265,
      "ç©ºä¸ŃçļĦ": 7266,
      "ä½Ĩä»į": 7267,
      "ä½ĨæĦ¿": 7268,
      "ä¸ĭèĲ½": 7269,
      "ä¸ºå¥¹": 7270,
      "æŀ¯": 7271,
      "å¾Īæ·±": 7272,
      "å¾Īä½İ": 7273,
      "å¾Īéĩįè¦ģ": 7274,
      "èĩªä»İ": 7275,
      "èĩªæ¯ģ": 7276,
      "åıªçľĭåĪ°": 7277,
      "ç½ļ": 7278,
      "çŁĽ": 7279,
      "åħīçº¿": 7280,
      "åħīæĸĳ": 7281,
      "æ²¡æľīäºĨ": 7282,
      "æ²¡æľīæĦıä¹ī": 7283,
      "æ²¡æľīè¯´è¯Ŀ": 7284,
      "æĥ³è¦ģ": 7285,
      "æĥ³ä¸įåĪ°": 7286,
      "éĩĮå£«": 7287,
      "å±ĳ": 7288,
      "æľĢå¥½çļĦ": 7289,
      "å¤ļå¾·": 7290,
      "ä»İä¸Ģä¸ª": 7291,
      "ç»ıå¸¸": 7292,
      "å¾ĹæĽ´": 7293,
      "å¾Ĺå¾Īå¿«": 7294,
      "ç±į": 7295,
      "åĲĳçĿĢ": 7296,
      "åĲĳåľ°çĲĥ": 7297,
      "åĲĳå®ĩå®Ļ": 7298,
      "åĲĳå¤ªéĺ³ç³»": 7299,
      "åĲĳäºĮç»´": 7300,
      "åĲĳå¾Ģ": 7301,
      "çĤ¬": 7302,
      "çļĦèļ": 7303,
      "ä¸¤å¤©": 7304,
      "è¢į": 7305,
      "åĪĨä¸º": 7306,
      "æĻ´": 7307,
      "æĬĬå®ĥä»¬": 7308,
      "æĬĬæı¡": 7309,
      "æĪĳä»¬èĥ½": 7310,
      "éķ¿è¿ľ": 7311,
      "æīĢèĥ½": 7312,
      "äºĭåĬ¡": 7313,
      "è¢«åİĭ": 7314,
      "èĪ°ä¸ĬçļĦ": 7315,
      "æĹłå½¢çļĦ": 7316,
      "è´«": 7317,
      "å·²ç»ıæ¶Īå¤±": 7318,
      "ç»´æĬ¤": 7319,
      "èĢĮçİ°åľ¨": 7320,
      "ä¿¡å°ģ": 7321,
      "æ±ĤçļĦ": 7322,
      "çľŁæĺ¯ä¸ª": 7323,
      "åĩłåĲį": 7324,
      "åĵ¼": 7325,
      "çľĭåĪ°ä»ĸ": 7326,
      "è¶Ł": 7327,
      "çĽ®çľ©": 7328,
      "äººç±»åİĨåı²ä¸Ĭ": 7329,
      "è¯Ŀé¢ĺ": 7330,
      "è¿ľè·Ŀç¦»": 7331,
      "å£°èī²": 7332,
      "çļĦä¸ĢåĲį": 7333,
      "æµ·å²¸": 7334,
      "é»ĳå¤ľ": 7335,
      "æİ¥åľ°": 7336,
      "çļĦäººä½ĵ": 7337,
      "èº«çļĦ": 7338,
      "èĪ¹ä¸Ĭ": 7339,
      "åĨįæľī": 7340,
      "ä»£ä»·": 7341,
      "åı²èĢĲ": 7342,
      "é¡µ": 7343,
      "åĨĽç§į": 7344,
      "åĻªå£°": 7345,
      "çĶ±ä¸Ģä¸ª": 7346,
      "åĨħèĦı": 7347,
      "å¹³æĸ¹": 7348,
      "æīįæĺ¯": 7349,
      "è¿Ļæĺ¯ä¸ª": 7350,
      "èĤ¤": 7351,
      "ç²ī": 7352,
      "åĪ«è¯´": 7353,
      "å¼ķäºº": 7354,
      "å¼ķçĪĨ": 7355,
      "å¦Ĥæŀľæĺ¯": 7356,
      "åıªæĺ¯åľ¨": 7357,
      "æ±ªæ·¼çľĭåĪ°": 7358,
      "æīĵæī°": 7359,
      "åĲ¬è¯´è¿ĩ": 7360,
      "çİ¯ç»ķ": 7361,
      "å°ĳæł¡": 7362,
      "æĸ°å®ĩå®Ļ": 7363,
      "çĬ¶çļĦ": 7364,
      "çĬ¶åĨµ": 7365,
      "åįĥå¤ļ": 7366,
      "è§Ĩè§Ĵ": 7367,
      "ç®ĹäºĨ": 7368,
      "éĥ½æĺ¯åľ¨": 7369,
      "å±ĤéļĲåĸ»": 7370,
      "è®¡åĪĴçļĦä¸Ģéĥ¨åĪĨ": 7371,
      "åľºæĻ¯": 7372,
      "åĮĹçº¦": 7373,
      "äºļéĩĮå£«": 7374,
      "çĸ¼": 7375,
      "éĢıäºĨ": 7376,
      "ç¾¤ä½ĵ": 7377,
      "åıĳå°ĦçļĦ": 7378,
      "æł¸æŃ¦åĻ¨": 7379,
      "å®¹åĻ¨": 7380,
      "åģľæľº": 7381,
      "AAéĹ®": 7382,
      "æİ¨åĬ¨": 7383,
      "åı°éĺ¶": 7384,
      "è®°è½½": 7385,
      "åĮºçļĦ": 7386,
      "çł´å£ģ": 7387,
      "ä¼łåĽŀ": 7388,
      "è¯ķè¯ķ": 7389,
      "äºĮç»´å¤ªéĺ³": 7390,
      "æĭīçĿĢ": 7391,
      "æĭīå¼Ģ": 7392,
      "ç®¡çĲĨ": 7393,
      "æĭ¿åĩºä¸Ģ": 7394,
      "éĿ¢å£ģèĢħçļĦ": 7395,
      "è®¤ä¸ºæĺ¯": 7396,
      "çļĦæķ£": 7397,
      "çļĦæķĻ": 7398,
      "ç»§æī¿": 7399,
      "é£İæĻ¯": 7400,
      "åĩłä¹İæ²¡æľī": 7401,
      "åľ¨è¿Ļæĸ¹éĿ¢": 7402,
      "çļĦæĢ§": 7403,
      "å¾ħåľ¨": 7404,
      "èĩ´æĦı": 7405,
      "æĦŁåĪ°å¾Ī": 7406,
      "ä»¥åīįçļĦ": 7407,
      "åĲĥäºĨ": 7408,
      "éĺ²æĬ¤": 7409,
      "èµĦæł¼": 7410,
      "çļĦåħīçº¿": 7411,
      "çĶŁåĳ½åĴĮ": 7412,
      "åĩıå°ĳ": 7413,
      "æĥ³è±¡ä¸Ń": 7414,
      "çĶ·äººçļĦ": 7415,
      "çĪ±æĥħ": 7416,
      "æĶ¯æĮģ": 7417,
      "çľĭä¸Ĭåİ»å¾Ī": 7418,
      "åľĨçĽĺ": 7419,
      "åĩłä¸ªå°ıæĹ¶": 7420,
      "ä¸įè¦ģåĽŀçŃĶ": 7421,
      "æ²»çĸĹ": 7422,
      "å³¡": 7423,
      "å¸Įæģ©æĸ¯è¯´": 7424,
      "åĢ¼åĭ¤": 7425,
      "æĶ¹éĢł": 7426,
      "æĤ¬åģľ": 7427,
      "çļĦæĻ®": 7428,
      "åĿļåĽº": 7429,
      "å°±åľ¨è¿ĻæĹ¶": 7430,
      "éĴ¢æŁ±": 7431,
      "éĿ¢åīįçļĦ": 7432,
      "å¢ŀæı´": 7433,
      "åŁºç¡Ģç§ĳåŃ¦": 7434,
      "çļĦæĢĿèĢĥ": 7435,
      "å¤©æĸĩåŃ¦": 7436,
      "å±Ģéķ¿": 7437,
      "çĽ¸å½ĵä¸Ģéĥ¨åĪĨ": 7438,
      "éŃĶæ³ķ": 7439,
      "èĴĤ": 7440,
      "æ¬¢åĳ¼": 7441,
      "æŁĲäºĽ": 7442,
      "æĺłåĩº": 7443,
      "éĿŀå¸¸": 7444,
      "åıĳå±ķåĪ°": 7445,
      "éĺ²å¾¡ç³»ç»Ł": 7446,
      "ä¸»å¸Ńåı°": 7447,
      "åŁºæľ¬çļĦ": 7448,
      "ä¼Ĺå¤ļ": 7449,
      "éĻĦåĬł": 7450,
      "åĽĽä¸ªä¸ĸçºª": 7451,
      "éĩĬæĶ¾": 7452,
      "éĢĢåĩº": 7453,
      "å¥¥æĸ¯": 7454,
      "çī¹åĪ«èģĶ": 7455,
      "æĪĲåĬŁåľ°": 7456,
      "éģ¿å¼Ģ": 7457,
      "å¾Ĺå¾Īå¥½": 7458,
      "ä¸Ģå®ļè¦ģ": 7459,
      "ç»¿çľ¼éķľ": 7460,
      "æĭħæŀ¶": 7461,
      "å¤ĸæĺŁäºº": 7462,
      "èĭıéĨĴåĲİ": 7463,
      "æİ©ä½ĵä¸ĸçķĮ": 7464,
      "æł¹æľ¬ä¸įåı¯èĥ½": 7465,
      "å¹½éĹŃ": 7466,
      "å®£èªĵ": 7467,
      "æĪ´ä¸Ĭ": 7468,
      "æĺŁéĻħå°ĺåŁĥ": 7469,
      "117": 7470,
      "çļĦæ¸¸": 7471,
      "åĲĦä¸ªæĸ¹åĲĳ": 7472,
      "æ®ĭéª¸": 7473,
      "å°Ĭæķ¬": 7474,
      "çļĦæŁĶ": 7475,
      "çĶŁæĢģç³»ç»Ł": 7476,
      "æĭĸçĿĢ": 7477,
      "åħ¸åŀĭ": 7478,
      "æĭĨéĻ¤": 7479,
      "èµ¶ç´§": 7480,
      "çļĦæĮĩä»¤": 7481,
      "å¾ĪæľīæĦıæĢĿ": 7482,
      "ä½ľæĪĺä¸Ńå¿ĥ": 7483,
      "çļĦæ·±æ¸Ĭ": 7484,
      "éĨĴæĿ¥æĹ¶": 7485,
      "çº³ç±³æĿĲæĸĻ": 7486,
      "è¶³å¤ŁçļĦ": 7487,
      "çļĦè°ĥ": 7488,
      "çļĦè°Ī": 7489,
      "èĴ¸æ±½": 7490,
      "çļĦç¾İä¸½": 7491,
      "å«©": 7492,
      "çļĦæ¼Ķ": 7493,
      "åįģåĪĨéĴŁåĲİ": 7494,
      "è½´çº¿": 7495,
      "çļĦæŁĲç§į": 7496,
      "çĽ¸åºĶçļĦ": 7497,
      "éĺ´å½±ä¸Ń": 7498,
      "çļĦæĽ´": 7499,
      "éĺ¿æĭī": 7500,
      "åĮĨåĮĨ": 7501,
      "éĽķå¡ĳ": 7502,
      "è½¬ç§»åĪ°": 7503,
      "åįĬå¤©æīį": 7504,
      "çłĶåĪ¶": 7505,
      "åģ¶çĦ¶": 7506,
      "åģ¶å°Ķ": 7507,
      "çºªå¿µç¢ĳ": 7508,
      "éģŃåĪ°": 7509,
      "çŁ©å½¢": 7510,
      "æĶ¶åĽŀçĽ®åħī": 7511,
      "éĤ»å±ħ": 7512,
      "çļĦèĲ½": 7513,
      "çļĦå¤§æ°Ķå±Ĥ": 7514,
      "ä½İç»´å±ķå¼Ģ": 7515,
      "æĹłæĦıä¸Ń": 7516,
      "æ²īæµ¸åľ¨": 7517,
      "ä¸įåģľåľ°": 7518,
      "æĲºå¸¦": 7519,
      "çĢĳ": 7520,
      "ä¾¦å¯Ł": 7521,
      "çĶ»åĪ°çĶ»éĩĮ": 7522,
      "çŀĦåĩĨ": 7523,
      "çļĦçĪĨçĤ¸": 7524,
      "çļĦç¢İçīĩ": 7525,
      "åĿŁå¢ĵ": 7526,
      "ä¸ĢæĹłæīĢçŁ¥": 7527,
      "çī¹éģ£éĺŁ": 7528,
      "çļĦèģĶåĲĪåĽ½": 7529,
      "åı¯æİ§æł¸èģļåıĺ": 7530,
      "åı²èĢĲå¾·": 7531,
      "äºļéĩĮå£«å¤ļå¾·": 7532,
      ")ãĢĤ": 7533,
      "¡èĲ": 7534,
      "©ç½ļ": 7535,
      "éĦ": 7536,
      "Ļåħī": 7537,
      "łéģĵ": 7538,
      "çļĦèĪ¹": 7539,
      "çļĦçº¿": 7540,
      "çļĦå¼ķåĬĽ": 7541,
      "çļĦåħ¶ä»ĸ": 7542,
      "çļĦåĶ¯ä¸Ģ": 7543,
      "çļĦçİ°å®ŀ": 7544,
      "çļĦå¥³äºº": 7545,
      "çļĦåĨĽäºº": 7546,
      "ä¸Ģåįģ": 7547,
      "ä¸Ģç²Ĵ": 7548,
      "ä¸Ģåī¯": 7549,
      "æĺ¯ä»ĸä»¬": 7550,
      "æĺ¯ä½łä»¬": 7551,
      "æĺ¯æĮĩ": 7552,
      "åľ¨è¿Ľåħ¥": 7553,
      "åľ¨äºĮç»´": 7554,
      "è¿Ļéĥ½æĺ¯": 7555,
      "è¿ĻæľŁéĹ´": 7556,
      "å°ļ": 7557,
      "è¯Ħ": 7558,
      "ä¸įåİ»": 7559,
      "ä¸įè¿ľ": 7560,
      "ä¸įéĹ´æĸŃ": 7561,
      "äººå·¥": 7562,
      "çľī": 7563,
      "åĩ¹": 7564,
      "ä»ĸä¸į": 7565,
      "ä»ĸç¬¬ä¸Ģæ¬¡": 7566,
      "ä»ĸè¯´çĿĢ": 7567,
      "ä¸Ńè¢«": 7568,
      "åį¢": 7569,
      "ä¸Ĭæµ·": 7570,
      "å¥ı": 7571,
      "æĪĳæĦŁè§ī": 7572,
      "æĪĳä¸įä¼ļ": 7573,
      "åĬ«": 7574,
      "åľ°ç¬ĳç¬ĳ": 7575,
      "å¤§çĪĨçĤ¸": 7576,
      "å¤§å£°è¯´": 7577,
      "å¤§åħ´å®īå²Ń": 7578,
      "ç©´": 7579,
      "èĥ½çľĭåĩº": 7580,
      "èĥ½æĦŁè§īåĪ°": 7581,
      "è§Ī": 7582,
      "åĩºåıĳ": 7583,
      "çľĭçļĦ": 7584,
      "åĲİåįĬ": 7585,
      "ä½łå¯¹": 7586,
      "ä½łæ²¡æľī": 7587,
      "ç§ĭ": 7588,
      "å°±ä¸į": 7589,
      "å°±çŁ¥éģĵ": 7590,
      "å°±ä¸įä¼ļ": 7591,
      "ä¸Ģä¸ªéĹ®é¢ĺ": 7592,
      "åº·": 7593,
      "çº±": 7594,
      "çºł": 7595,
      "éĥ½åı¯èĥ½": 7596,
      "éĥ½æľīä¸Ģä¸ª": 7597,
      "æĢ¨": 7598,
      "å¯¹çļĦ": 7599,
      "å¯¹ç½Ĺè¾ĳ": 7600,
      "å¯¹åľ°çĲĥ": 7601,
      "å¯¹å®ĩå®Ļ": 7602,
      "å¯¹ä»ĺ": 7603,
      "å¥¹å·²ç»ı": 7604,
      "æĺŁåĽ¢": 7605,
      "è¿ĩå¾Ĺ": 7606,
      "è¿ĩåĪĨ": 7607,
      "ä½Ĩå½ĵ": 7608,
      "ä½Ĩå¯¹äºİ": 7609,
      "åıĳèµ·": 7610,
      "åıĳæĮ¥": 7611,
      "æİĢ": 7612,
      "å¾Īè¿ĳ": 7613,
      "å¾Īå°ıçļĦ": 7614,
      "ç¨¿": 7615,
      "è¦ģåİ»": 7616,
      "è¦ģçĶ¨": 7617,
      "æĭĤ": 7618,
      "æĭĻ": 7619,
      "å±¯": 7620,
      "éģĵä¸Ń": 7621,
      "æĺİäºĨ": 7622,
      "å°ıäºĨ": 7623,
      "ä¿¯": 7624,
      "æľĢä½İ": 7625,
      "è¿ĺå¾Ĺ": 7626,
      "æģį": 7627,
      "ä»İåľ°çĲĥ": 7628,
      "å¾ĹäºĨ": 7629,
      "æĸ¹çļĦ": 7630,
      "æĸ¹ä¾¿": 7631,
      "ä»ĸä»¬ä¼ļ": 7632,
      "ç§įæĹı": 7633,
      "çļĦèľ": 7634,
      "ä¸¤èīĺ": 7635,
      "æĬĬä½ł": 7636,
      "æĪĳä»¬çļĦä¸ĸçķĮ": 7637,
      "éķ¿çº¿": 7638,
      "åįģä¸ī": 7639,
      "ç¨ĭå¿ĥçļĦå¿ĥ": 7640,
      "çĶ¨æīĭ": 7641,
      "æīĢæľª": 7642,
      "æīĢèĩ´": 7643,
      "æ¬¡å£°æ³¢": 7644,
      "åģ¿": 7645,
      "å¹´æĿ¥": 7646,
      "å¹´æĹ¶éĹ´": 7647,
      "çİ°åľ¨è¿ĺ": 7648,
      "æĹłå½¢": 7649,
      "æĹłçº¿": 7650,
      "æĹłå°½": 7651,
      "æĹłè¡¨æĥħ": 7652,
      "å¥½åĲĹ": 7653,
      "ç½Ĺè¾ĳçľĭçĿĢ": 7654,
      "å¤´æĻķ": 7655,
      "èĢĮåĩº": 7656,
      "ç±»åŀĭ": 7657,
      "å½ĵåľ°": 7658,
      "çļĦç¿": 7659,
      "çļĦçĩĥ": 7660,
      "åħ¨èº«": 7661,
      "éĹ®åĢĻ": 7662,
      "åıĺäºĨ": 7663,
      "åıĺæĢģ": 7664,
      "å®ļäºĨ": 7665,
      "åĵĩ": 7666,
      "çĽ®çĿ¹": 7667,
      "åĽŀåºĶ": 7668,
      "è¿ľç¨ĭ": 7669,
      "ä¸īä½ĵåıĽåĨĽ": 7670,
      "åĢ¦": 7671,
      "èµ°è¿ĩæĿ¥": 7672,
      "çļĦä¸Ģåıª": 7673,
      "çļĦä¸Ģæł¹": 7674,
      "å°ĨåıĺæĪĲ": 7675,
      "å®ĩå®Ļæİ¢æµĭåĻ¨": 7676,
      "çļĦäººæµ·": 7677,
      "åħ¥äºĨ": 7678,
      "é«ĺäºİ": 7679,
      "é«ĺé«ĺ": 7680,
      "é«ĺå¤Ħ": 7681,
      "æļ®": 7682,
      "çĥĤ": 7683,
      "æĳ©": 7684,
      "çĻ½äºĳ": 7685,
      "ç¾Ĭ": 7686,
      "ç¾½æ¯Ľ": 7687,
      "åģļå¥½": 7688,
      "å¤±æİ§": 7689,
      "æ¯Ķä½ł": 7690,
      "ç¼ł": 7691,
      "è®©ä½łä»¬": 7692,
      "æĽ´é«ĺ": 7693,
      "è¥¿æ´ĭ": 7694,
      "æĺ¾å¾®": 7695,
      "æľ¬èĥ½": 7696,
      "åĬłéĢŁåº¦": 7697,
      "çºªå¹´": 7698,
      "æĤ¨èĥ½": 7699,
      "çĪ·": 7700,
      "è¿Ļæĺ¯äººç±»": 7701,
      "å·¨è¡ĮæĺŁ": 7702,
      "åŁİå¢Ļ": 7703,
      "éĢļè¯Ŀ": 7704,
      "äºĶå¹´åīį": 7705,
      "è±ģ": 7706,
      "åıªæĺ¯æĥ³": 7707,
      "æīĵçĶµè¯Ŀ": 7708,
      "è¿ĳåľ°": 7709,
      "è¿ĳå¤Ħ": 7710,
      "åŁºåº§": 7711,
      "ä¸¤ä¸ªæľĪ": 7712,
      "åĸ§": 7713,
      "æŃ»æŃ»": 7714,
      "ç¬ĳèµ·æĿ¥": 7715,
      "æįī": 7716,
      "ç»Ļèĩªå·±": 7717,
      "åİŁæĿ¥çļĦ": 7718,
      "éªĤ": 7719,
      "è§ĤçļĦ": 7720,
      "å¾®å°ı": 7721,
      "åıįåĩ»": 7722,
      "çŃīåĪ°": 7723,
      "è§Ĩçº¿": 7724,
      "åŀĽ": 7725,
      "è½¦å¼Ģ": 7726,
      "è¿ĺæĺ¯åľ¨": 7727,
      "ç±³çļĦ": 7728,
      "ä¸Ģæ¬¡æ¬¡": 7729,
      "ä»ĸçļĦå¿ĥ": 7730,
      "å¥³äººçļĦ": 7731,
      "äº®çĤ¹": 7732,
      "çĦ¶åĲİæĺ¯": 7733,
      "æ¼ī": 7734,
      "çļĦå¤§éĹ¨": 7735,
      "çļĦå¤§åľ°ä¸Ĭ": 7736,
      "çļĦå¤§éĻĨ": 7737,
      "å¾Īå¿«è¢«": 7738,
      "ä½ıåľ¨": 7739,
      "å¸ĤæĶ¿": 7740,
      "è·Ŀå¤ªéĺ³ç³»": 7741,
      "åĲĦå¸¸ä»»çĲĨäºĭåĽ½": 7742,
      "åĽłä¸ºå®ĥ": 7743,
      "ç¾İå¥½çļĦ": 7744,
      "ä»»ä½ķäºº": 7745,
      "æĢ»ä½ĵ": 7746,
      "åĨ·æ¼ł": 7747,
      "ç¾¤äºº": 7748,
      "ç»ĦæĪĲçļĦ": 7749,
      "å¹²éĥ¨": 7750,
      "æĺ¯ä¸Ģé¢Ĺ": 7751,
      "æĺ¯ä¸Ģåº§": 7752,
      "åıĳå°Ħåı°": 7753,
      "åıĳå°ĦæºĲ": 7754,
      "è¿ĺæľīè®¸å¤ļ": 7755,
      "æł¸çĪĨçĤ¸": 7756,
      "åºĶè¯¥æľī": 7757,
      "åģľäºĨ": 7758,
      "æľįè£ħ": 7759,
      "å¤ľä¸Ń": 7760,
      "å¤ľæĻļ": 7761,
      "æİ¨å¼Ģ": 7762,
      "å½ĵçĦ¶çŁ¥éģĵ": 7763,
      "å°½åĬĽ": 7764,
      "è¶ħåĩº": 7765,
      "è¿ŀè¿ŀ": 7766,
      "æīĢä»¥æĪĳä»¬": 7767,
      "å®Įåħ¨åı¯ä»¥": 7768,
      "å¥ĩçĤ¹": 7769,
      "æĥĬéĨĴ": 7770,
      "åĭ¾": 7771,
      "äº¤ç»Ļ": 7772,
      "æ²Ļæ»©": 7773,
      "ä¸īä¸ªæľĪ": 7774,
      "çŁŃæĹ¶éĹ´": 7775,
      "å¯¼å¸Ī": 7776,
      "éĿ¢å£ģèĢħç½Ĺè¾ĳ": 7777,
      "çĽĳæĬ¤": 7778,
      "åıĳçĶŁåľ¨": 7779,
      "åıĳçĶŁçļĦäºĭ": 7780,
      "å¸ĥæ»¡äºĨ": 7781,
      "å¯Łçľĭ": 7782,
      "æłĳå¹²": 7783,
      "èĪ±ä¸Ń": 7784,
      "çķĻåľ¨": 7785,
      "æį®è¯´": 7786,
      "èİ±": 7787,
      "åĪĿå§ĭ": 7788,
      "çģ¯å¡Ķ": 7789,
      "éĹªèĢĢ": 7790,
      "èĥĮéĿ¢": 7791,
      "èĥĮåıĽ": 7792,
      "æĿĥå¨ģ": 7793,
      "æł¼æľĹ": 7794,
      "åĥıä¸Ģçīĩ": 7795,
      "éĵ¶åħī": 7796,
      "å¡Į": 7797,
      "ä¼ļè®®çļĦ": 7798,
      "æĿĢæŃ»": 7799,
      "é£ĺè¡Į": 7800,
      "çĶ·åŃ©": 7801,
      "éĽ·è¿ªäºļåħ¹çļĦ": 7802,
      "æľīä¸Ģä¸ªäºº": 7803,
      "æİ§åĪ¶åįķåħĥ": 7804,
      "å¯Ĵæ°Ķ": 7805,
      "çĽ®åīįçļĦ": 7806,
      "æŀ¶ç©¿æ¢Ńæľº": 7807,
      "åįĥç±³çļĦ": 7808,
      "çĤ¹çĤ¹å¤´è¯´": 7809,
      "è°ĪåĪ¤": 7810,
      "äºĮåįģå¤ļ": 7811,
      "åľĨçİ¯": 7812,
      "åľĨæ´ŀ": 7813,
      "åĬĽéĩıçļĦ": 7814,
      "èŀºæĹĭ": 7815,
      "çī©è´¨çļĦ": 7816,
      "çļĦä¿¡æģ¯çªĹåı£": 7817,
      "å±ıéļľ": 7818,
      "åĲ¦åĨ³": 7819,
      "çļĦèĥ¸": 7820,
      "çĿĢä¸ĢæĿ¡": 7821,
      "è®²è¯Ŀ": 7822,
      "åľŁèĳĹ": 7823,
      "å¤©æĸĩè§Ĥæµĭ": 7824,
      "è§īå¾Ĺèĩªå·±": 7825,
      "æ¸©åº¦": 7826,
      "çĲĨè§£çļĦ": 7827,
      "ä½¿çĶ¨çļĦ": 7828,
      "çĭ¬èĩª": 7829,
      "æķĪæŀľ": 7830,
      "éĽ¶æĺŁ": 7831,
      "æģ¢å¤įåĪ°": 7832,
      "å¼ķåĬĽæ³¢å®ĩå®Ļå¹¿æĴŃ": 7833,
      "ä¸»å¸ŃåħĪçĶŁ": 7834,
      "å³°é¡¶": 7835,
      "çĹħäºº": 7836,
      "ä»¥ä¸ºçĦ¶": 7837,
      "çľĭä¸įè§ģ": 7838,
      "æĪĲåĬŁçļĦ": 7839,
      "æĹģè¾¹çļĦ": 7840,
      "æľ¬æĿ¥å°±": 7841,
      "ä½ĻçĶŁ": 7842,
      "åŃ¤åĥ»": 7843,
      "éģĹä½ĵ": 7844,
      "éĽ¾ä¸Ń": 7845,
      "æİ©ä½ĵçºªåħĥ": 7846,
      "éĵģéĶ": 7847,
      "ç¼ĵç¼ĵåľ°": 7848,
      "ç¯ĩ": 7849,
      "ç¯Ŀçģ«": 7850,
      "é¢ĳæ®µ": 7851,
      "è½»è½»åľ°": 7852,
      "é½¿": 7853,
      "è§£éĩĬè¯´": 7854,
      "åĸ·åĩºçļĦ": 7855,
      "çļĦæķ°æį®": 7856,
      "åħ¬åħĥäºº": 7857,
      "åħ¬åħĥä¸ĸçºªçļĦ": 7858,
      "è´£ä»»å¿ĥ": 7859,
      "çļĦå·¨åŀĭ": 7860,
      "éĩĩéĽĨ": 7861,
      "çº·ä¹±": 7862,
      "ç©ºæ°Ķä¸Ń": 7863,
      "æ¶²ä½ĵ": 7864,
      "åıįå°ĦçĿĢ": 7865,
      "æĽ²çİĩå¼ķæĵİ": 7866,
      "èĪĴéĢĤçļĦ": 7867,
      "çĮľçĸĳéĵ¾": 7868,
      "åľ°ä¸ĭåŁİ": 7869,
      "æĬĺç£¨": 7870,
      "é¡¾éĹ®": 7871,
      "éĶģæŃ»": 7872,
      "æļĸåĴĮ": 7873,
      "éŀĭ": 7874,
      "åĲĳåīįèµ°": 7875,
      "ç²¾ç¡®åľ°": 7876,
      "ç´§å¼łåľ°": 7877,
      "èĮĥåĽ´åĨħ": 7878,
      "å¤¹åħĭ": 7879,
      "åįĥä¸ĩäºº": 7880,
      "ç»ĦåĲĪä½ĵ": 7881,
      "æ½ľä¼ı": 7882,
      "çļĦç¤¼": 7883,
      "çĽĳæµĭç³»ç»Ł": 7884,
      "å¯ĤéĿĻä¸Ń": 7885,
      "å¼ºçĥĪçļĦ": 7886,
      "æ¼Ĥäº®": 7887,
      "éķĩéĿĻ": 7888,
      "ç«¥å¹´": 7889,
      "æ±īè¯Ń": 7890,
      "æ²Ĳæµ´": 7891,
      "ä¼ªè£ħ": 7892,
      "çĪ¸çĪ¸": 7893,
      "èĪªç¨ĭä¸Ń": 7894,
      "ç´¯äºĨ": 7895,
      "çļĦæ´»": 7896,
      "çĶŁçī©åŃ¦": 7897,
      "èĢĥå¯ŁéĺŁ": 7898,
      "è¿½åĩ»èĪ°éĺŁ": 7899,
      "çĽĶçĶ²": 7900,
      "åı¬å¼Ģ": 7901,
      "åĩ¶æīĭ": 7902,
      "åŃĻåŃĲ": 7903,
      "æĭ¾èµ·": 7904,
      "æĬĳåĪ¶": 7905,
      "æµĳèº«": 7906,
      "å¼ºäºĴä½ľçĶ¨åĬĽå®ĩå®Ļæİ¢æµĭåĻ¨": 7907,
      "åĩĳè¿ĳ": 7908,
      "ç°¿": 7909,
      "çĨĬæĸĩ": 7910,
      "åĲĽå£«åĿ¦ä¸ģåł¡": 7911,
      "æİªæĸ½": 7912,
      "é¼łæłĩ": 7913,
      "çļĦæ³¨æĦıåĬĽ": 7914,
      "èµ¤éģĵ": 7915,
      "è¢Ńåĩ»": 7916,
      "éĽªåľ°å·¥ç¨ĭ": 7917,
      "è½¬è¿ĩèº«": 7918,
      "åĪ°çĽ®åīįä¸ºæŃ¢": 7919,
      "çļĦç¡®": 7920,
      "åı¯è¡ĮæĢ§": 7921,
      "çĻ½èī¾æĢĿ": 7922,
      "¡èĲĦ": 7923,
      "éĦĻ": 7924,
      "14": 7925,
      "58": 7926,
      "79": 7927,
      "IL": 7928,
      "©åºı": 7929,
      "ªæ°´": 7930,
      "¸èħ¾": 7931,
      "¼åĩ»": 7932,
      "çĩ": 7933,
      "èł": 7934,
      "ĠåĴĴè¯Ń": 7935,
      "Ġä¸Ńéĥ¨": 7936,
      "ĬåŃĲ": 7937,
      "ıæĤĶ": 7938,
      "çļĦåıªæľī": 7939,
      "çļĦä¸įåĲĮ": 7940,
      "çļĦçº¸": 7941,
      "çļĦåĨ°": 7942,
      "çļĦåŃ¦èĢħ": 7943,
      "çļĦæĿ¡ä»¶": 7944,
      "çļĦéľĩåĬ¨": 7945,
      "äºŃ": 7946,
      "æĺĤ": 7947,
      "ä¸Ģæĺ¯": 7948,
      "ä¸Ģä¸ĩ": 7949,
      "ä¸Ģåı£": 7950,
      "ä¸Ģåı¥è¯Ŀ": 7951,
      "ä¸Ģçŀ¬éĹ´": 7952,
      "ä¸Ģè·¯ä¸Ĭ": 7953,
      "æĺ¯è¢«": 7954,
      "æĺ¯åħ¨": 7955,
      "åľ¨ä¸¤": 7956,
      "åľ¨ç½Ĺè¾ĳ": 7957,
      "åľ¨æŃ¤": 7958,
      "åľ¨é»ĳæļĹä¸Ń": 7959,
      "äºĨè¿ĳ": 7960,
      "å®´": 7961,
      "è¿Ļä¸Ģä¸ª": 7962,
      "è¿Ļé¢ĹæģĴæĺŁ": 7963,
      "å°¤": 7964,
      "âĢľâĢĺ": 7965,
      "æľīäºĨä¸Ģä¸ª": 7966,
      "æľīæľºä¼ļ": 7967,
      "ä¸įä»¥ä¸ºçĦ¶": 7968,
      "äººå¿ĥ": 7969,
      "çľ¶": 7970,
      "ä»ĸåıª": 7971,
      "ä»ĸæīį": 7972,
      "ä»ĸçľĭçĿĢ": 7973,
      "ä»ĸæĺ¯ä¸ª": 7974,
      "åĪ°ä¸Ģä¸ª": 7975,
      "ä¸Ĭåįĥ": 7976,
      "å¥¢": 7977,
      "åĽĬ": 7978,
      "æĪĳå°±æĺ¯": 7979,
      "åĨł": 7980,
      "å¿ıæĤĶ": 7981,
      "å¤§åĿĹ": 7982,
      "å¤§èĩ´": 7983,
      "å¤§åĸĬ": 7984,
      "æĿ¥æī¾": 7985,
      "æ²¸èħ¾": 7986,
      "éĤ£ä¸įæĺ¯": 7987,
      "å¯ĤçļĦ": 7988,
      "çĿĢèĩªå·±": 7989,
      "è¯´çļĦæĺ¯": 7990,
      "åĩºä¹İ": 7991,
      "åĩºçīĪ": 7992,
      "çľĭåģļ": 7993,
      "çļĦæ¦": 7994,
      "çļĦæ¿Ģ": 7995,
      "åĴĶ": 7996,
      "èµĸ": 7997,
      "èµł": 7998,
      "è¡Ķ": 7999,
      "åĲİéĢĢ": 8000,
      "ä½łä»¥ä¸º": 8001,
      "ç§©åºı": 8002,
      "å°±æĬĬ": 8003,
      "åĴĮèģĶåĲĪåĽ½": 8004,
      "ä¸Ģä¸ªå¤§": 8005,
      "éĥ½ä¸įåı¯èĥ½": 8006,
      "å¯¹è¿ĻäºĽ": 8007,
      "å¯¹æµģ": 8008,
      "æ²¡åĬŀæ³ķ": 8009,
      "å¥¹æīį": 8010,
      "åĳķ": 8011,
      "è¿ĩä¸Ģ": 8012,
      "è¿ĩä¸Ģæ¬¡": 8013,
      "è¿ĩæĿ¥çļĦ": 8014,
      "ä½Ĩä½ł": 8015,
      "ä½Ĩæ±ªæ·¼": 8016,
      "ä½Ĩåı¶æĸĩæ´ģ": 8017,
      "ä½Ĩåį³ä½¿": 8018,
      "ä¸ĭéĻį": 8019,
      "å¿ĥä¸ŃçļĦ": 8020,
      "æİĺ": 8021,
      "çī§": 8022,
      "å£¤": 8023,
      "è¦ģçŁ¥éģĵ": 8024,
      "ä¼ļä¸Ĭ": 8025,
      "åħīçİ¯": 8026,
      "åīįè¾Ī": 8027,
      "æ°ı": 8028,
      "åĥıæĺ¯åľ¨": 8029,
      "å±¥": 8030,
      "å±Ī": 8031,
      "éģĵçĲĨ": 8032,
      "æł·ä¸ľè¥¿": 8033,
      "èµ·ä¼ı": 8034,
      "æĮ¨": 8035,
      "æĮĳ": 8036,
      "å°ıå®ĩå®Ļä¸Ń": 8037,
      "å®ĥå°±": 8038,
      "è¿ĺä¼ļ": 8039,
      "è¿ĺéľĢè¦ģ": 8040,
      "å¤ļä¹ħ": 8041,
      "å¼ĢæĶ¾": 8042,
      "æĸ¹ç¨ĭ": 8043,
      "ä»ĸä»¬è¯´": 8044,
      "çļĦèħ": 8045,
      "ä¸¤æĿ¡": 8046,
      "æĬĬè¿ĻäºĽ": 8047,
      "æĪĳä»¬å¯¹": 8048,
      "æĪĳä»¬ä¸įçŁ¥éģĵ": 8049,
      "ç¨ĭå¿ĥæ³¨æĦıåĪ°": 8050,
      "å¦Ħ": 8051,
      "ä¸İä½ł": 8052,
      "æĽ³": 8053,
      "ç³»åĪĹ": 8054,
      "æ¸¡": 8055,
      "å¹´çºª": 8056,
      "è¿Ļä¸ªä¸ĸçķĮçļĦ": 8057,
      "æľºåľº": 8058,
      "çĤ¹åĩ»": 8059,
      "å®ŀè¯Ŀ": 8060,
      "ä¹ĭåĨħ": 8061,
      "çİ°åľ¨å°±": 8062,
      "çİ°åľ¨æĪĳä»¬": 8063,
      "æĹłåĬ©": 8064,
      "æĹłç©·": 8065,
      "ç½Ĺè¾ĳæĬĬ": 8066,
      "ç»´ä¿®": 8067,
      "ç±»æ¯Ķ": 8068,
      "è·ª": 8069,
      "çļĦç¦": 8070,
      "åħ¨æĸ°çļĦ": 8071,
      "ä½¿äººç±»": 8072,
      "åıĺå½¢çļĦ": 8073,
      "äºĮä½į": 8074,
      "çľĭåĪ°çļĦæĺ¯": 8075,
      "ä¸»åĬĽ": 8076,
      "ä¸»æľº": 8077,
      "å§ĳ": 8078,
      "è¿ľäºĽ": 8079,
      "è¿ľèĪª": 8080,
      "çĽ¸æĴŀ": 8081,
      "æĦŁæĥħ": 8082,
      "å£°ç§°": 8083,
      "äºĨä¸Ģå±Ĥ": 8084,
      "çļĦä¸Ģä¾§": 8085,
      "æİ¥å¾ħ": 8086,
      "å®ĩå®ĻåŃ¦": 8087,
      "çļĦäººåı£": 8088,
      "éĩįè§Ĩ": 8089,
      "åıĪæĺ¯": 8090,
      "åıĪåĩºçİ°äºĨ": 8091,
      "æ°´éĿ¢": 8092,
      "åĨįå¾Ģ": 8093,
      "çĥ¬": 8094,
      "åħ¬åħ±": 8095,
      "å®ĮåĸĦ": 8096,
      "åģļæĪĲ": 8097,
      "åģļæ³ķ": 8098,
      "åĽĽåįģå¤ļ": 8099,
      "å°ĦåĪ°": 8100,
      "åĨĽäººçļĦ": 8101,
      "æĽ´åĥı": 8102,
      "æĽ´æ·±": 8103,
      "åºĶçĶ¨": 8104,
      "å·¥åİĤ": 8105,
      "è¿Ļæĺ¯ä»Ģä¹Ī": 8106,
      "ä½łä»¬éĤ£æĹ¶": 8107,
      "å¼ºåĪ¶": 8108,
      "æħĪ": 8109,
      "å¦Ĥæŀľåľ¨": 8110,
      "å¦Ĥæŀľä¸į": 8111,
      "å¦ĤæŀľæĪĳ": 8112,
      "ç¥Ŀ": 8113,
      "äºĳæµ·": 8114,
      "ç»Łä¸Ģ": 8115,
      "æ´»ä¸ĭåİ»": 8116,
      "è§ģåĪ°äºĨ": 8117,
      "å¼Ģå§ĭåĩıéĢŁ": 8118,
      "çİĭåĲİ": 8119,
      "è½»å£°è¯´": 8120,
      "ç¬ĳå£°": 8121,
      "ç¬ĳäºĨèµ·æĿ¥": 8122,
      "æį§": 8123,
      "ç»Ļäºº": 8124,
      "ä¹İä¹İ": 8125,
      "ç©¿ä¸Ĭ": 8126,
      "æľīä¸ĢåįĬ": 8127,
      "è§ĤçĤ¹": 8128,
      "èĢģäºĨ": 8129,
      "åıĳçİ°å®ĥ": 8130,
      "å¾®åŀĭ": 8131,
      "ä½İæ²ī": 8132,
      "æĹ¥åĩĮ": 8133,
      "æĹ¥çĽĬ": 8134,
      "å¨ĩ": 8135,
      "æ¡©": 8136,
      "å±ĤçļĦ": 8137,
      "é¢ĹæĺŁæĺŁ": 8138,
      "å¤ªéĺ³ç³»ä¸Ń": 8139,
      "å¤ªéĺ³ç³»é¢ĦèŃ¦ç³»ç»Ł": 8140,
      "åķª": 8141,
      "çĭł": 8142,
      "èį·": 8143,
      "äº§åĵģ": 8144,
      "éĿ¢å£ģæ³ķæ¡Ī": 8145,
      "ç§»åĪ°": 8146,
      "çħ§çģ¯": 8147,
      "åĽłä¸ºåľ¨": 8148,
      "ä¿Ŀå¯Ĩ": 8149,
      "é¦ĸéĥ½": 8150,
      "åį«åĨĽ": 8151,
      "åįķçº¯": 8152,
      "æī¾åĩº": 8153,
      "æŀģæĿĥ": 8154,
      "åıĹåĪ°äºĨ": 8155,
      "æĺ¯ä¸Ģä½į": 8156,
      "åıĳå°Ħä½ĵ": 8157,
      "åıĳå°Ħç³»ç»Ł": 8158,
      "æł¸çģ«çĲĥ": 8159,
      "æ³¢åĬ¨": 8160,
      "æĢİä¹ĪäºĨ": 8161,
      "å±±èĦī": 8162,
      "æģĴå®ļ": 8163,
      "èĩªå·±çļĦçĶŁåĳ½": 8164,
      "å¨ģçº³å°Ķ": 8165,
      "åı«å£°": 8166,
      "æŀĦåŀĭ": 8167,
      "å·¥ä½ľäºĨ": 8168,
      "æĦŁè§īä¸įåĪ°": 8169,
      "æ¶Īå¤±åĲİ": 8170,
      "å®Įåħ¨æ¶Īå¤±äºĨ": 8171,
      "æĮīä¸ĭ": 8172,
      "è¿Ļä¹Īå¿«": 8173,
      "åŁİå¸ĤéĩĮ": 8174,
      "åıĳåĩºçļĦåħī": 8175,
      "æĺ¾ç¤ºåĻ¨": 8176,
      "çł´åı£": 8177,
      "çļĦåľ°ä¸ĭ": 8178,
      "çļĦåľ°å±Ĥ": 8179,
      "è¯·æĤ¨": 8180,
      "éĻ¤éĿŀ": 8181,
      "èŃ¦æĪĴ": 8182,
      "æģĴæĺŁåŀĭæ°¢å¼¹": 8183,
      "å¤§åı²è¯´": 8184,
      "çŃĶæ¡Ī": 8185,
      "ç¤¾ä¼ļçļĦ": 8186,
      "ä¸įèĥ½åĨį": 8187,
      "ç¬¬ä¸Ģæī¹": 8188,
      "åıĮçľ¼çĿĽ": 8189,
      "çļĦæĢª": 8190,
      "éļĲå½¢": 8191,
      "éĢģåĪ°": 8192,
      "èģļä¼ļ": 8193,
      "åĨµä¸Ķ": 8194,
      "åĺ²": 8195,
      "ä¸¥å¯Ĩ": 8196,
      "éĢĥéģ¿": 8197,
      "åºķçº¿": 8198,
      "ä¼¼ä¹İåľ¨": 8199,
      "åĨ²åĩº": 8200,
      "æķĻçļĩ": 8201,
      "æķĻåłĤ": 8202,
      "æĪĺèĪ°çļĦ": 8203,
      "çļĦåħīæĻķ": 8204,
      "ä¸ĢåĪĩçļĦ": 8205,
      "é»ĳæļĹæ£®æŀĹçĲĨè®º": 8206,
      "é¢Ħè®¡": 8207,
      "é¢Ħè¨Ģ": 8208,
      "çĶ·æĢ§": 8209,
      "çŀª": 8210,
      "å·®çĤ¹": 8211,
      "æ´¾åĩº": 8212,
      "æĭ¥æĮ¤": 8213,
      "å¸Įæģ©æĸ¯åĴĮ": 8214,
      "ä»ĬåĲİ": 8215,
      "çĿ¡çĿĢäºĨ": 8216,
      "å»ºç«ĭä¸Ģä¸ª": 8217,
      "çĥŃæ³ª": 8218,
      "æĢ¥ä¿ĥ": 8219,
      "çļĦæĦŁæĥħ": 8220,
      "ä¸¾è¡Į": 8221,
      "åºĬå¤´": 8222,
      "çļĦè´Ł": 8223,
      "æĪĺçķ¥çłĶç©¶": 8224,
      "èĦ¸èī²": 8225,
      "åľŁåľ°": 8226,
      "å½¢æĪĲäºĨä¸Ģ": 8227,
      "å»ºçŃĳçī©": 8228,
      "çļĦæĢĿç»ª": 8229,
      "æĳĨæĳĨ": 8230,
      "åĨĽå®ĺä»¬": 8231,
      "ä¼¸åĲĳ": 8232,
      "æī©å±ķ": 8233,
      "å®ĮæĪĲåĲİ": 8234,
      "è¿·å®«": 8235,
      "éĻĨåľ°": 8236,
      "å¼ķåĬĽæ³¢å¤©çº¿": 8237,
      "ä½łæĺ¯ä¸įæĺ¯": 8238,
      "ç¼©å°ı": 8239,
      "çļĦæĶ¾": 8240,
      "åºĦé¢ľåĴĮåŃ©åŃĲ": 8241,
      "çĹħæ¯Ĵ": 8242,
      "ä¾Ŀæį®": 8243,
      "çļĦæľĢç»Ī": 8244,
      "æĸĹç¯·": 8245,
      "éĺ´åĨ·": 8246,
      "ç©¿æ¢ŃæľºçļĦ": 8247,
      "æľīä»Ģä¹Īåħ³ç³»": 8248,
      "ä½ıäºĨä»ĸ": 8249,
      "å¤±è´¥äºĨ": 8250,
      "ä¸įçŁ¥è¿ĩäºĨ": 8251,
      "çļ®èĤ¤": 8252,
      "æ¾³å¤§åĪ©äºļçļĦ": 8253,
      "ä»Ĭå¤©çļĦ": 8254,
      "çļĦè·Ŀç¦»ä¸Ĭ": 8255,
      "ç«Ļåľ¨éĤ£éĩĮ": 8256,
      "ç²Ĺå£®": 8257,
      "çľĭä¸įåĪ°çļĦ": 8258,
      "çľ¼åīįçļĦ": 8259,
      "çĽĳåĲ¬ç³»ç»Ł": 8260,
      "ä¼ļåľºä¸Ĭ": 8261,
      "ä»°å¤´": 8262,
      "ä»°æľĽçĿĢ": 8263,
      "èļĤèļģ": 8264,
      "é£Łçī©": 8265,
      "åįİä¸½": 8266,
      "ç¬Ķè®°": 8267,
      "ç¤¼è²Į": 8268,
      "ä¸Ģé¢ĹæĺŁæĺŁ": 8269,
      "æī§åīĳäººçļĦ": 8270,
      "æĹłéĻĲè¾¹çĸĨ": 8271,
      "é¼»": 8272,
      "é¼İ": 8273,
      "å©ļ": 8274,
      "è¾Ĩè½¦": 8275,
      "æķ°æį®åºĵ": 8276,
      "æľĢåĪĿçļĦ": 8277,
      "ç¾İåĽ½ä»£è¡¨": 8278,
      "è¡¨çİ°åĩº": 8279,
      "çĶ³è¯·": 8280,
      "çĻ»å½ķ": 8281,
      "äºļæ´²ä¸Ģåı·": 8282,
      "çĳŁ": 8283,
      "é²ģ": 8284,
      "æķ°éĩıçº§": 8285,
      "äººç¾¤ä¸Ń": 8286,
      "åħ´å¥ĭèµ·æĿ¥": 8287,
      "ä»ĭç»įè¯´": 8288,
      "èĢĢçľ¼": 8289,
      "ä¸įåĬ¨å£°èī²": 8290,
      "åĳĨåĳĨ": 8291,
      "èµ«å°Ķè¾Ľæł¹é»ĺæĸ¯èĤ¯é¦ĻçļĤ": 8292,
      "èĪŀè¹": 8293,
      "æĺ¯å¯¹çļĦ": 8294,
      "çŁ¥è¯ĨåĪĨåŃĲ": 8295,
      "åºŀå¤§": 8296,
      "é¥ķé¤®æµ·": 8297,
      "çļĦç©ºéĹ´ä¸Ń": 8298,
      "æľĢåĲİä¸Ģåı¥è¯Ŀ": 8299,
      "åĵĪåĵĪåĵĪåĵĪ": 8300,
      "ä¸ĸçķĮä¸ĬæľĢ": 8301,
      "åĨ·éĿĻä¸ĭæĿ¥": 8302,
      "æ¸¯åı£": 8303,
      "ä¸Ŀæ¯«æ²¡æľī": 8304,
      "å¾Īé«ĺåħ´": 8305,
      "çħ§äº®äºĨ": 8306,
      "çļĦæ¬§": 8307,
      "å±ĭéĩĮ": 8308,
      "åĲĮæŃ¥è½¨éģĵä¸Ĭ": 8309,
      "ä¸Ľä¸Ń": 8310,
      "æľīå¤ļå¤§": 8311,
      "çļĦæŃ»äº¡": 8312,
      "åħ¶ä½Ļéĥ¨åĪĨ": 8313,
      "å¹¿åľºä¸Ĭ": 8314,
      "çļĦæļ´": 8315,
      "åĮĢéĢŁ": 8316,
      "å¿įåıĹ": 8317,
      "çļĦæ¢¦æĥ³": 8318,
      "æľºæ¢°èĩĤ": 8319,
      "åľ¨è¿Ļç§įæĥħåĨµä¸ĭ": 8320,
      "åħīéĢŁçļĦçĻ¾åĪĨä¹ĭä¸Ģ": 8321,
      "çĿģå¼Ģ": 8322,
      "éĻªåĲĮ": 8323,
      "ä»ĸå¦ĪçļĦ": 8324,
      "æİıåĩº": 8325,
      "éĢ¼è¿ĳ": 8326,
      "æ¸ħæĻ°åľ°çľĭåĪ°": 8327,
      "å°ıå¿ĥç¿¼ç¿¼åľ°": 8328,
      "2000": 8329,
      "çº¤ç»Ĩ": 8330,
      "ç«¹æŀĹ": 8331,
      "å¼§å½¢": 8332,
      "çļĦè£ħ": 8333,
      "ä¸»æµģéĺ²å¾¡": 8334,
      "éĶĢæ¯ģ": 8335,
      "åĪ·åŃĲ": 8336,
      "æĺ¯æĢİä¹ĪåĽŀäºĭ": 8337,
      "çļĦèģĮè´£": 8338,
      "å®¿èĪį": 8339,
      "èİ«æ²ĥç»´å¥ĩåĴĮåħ³ä¸Ģå¸Ĩ": 8340,
      "åº§ä½įä¸Ĭ": 8341,
      "å®½éĺĶçļĦ": 8342,
      "çļĦçĮľ": 8343,
      "æĬļæĳ¸": 8344,
      "éªļåĬ¨": 8345,
      "çļĦç®¡éģĵ": 8346,
      "èĤ¥çļĤæ³¡": 8347,
      "ä¸ĢåĬ¨ä¸įåĬ¨": 8348,
      "æĭ¼åĳ½": 8349,
      "ä½İçĨµä½ĵ": 8350,
      "å®īéĿĻä¸ĭæĿ¥": 8351,
      "æłıæĿĨ": 8352,
      "èĢ½è¯¯": 8353,
      "èµĭäºĪ": 8354,
      "å¸Ĳç¯·": 8355,
      "å¥¥æĸ¯æĽ¼": 8356,
      "çī¹åĪ«èģĶå¤§": 8357,
      "åį¢æµ®": 8358,
      "æł¼æľĹæĹ¥çĤ¹": 8359,
      "èĪŀè¹Ī": 8360,
      "15": 8361,
      "ER": 8362,
      "KIL": 8363,
      "LER": 8364,
      "NMD": 8365,
      "¤çģ«": 8366,
      "¹æ¶Į": 8367,
      "çļĦåĴĮ": 8368,
      "çļĦå¥½": 8369,
      "çļĦå°±æĺ¯": 8370,
      "çļĦåĨĽ": 8371,
      "çļĦåĩºçİ°": 8372,
      "çļĦè½¬": 8373,
      "çļĦä»»ä½ķ": 8374,
      "çļĦçģ¯": 8375,
      "çļĦçĲĨè®º": 8376,
      "çļĦåħ³ç³»": 8377,
      "çļĦåĪĨæŀĲ": 8378,
      "çļĦåĮºåŁŁ": 8379,
      "çļĦçģ¯åħī": 8380,
      "çļĦæł¸å¿ĥ": 8381,
      "ãĢĤ)": 8382,
      "ä¸ĢéĿ¢": 8383,
      "ä¸Ģè§Ĵ": 8384,
      "ä¸ĢæİĴ": 8385,
      "ä¸Ģè½®": 8386,
      "ä¸ĢåłĨ": 8387,
      "æĺ¯å¦Ĥä½ķ": 8388,
      "åĲ»": 8389,
      "äºĨèĩªå·±": 8390,
      "å®¾": 8391,
      "è¿Ļå¹ħ": 8392,
      "è¿Ļç¡®å®ŀ": 8393,
      "æľīè¿Ļç§į": 8394,
      "ä¸įçĿĢ": 8395,
      "ä¸įä¿¡": 8396,
      "ä¸įå¿ħ": 8397,
      "ä¸įå®¹æĺĵ": 8398,
      "äººæµ·": 8399,
      "å¾½": 8400,
      "ä»ĸè®¤ä¸º": 8401,
      "ä»ĸæĽ¾": 8402,
      "ä»ĸçļĦèº«ä½ĵ": 8403,
      "åĪ°å¥¹": 8404,
      "åĪ°æĹ¶åĢĻ": 8405,
      "ä¸ŃåŃĲ": 8406,
      "ä¸Ńå£«": 8407,
      "åį§": 8408,
      "åį¸": 8409,
      "ä¸Ĭä¸Ģä¸ª": 8410,
      "å¥ĸ": 8411,
      "æĪĳåĴĮ": 8412,
      "æĪĳåıª": 8413,
      "æĪĳä¹Łä¸į": 8414,
      "æĪĳåĳĬè¯īä½ł": 8415,
      "çİ²": 8416,
      "åľ°è´¨": 8417,
      "åľ°çĽ¯çĿĢ": 8418,
      "æĹ¶çİ°": 8419,
      "æĹ¶éļĲ": 8420,
      "å¤§å£°": 8421,
      "éĤ£ä»ĸä»¬": 8422,
      "éĤ£åĽ¢": 8423,
      "éĹ·": 8424,
      "æł©": 8425,
      "åĩºåİ»äºĨ": 8426,
      "çľĭåĩºäºĨ": 8427,
      "èĢķ": 8428,
      "åĴ§": 8429,
      "åĴķ": 8430,
      "åĲİè¯´": 8431,
      "ç§Ł": 8432,
      "éĿ¢åŃĶ": 8433,
      "ä¸Ģä¸ªä¸ĸçºª": 8434,
      "è¾©": 8435,
      "åºĨ": 8436,
      "çº²": 8437,
      "çİ°åĩº": 8438,
      "æŃī": 8439,
      "æŃ¼åĩ»": 8440,
      "åı¯ä½ł": 8441,
      "æ²¡äºĭ": 8442,
      "æ²¡å¿ħè¦ģ": 8443,
      "å¥¹æĬĬ": 8444,
      "ä¹Łä¸Ģæł·": 8445,
      "ä¹Łéĥ½æĺ¯": 8446,
      "æĺŁä½ĵ": 8447,
      "åĳĹ": 8448,
      "åĳľ": 8449,
      "åīĬ": 8450,
      "è¿ĩæ»¤": 8451,
      "ä½Ĩå®ĥ": 8452,
      "ä½Ĩå·²ç»ı": 8453,
      "ä½ĨåıĪ": 8454,
      "ä½Ĩè¿ĻäºĽ": 8455,
      "ä½Ĩå®ĥä»¬": 8456,
      "ä½ĨåĲİæĿ¥": 8457,
      "ä½ĨéļıçĿĢ": 8458,
      "éģı": 8459,
      "ä¸ºä¸Ģä¸ª": 8460,
      "ä»¥å¾Ģ": 8461,
      "ä¸īåĪĨä¹ĭä¸Ģ": 8462,
      "çīµ": 8463,
      "ä½ĵä¼ļ": 8464,
      "èĩªè¡Į": 8465,
      "åıªå°ı": 8466,
      "è¦ģä¸į": 8467,
      "è¦ģè¯´": 8468,
      "è¦ģåģļ": 8469,
      "ä¼ļä½¿": 8470,
      "åħīéĶ¥": 8471,
      "æĪĲä¸Ģçīĩ": 8472,
      "åīįæīĢæľª": 8473,
      "æ°¦": 8474,
      "æ°Ľ": 8475,
      "åĥıä»ĸ": 8476,
      "åĥıä»İ": 8477,
      "éģĵä¸Ĭ": 8478,
      "åİ»è¿ĩ": 8479,
      "åİ»å¹´": 8480,
      "å°ıå¤ªéĺ³": 8481,
      "å°ıçīĩ": 8482,
      "å®ĥæīĢ": 8483,
      "æľĢæľī": 8484,
      "æľĢå¿«": 8485,
      "è¿ĺç»Ļ": 8486,
      "å¾ĹæĹłå½±æĹłè¸ª": 8487,
      "é¢Ī": 8488,
      "åĲĳä»ĸä»¬": 8489,
      "åĬ¨èĥ½": 8490,
      "ä»ĸä»¬å°±": 8491,
      "éĥŃ": 8492,
      "çļĦèŀ": 8493,
      "ä¸¤å¹´": 8494,
      "ä¸¤çĻ¾": 8495,
      "éĥ¨ä¸»ä»»": 8496,
      "è¢ħ": 8497,
      "åĪĨç¦»": 8498,
      "åĪĨæĶ¯": 8499,
      "åĪĨè£Ĥ": 8500,
      "æĪĳä»¬åİ»": 8501,
      "éķ¿å¤§": 8502,
      "éķ¿åº¦": 8503,
      "åįģä¸ª": 8504,
      "åįģåħ«": 8505,
      "çĶ¨å®ĥ": 8506,
      "çĶ¨èĤīçľ¼": 8507,
      "éĺ³éĿ¢": 8508,
      "å¦Ĵ": 8509,
      "ä¸İå®ĥ": 8510,
      "ä¸İä»ĸä»¬": 8511,
      "ä¸İæĪĳä»¬": 8512,
      "é£ŀè¶Ĭ": 8513,
      "é£ŀæķ£": 8514,
      "åı·é£ŀèĪ¹": 8515,
      "èĪ°éķ¿çļĦ": 8516,
      "è¿Ļä¸ªè®¡åĪĴ": 8517,
      "è¿Ļä¸ªæĥ³æ³ķ": 8518,
      "å¥½å¤ļ": 8519,
      "å¥½åįĬå¤©æīį": 8520,
      "ç½Ĺè¾ĳåıĪ": 8521,
      "å¤ĸè¡¨": 8522,
      "èĢĮåľ¨": 8523,
      "èĢĮçŁ¥": 8524,
      "èĢĮæĿ¥çļĦ": 8525,
      "æ±¹æ¶Į": 8526,
      "åĩłæł¹": 8527,
      "åĵĳ": 8528,
      "çŁ¥éģĵèĩªå·±": 8529,
      "è°ħ": 8530,
      "çĽ®çļĦæĺ¯": 8531,
      "ä¸»æİ§": 8532,
      "éĺŁå½¢": 8533,
      "çĽ¸è¯Ĩ": 8534,
      "äºĨä¸Ģæ®µ": 8535,
      "äºĨä¸Ģåı¥": 8536,
      "èµ°ä¸ĭ": 8537,
      "èµ°åĪ°äºĨ": 8538,
      "èµ°åĩºäºĨ": 8539,
      "èµ°è·¯": 8540,
      "æµ·éĩĮ": 8541,
      "å°ĨæĪĲä¸º": 8542,
      "åľ°çĲĥåĽ½éĻħ": 8543,
      "å®ĩå®ĻèĥĮæĻ¯è¾Ĳå°Ħ": 8544,
      "å»ĵ": 8545,
      "èº«çĿĢ": 8546,
      "èº«åĲİçļĦ": 8547,
      "é«ĺè¾¹çĸĨ": 8548,
      "åĨįçľĭçľĭ": 8549,
      "ä»£ä¹ĭ": 8550,
      "æļĤçļĦ": 8551,
      "æĹ¶éĹ´çļĦ": 8552,
      "ä¸įæĺ¯åĲĹ": 8553,
      "ä¸įæĺ¯éĤ£ä¹Ī": 8554,
      "åħ¬å¹³": 8555,
      "åģļè¿ĩ": 8556,
      "åĽĽå¹´": 8557,
      "å°Ħåħ¥": 8558,
      "å°Ħåĩ»": 8559,
      "åĨĽè¡Ķ": 8560,
      "å¿«äºĽ": 8561,
      "å®¶ä¼Ļ": 8562,
      "æĽ´æľī": 8563,
      "å¹³æ»ĳ": 8564,
      "ç¦»åŃĲ": 8565,
      "ç¦»å¥ĩ": 8566,
      "åĬłå¼º": 8567,
      "å¹¶ä¸įèĥ½": 8568,
      "æĤ¨çŁ¥éģĵ": 8569,
      "èĤļ": 8570,
      "æĮĩæľĽ": 8571,
      "ä¸ĩå¤ļ": 8572,
      "ç²¼": 8573,
      "åŁİéĩĮ": 8574,
      "äºĶå¤©": 8575,
      "äºĶçĻ¾ä¸ĩ": 8576,
      "èĪ°éĺŁä¸Ń": 8577,
      "éĤ£ä¸ªä¸ĸçķĮ": 8578,
      "éĤ£ä¸ªéģ¥è¿ľ": 8579,
      "çº¿æĿ¡": 8580,
      "å¦ĤæŀľæĬĬ": 8581,
      "è§£æŀĲ": 8582,
      "åĪ¶çļĦ": 8583,
      "åĸĺ": 8584,
      "è¿ĻéĩĮéĿ¢": 8585,
      "éĵŃ": 8586,
      "åı£ä»¤": 8587,
      "è½»å£°": 8588,
      "è½»å¾®": 8589,
      "è½»èĶ": 8590,
      "æįŀ": 8591,
      "ä»įå¤Ħäºİ": 8592,
      "å¸¦æĿ¥äºĨ": 8593,
      "æľīä¸Ģæ¬¡": 8594,
      "æľīä¸ĢæĿ¡": 8595,
      "çģ«çĤ¬": 8596,
      "åıĳçİ°çļĦ": 8597,
      "çĬ¶çī©": 8598,
      "åıįäººç±»": 8599,
      "æīĢæľīäººçļĦ": 8600,
      "ä½İæ¸©": 8601,
      "æĹ¥èĲ½": 8602,
      "éļ¾åº¦": 8603,
      "ç®Ĺæĺ¯": 8604,
      "ç®Ĺæ³ķ": 8605,
      "è®¸ä¹ħ": 8606,
      "æ¯ıæł¹": 8607,
      "æ¡£": 8608,
      "æ¡ĥ": 8609,
      "æ°Ķåİĭ": 8610,
      "é©»": 8611,
      "å¥³å£«": 8612,
      "ä¹īè¯į": 8613,
      "åķ¸": 8614,
      "çĭĤçļĦ": 8615,
      "åĪ»åľ¨": 8616,
      "æµģæµª": 8617,
      "ç«Ļåľ¨ä¸Ģ": 8618,
      "åĿĲä¸ĭæĿ¥": 8619,
      "å¸Ĥåľº": 8620,
      "æıĲåĪ°": 8621,
      "å¼¹æĺŁ": 8622,
      "çħ§çĿĢ": 8623,
      "éĢıè§Ĩ": 8624,
      "ç»Ĩèı": 8625,
      "æĶ¿çŃĸ": 8626,
      "è¿Ļä¸Ģå¤©": 8627,
      "åıĹè¯ķ": 8628,
      "åıĳå°Ħæ¸¯": 8629,
      "ç»Ŀå¤§éĥ¨åĪĨ": 8630,
      "æŀĦåĽ¾": 8631,
      "æĶ¶èĹı": 8632,
      "çľŁçļĦåŃĺåľ¨": 8633,
      "ç§ĳåŃ¦åĴĮ": 8634,
      "å®Įåħ¨æ²¡æľī": 8635,
      "å¥ĩè¿¹": 8636,
      "ç²¾èĭ±": 8637,
      "äº¤å¾Ģ": 8638,
      "è¿Ļä¹Īéķ¿æĹ¶éĹ´": 8639,
      "è£ħé¥°": 8640,
      "æĺ¾ç¤ºçªĹåı£": 8641,
      "çªĹå¸ĺ": 8642,
      "ä¼łè¾ĵ": 8643,
      "äºĮç»´ç©ºéĹ´": 8644,
      "äºĮç»´å±ķå¼Ģ": 8645,
      "çŁŃæļĤçļĦ": 8646,
      "æ»¡æĦı": 8647,
      "åıĳçĶŁä»Ģä¹Ī": 8648,
      "å¸ĥç½®": 8649,
      "çļĦæķĪ": 8650,
      "çĽ®æłĩæĺ¯": 8651,
      "ç¤¾ä¼ļä¸Ĭ": 8652,
      "ä»ħåĩŃ": 8653,
      "äº²çľ¼": 8654,
      "æ²³æµģ": 8655,
      "æķ£èĲ½": 8656,
      "ä¸įä¼ļæľī": 8657,
      "ä¸ģèĢģ": 8658,
      "éĹªéĹª": 8659,
      "é¢ĨçĿĢ": 8660,
      "åħ«çĻ¾": 8661,
      "ä¼¼ä¹İæĺ¯": 8662,
      "åĨ²çªģ": 8663,
      "ä¼ļè®®å®¤": 8664,
      "åĵįèµ·äºĨ": 8665,
      "çļĦåħīäº®": 8666,
      "æĪĳçļĦä¸»": 8667,
      "çļĦæĬĺ": 8668,
      "é»ĳæļĹæ£®æŀĹçĬ¶æĢģ": 8669,
      "æĿĢäºº": 8670,
      "åĩıè½»": 8671,
      "å¾Ģå¸¸": 8672,
      "å¾Ģå¾Ģ": 8673,
      "åİĭåĢĴ": 8674,
      "éĽ·è¿ªäºļåħ¹è¯´": 8675,
      "æİ§åĪ¶å®¤": 8676,
      "ç«Łæĺ¯": 8677,
      "è°Īè°Ī": 8678,
      "åŁºåľ°çļĦ": 8679,
      "æ¸Ĳæ¸Ĳåľ°": 8680,
      "æľ¨æĺŁè½¨éģĵ": 8681,
      "è½®å»ĵ": 8682,
      "ä¹Łè®¸èĥ½": 8683,
      "æĢªå¼ĤçļĦ": 8684,
      "çĶŁåŃĺçļĦ": 8685,
      "å²ģçļĦ": 8686,
      "å°ģä¿¡": 8687,
      "åĪ°è¾¾äºĨ": 8688,
      "å¤§éĥ¨åĪĨæĹ¶éĹ´": 8689,
      "èĦ¸ä¸ĬçļĦ": 8690,
      "æĪĳæĺ¯è¯´": 8691,
      "æľĿéĺ³": 8692,
      "å½¢æĪĲä¸Ģä¸ª": 8693,
      "èħ¹": 8694,
      "çİ°å®ŀä¸ĸçķĮ": 8695,
      "åı³æīĭ": 8696,
      "æĳĨéĶ¤": 8697,
      "åĨĽå®ĺè¯´": 8698,
      "å±ĢåĬ¿": 8699,
      "å´Ń": 8700,
      "åı¦ä¸Ģä¸ªä¸ĸçķĮ": 8701,
      "åı¦ä¸Ģä¸ªæĸ¹åĲĳ": 8702,
      "çĲĨè§£äºĨ": 8703,
      "æı¡çĿĢ": 8704,
      "èĭıèģĶ": 8705,
      "å¹´è½»çļĦ": 8706,
      "ä¸»å¸Ńè¯´": 8707,
      "è´Łè´£ä»»": 8708,
      "éĽ¨ä¸Ń": 8709,
      "çİ¯å¢ĥä¸Ń": 8710,
      "æŃ£å¸¸çļĦ": 8711,
      "ä¸įç®¡æĺ¯": 8712,
      "æµªæ¼«": 8713,
      "èĩ³å°ĳåľ¨": 8714,
      "è¯¯å·®": 8715,
      "é¡¿æĹ¶": 8716,
      "çģ°å°ĺ": 8717,
      "æĪĲåĬŁäºĨ": 8718,
      "æĬ½è±¡": 8719,
      "éļĶçĿĢ": 8720,
      "æī¹åĪ¤": 8721,
      "æīĶä¸ĭ": 8722,
      "çĪ¶äº²çļĦ": 8723,
      "åĤ²": 8724,
      "ç½ªè¡Į": 8725,
      "æģ¶å¿ĥ": 8726,
      "çļĦæŃ¥": 8727,
      "åĸ·åıĳ": 8728,
      "åįİåĮĹ": 8729,
      "éº»éº»": 8730,
      "åľ£ç»ı": 8731,
      "ä¿®æŃ£": 8732,
      "ä¸ľæĸ¹å»¶ç»ªè¯´": 8733,
      "æĳĦå½±": 8734,
      "å²Ľä¸Ĭ": 8735,
      "å½ĴéĽ¶": 8736,
      "åĢŁçĿĢ": 8737,
      "çĶ°éĩİ": 8738,
      "èĽ®": 8739,
      "æĶ¿æ²»å®¶": 8740,
      "çļĦæģĴçºªåħĥ": 8741,
      "ä»Ģä¹Īéĥ½ä¸įçŁ¥éģĵ": 8742,
      "èĮ«èĮ«": 8743,
      "å®ŀçİ°äºĨ": 8744,
      "éĺ¶æ¢¯é£ŀè¡ĮåĻ¨": 8745,
      "èĢĹå°½": 8746,
      "æī«äºĨä¸Ģçľ¼": 8747,
      "è´µçļĦ": 8748,
      "è·Įåħ¥": 8749,
      "éļĲèĹıåľ¨": 8750,
      "ä¸īé¢Ĺé£ŀæĺŁ": 8751,
      "æļ´éľ²åľ¨": 8752,
      "æŃ»äº¡ä¹ĭ": 8753,
      "æĺŁèĪ°åľ°çĲĥçļĦ": 8754,
      "çļĦæ°Ķæģ¯": 8755,
      "éĢĶä¸Ń": 8756,
      "çļĦç¼ĺ": 8757,
      "çļĦæģĲæĢĸ": 8758,
      "æ±½è½¦": 8759,
      "éķĩå®ļ": 8760,
      "åħ¨æģ¯åĽ¾åĥı": 8761,
      "å¿§èĻĳ": 8762,
      "å¿§éĥģ": 8763,
      "åĽŀå¤´çľĭ": 8764,
      "çļĦèĮ¶": 8765,
      "é»ĳåŁŁè®¡åĪĴ": 8766,
      "èĤ©ä¸Ĭ": 8767,
      "ç¾¤æĺŁè®¡åĪĴ": 8768,
      "çļĦèĭı": 8769,
      "è¯¢éĹ®": 8770,
      "çļĦæ¬¢": 8771,
      "ä½İåħīéĢŁé»ĳæ´ŀ": 8772,
      "å®īä¹ĲæŃ»": 8773,
      "æ¡Ĩæŀ¶": 8774,
      "çļĦè·¯ä¸Ĭ": 8775,
      "çĬ¹è±«åľ°": 8776,
      "çĬ¹è±«äºĨä¸Ģä¸ĭ": 8777,
      "éģ®æĮ¡": 8778,
      "ç©¿éĢıäºĨ": 8779,
      "å°ºåº¦ä¸Ĭ": 8780,
      "æīŃæĽ²": 8781,
      "åŀĤçĽ´": 8782,
      "æ·¹æ²¡äºĨ": 8783,
      "çļĦæ£Ģ": 8784,
      "æľ¬è´¨ä¸Ĭ": 8785,
      "æĤ¬æµ®äºİ": 8786,
      "å¿łäºİ": 8787,
      "çļĦæµģéĢĿ": 8788,
      "å¦¹å¦¹": 8789,
      "====": 8790,
      "çľ©æĻķ": 8791,
      "çļĦæķ°åŃ¦æ¨¡åŀĭ": 8792,
      "âħ¢": 8793,
      "è¾īçħ": 8794,
      "å´ĩæĭľ": 8795,
      "çļĦèĤ©èĨĢ": 8796,
      "çļĦæ¶Īæģ¯": 8797,
      "çľ¸åŃĲ": 8798,
      "åĢ¾åĲĳäºİ": 8799,
      "æ²¹èĨľçī©è´¨": 8800,
      "æĸ¯åĿ¦é¡¿ä¸Ĭæł¡": 8801,
      "ç½Ĺè¾ĳåĴĮåı²å¼º": 8802,
      "çļĦæ··ä¹±": 8803,
      "çļĦçĪ¶äº²": 8804,
      "çļĦèĦļæŃ¥å£°": 8805,
      "ç»³ç´¢": 8806,
      "ç»¼åĲĪ": 8807,
      "ä»ĩæģ¨": 8808,
      "å¯Ĩå¯Ĩéº»éº»": 8809,
      "å«Įçĸĳ": 8810,
      "éĥĳéĩį": 8811,
      "çļĦæĽ²çİĩ": 8812,
      "å½ĹæĺŁ": 8813,
      "éĽªæµªçº¸": 8814,
      "æ²§æ¡ĳ": 8815,
      "çļĦæĻ®éĢļ": 8816,
      "å¢ŀæı´æľªæĿ¥": 8817,
      "æĺ¾å¾®éķľ": 8818,
      "å°¤åħ¶": 8819,
      "çļĦæ¦Ĥ": 8820,
      "å§ĳå¨ĺ": 8821,
      "ç¬Ķè®°æľ¬": 8822,
      "KILLER": 8823,
      "¤çģ«èĻ«": 8824,
      "æĹ¶éļĲæĹ¶çİ°": 8825,
      "è½»èĶĳ": 8826,
      "åıĹè¯ķèĢħ": 8827,
      "26": 8828,
      "30": 8829,
      "¥¼": 8830,
      "èĺ": 8831,
      "ĦåĪ«": 8832,
      "Ħä»Ĭ": 8833,
      "ĳèı": 8834,
      "Ľèĭ¦": 8835,
      "çļĦäºĨ": 8836,
      "çļĦåĽĽ": 8837,
      "çļĦèĪ°éĺŁ": 8838,
      "çļĦåŃĹ": 8839,
      "çļĦéĥ½æĺ¯": 8840,
      "çļĦè®¡åĪĴ": 8841,
      "çļĦä¸īä¸ª": 8842,
      "çļĦè®¡ç®Ĺ": 8843,
      "çļĦæīĵåĩ»": 8844,
      "çļĦçĶ»éĿ¢": 8845,
      "çļĦä¿¡åı·": 8846,
      "çļĦé¢Ĩå¯¼": 8847,
      "çļĦç»ĨèĬĤ": 8848,
      "çļĦçī©ä½ĵ": 8849,
      "çļĦç¨ĭåº¦": 8850,
      "çļĦç§ĺå¯Ĩ": 8851,
      "çļĦå½±åŃĲ": 8852,
      "çļĦè¿¹è±¡": 8853,
      "è¿Ħä»Ĭ": 8854,
      "ä¸ĢéĹ´": 8855,
      "ä¸Ģçº§": 8856,
      "åĪ®": 8857,
      "åĪĬ": 8858,
      "åĪł": 8859,
      "æĺ¯éĤ£ä¹Ī": 8860,
      "æĺ¯åįģåĪĨ": 8861,
      "åľ¨ä½ł": 8862,
      "åľ¨æľĢ": 8863,
      "åľ¨èģĶåĲĪåĽ½": 8864,
      "åľ¨å®ĩå®Ļä¸Ń": 8865,
      "åľ¨éĵ¶æ²³ç³»": 8866,
      "åľ¨éĩĮéĿ¢": 8867,
      "åľ¨å¿ĥéĩĮ": 8868,
      "åľ¨é£İä¸Ń": 8869,
      "äºĨæĮĩ": 8870,
      "è¿Ļåı¯èĥ½æĺ¯": 8871,
      "è¿Ļä¸ŃéĹ´": 8872,
      "è¿Ļæĸ¹éĿ¢çļĦ": 8873,
      "æľīæĹ¶åĢĻ": 8874,
      "ä¸įæĺİ": 8875,
      "ä¸įå¼Ģ": 8876,
      "ä¸įçĽ¸": 8877,
      "ä¸įç»Ŀ": 8878,
      "çĶĦåĪ«": 8879,
      "äººé©¬": 8880,
      "ä»ĸä¼ļ": 8881,
      "ä»ĸåıªæĺ¯": 8882,
      "ä»ĸçľĭåĪ°äºĨ": 8883,
      "ä»ĸæĮĩæĮĩ": 8884,
      "ä¸Ńæ²¡æľī": 8885,
      "ä¸ŃåıĪ": 8886,
      "ä¸Ĭå°±": 8887,
      "ä¸Ĭä¸ĭ": 8888,
      "ä¸ĬçĻ¾ä¸ĩ": 8889,
      "ä¸Ĭå°ī": 8890,
      "æĪĳäºĨ": 8891,
      "æĪĳçľĭ": 8892,
      "æĪĳæīĢ": 8893,
      "æĪĳåı«": 8894,
      "æĪĳä¹Łæĺ¯": 8895,
      "æĪĳæľ¬æĿ¥": 8896,
      "çİĦ": 8897,
      "åľ°çľĭäºĨ": 8898,
      "æĹ¶å°±": 8899,
      "æĹ¶æ¯ı": 8900,
      "è®½": 8901,
      "å¤§åı«": 8902,
      "å¤§æ´ŀ": 8903,
      "æĿ¥æĹ¶": 8904,
      "æĿ¥åĽŀ": 8905,
      "æ²Į": 8906,
      "éĤ£åıª": 8907,
      "å¹Ķ": 8908,
      "çĿĢä»ĸ": 8909,
      "çĿĢå¤´": 8910,
      "çĿĢæīĭ": 8911,
      "èĪŁ": 8912,
      "åĩºç§Ł": 8913,
      "çľĭåĩºæĿ¥": 8914,
      "çļĦæ¥¼": 8915,
      "èĢ¸": 8916,
      "èĢ»": 8917,
      "åĴ½": 8918,
      "èµ¢": 8919,
      "èµĮ": 8920,
      "è¡¬": 8921,
      "ä½łè¿Ļ": 8922,
      "ä½łå·²ç»ı": 8923,
      "åĴĮæĪĳ": 8924,
      "åĴĮå¤§": 8925,
      "éĿ¢çĽ¸": 8926,
      "éĿ¢ä¸ĬçļĦ": 8927,
      "éĥ½åĥı": 8928,
      "éĥ½ä¸įæĺ¯": 8929,
      "å¯¹åħ¶": 8930,
      "å¯¹éĿ¢çļĦ": 8931,
      "å¯¹ä¸īä½ĵä¸ĸçķĮ": 8932,
      "æ²¡èĥ½": 8933,
      "å¥¹å¾Ī": 8934,
      "å¥¹çĶ¨": 8935,
      "å¥¹çªģçĦ¶": 8936,
      "å¥¹æĽ¾": 8937,
      "ç©ºåľ°ä¸Ĭ": 8938,
      "åī¥": 8939,
      "ä½Ĩåħ¶": 8940,
      "ä¸ĭæ²ī": 8941,
      "å¾Īéķ¿": 8942,
      "å¾Īæħ¢": 8943,
      "å¾ĪåĲĥæĥĬ": 8944,
      "å¾Īå¹¸è¿Ĳ": 8945,
      "çī¢": 8946,
      "èĩªä¿¡": 8947,
      "çĦĬ": 8948,
      "è¦ģå¯¹": 8949,
      "è¦ģä¸º": 8950,
      "æĦ£": 8951,
      "ç½Ĳ": 8952,
      "åħīçĤ¹": 8953,
      "åħīäº®": 8954,
      "åħīæĻķ": 8955,
      "æĪĲåĪĨ": 8956,
      "æĪĲäºĨä¸Ģ": 8957,
      "æĪĲäºĨä¸Ģä¸ª": 8958,
      "æĪĲçĶµè·¯": 8959,
      "åīįè¡Į": 8960,
      "åīįæĻ¯": 8961,
      "å¤©ä¸Ĭ": 8962,
      "æĥ³åĩº": 8963,
      "åĥıä¸ª": 8964,
      "åĥıè¿Ļæł·": 8965,
      "æĭ¢": 8966,
      "å±ģ": 8967,
      "éķ¶": 8968,
      "èµ·çĤ¹": 8969,
      "æĺİçļĦ": 8970,
      "å°ıåĮº": 8971,
      "å°ıè¡ĮæĺŁå¸¦": 8972,
      "å®ĥå°Ĩ": 8973,
      "å®ĥå°±æĺ¯": 8974,
      "ä¿±": 8975,
      "å¤ļè¿ľ": 8976,
      "ä»İä»ĸä»¬": 8977,
      "ä»İéĤ£éĩĮ": 8978,
      "ä»İè¿ľå¤Ħ": 8979,
      "ä»İèĪ·çªĹ": 8980,
      "å¾Ĺä¸įåĪ°": 8981,
      "é¢ł": 8982,
      "è¿Ľåº¦": 8983,
      "åĲĳå¥¹": 8984,
      "å¼Ģæŀª": 8985,
      "ä»ĸä»¬åı¯ä»¥": 8986,
      "çļĦèĳ": 8987,
      "ä¸¤ç§į": 8988,
      "ä¸¤æīĭ": 8989,
      "ä¸¤å¤©åĲİ": 8990,
      "ç³Ļ": 8991,
      "åĬĽç«Ń": 8992,
      "æĬĬä¸Ģ": 8993,
      "æĬĬä»ĸä»¬": 8994,
      "æĪĳä»¬ä¼ļ": 8995,
      "æĪĳä»¬å¾Ĺ": 8996,
      "æĪĳä»¬éľĢè¦ģ": 8997,
      "æĪĳä»¬åıªèĥ½": 8998,
      "éķ¿äºĨ": 8999,
      "éķ¿æĸ¹å½¢": 9000,
      "åįģä¸Ģ": 9001,
      "çĶ¨åĵģ": 9002,
      "æīĢæĮĩ": 9003,
      "æīĢè°ĵ": 9004,
      "å¦ĩ": 9005,
      "æ·Į": 9006,
      "ä¸İåħ¶": 9007,
      "ä¸İå¤ĸæĺŁæĸĩæĺİ": 9008,
      "ç½Ĺé©¬": 9009,
      "è¢«æİ¨": 9010,
      "è¢«çĥ§": 9011,
      "èĢħåĴĮ": 9012,
      "åı·ä¸İ": 9013,
      "çĤ¹äºĨ": 9014,
      "çİ°åľ¨ä»ĸ": 9015,
      "æĹłçŁ¥": 9016,
      "æĹłè¾¹çļĦ": 9017,
      "å¤ªç©ºæľĽè¿ľéķľ": 9018,
      "è´§": 9019,
      "è´Ń": 9020,
      "å¤ĸå±Ĥ": 9021,
      "å·²ç»ıæİ¥è¿ĳ": 9022,
      "å¤´æĿ¥": 9023,
      "å¤´é¡¶": 9024,
      "å¤ªéĺ³å·²ç»ı": 9025,
      "å¤ªéĺ³è¿Ĳè¡Į": 9026,
      "å¤ªéĺ³è¿Ĳè¡ĮçļĦ": 9027,
      "ç±»æľ¨": 9028,
      "åŃ¦æł¡": 9029,
      "å½ĵå®ĥ": 9030,
      "çļĦçĨ": 9031,
      "åħ¨åĬŁçİĩ": 9032,
      "ä½¿ä»ĸä»¬": 9033,
      "ä½¿èĩªå·±çļĦ": 9034,
      "è°£": 9035,
      "è°ľ": 9036,
      "çĽ®åĬĽ": 9037,
      "ä½ľåĵį": 9038,
      "è¯Ŀæľº": 9039,
      "ä¸īä½ĵè¡ĮæĺŁ": 9040,
      "å£°æµª": 9041,
      "äºĨä¸Ģåı£": 9042,
      "äºĨä¸Ģéģį": 9043,
      "èµ°åľ¨": 9044,
      "çļĦä¸Ģå£°": 9045,
      "æīĭåĬ¨": 9046,
      "æīĭæľº": 9047,
      "æīĭèĩĤ": 9048,
[...]
