{
  "version": "1.0",
  "truncation": null,
  "padding": null,
  "added_tokens": [
    {
      "id": 0,
      "content": "[UNK]",
      "single_word": false,
      "lstrip": false,
      "rstrip": false,
      "normalized": false,
      "special": true
    },
    {
      "id": 1,
      "content": "<|endoftext|>",
      "single_word": false,
      "lstrip": false,
      "rstrip": false,
      "normalized": false,
      "special": true
    },
    {
      "id": 2,
      "content": "<|padding|>",
      "single_word": false,
      "lstrip": false,
      "rstrip": false,
      "normalized": false,
      "special": true
    },
    {
      "id": 3,
      "content": "<|im_start|>",
      "single_word": false,
      "lstrip": false,
      "rstrip": false,
      "normalized": false,
      "special": true
    },
    {
      "id": 4,
      "content": "<|im_end|>",
      "single_word": false,
      "lstrip": false,
      "rstrip": false,
      "normalized": false,
      "special": true
    },
    {
      "id": 5,
      "content": "<|system|>",
      "single_word": false,
      "lstrip": false,
      "rstrip": false,
      "normalized": false,
      "special": true
    },
    {
      "id": 6,
      "content": "<|user|>",
      "single_word": false,
      "lstrip": false,
      "rstrip": false,
      "normalized": false,
      "special": true
    },
    {
      "id": 7,
      "content": "<|assistant|>",
      "single_word": false,
      "lstrip": false,
      "rstrip": false,
      "normalized": false,
      "special": true
    },
    {
      "id": 8,
      "content": "<|thought|>",
      "single_word": false,
      "lstrip": false,
      "rstrip": false,
      "normalized": false,
      "special": true
    },
    {
      "id": 9,
      "content": "<|/thought|>",
      "single_word": false,
      "lstrip": false,
      "rstrip": false,
      "normalized": false,
      "special": true
    }
  ],
  "normalizer": null,
  "pre_tokenizer": {
    "type": "BertPreTokenizer"
  },
  "post_processor": null,
  "decoder": {
    "type": "BPEDecoder",
    "suffix": "</w>"
  },
  "model": {
    "type": "BPE",
    "dropout": null,
    "unk_token": "[UNK]",
    "continuing_subword_prefix": null,
    "end_of_word_suffix": null,
    "fuse_unk": false,
    "byte_fallback": false,
    "ignore_merges": false,
    "vocab": {
      "[UNK]": 0,
      "<|endoftext|>": 1,
      "<|padding|>": 2,
      "<|im_start|>": 3,
      "<|im_end|>": 4,
      "<|system|>": 5,
      "<|user|>": 6,
      "<|assistant|>": 7,
      "<|thought|>": 8,
      "<|/thought|>": 9,
      "!": 10,
      "\"": 11,
      "#": 12,
      "%": 13,
      "&": 14,
      "'": 15,
      "(": 16,
      ")": 17,
      "*": 18,
      "+": 19,
      ",": 20,
      "-": 21,
      ".": 22,
      "/": 23,
      "0": 24,
      "1": 25,
      "2": 26,
      "3": 27,
      "4": 28,
      "5": 29,
      "6": 30,
      "7": 31,
      "8": 32,
      "9": 33,
      ":": 34,
      ";": 35,
      "<": 36,
      "=": 37,
      ">": 38,
      "?": 39,
      "@": 40,
      "A": 41,
      "B": 42,
      "C": 43,
      "D": 44,
      "E": 45,
      "F": 46,
      "G": 47,
      "H": 48,
      "I": 49,
      "J": 50,
      "K": 51,
      "L": 52,
      "M": 53,
      "N": 54,
      "O": 55,
      "P": 56,
      "Q": 57,
      "R": 58,
      "S": 59,
      "T": 60,
      "U": 61,
      "V": 62,
      "W": 63,
      "X": 64,
      "Y": 65,
      "Z": 66,
      "[": 67,
      "]": 68,
      "^": 69,
      "_": 70,
      "`": 71,
      "a": 72,
      "b": 73,
      "c": 74,
      "d": 75,
      "e": 76,
      "f": 77,
      "g": 78,
      "h": 79,
      "i": 80,
      "k": 81,
      "l": 82,
      "m": 83,
      "n": 84,
      "o": 85,
      "p": 86,
      "q": 87,
      "r": 88,
      "s": 89,
      "t": 90,
      "u": 91,
      "v": 92,
      "w": 93,
      "x": 94,
      "y": 95,
      "z": 96,
      "~": 97,
      "±": 98,
      "·": 99,
      "×": 100,
      "à": 101,
      "α": 102,
      "β": 103,
      "ε": 104,
      "τ": 105,
      "А": 106,
      "Б": 107,
      "Г": 108,
      "Д": 109,
      "Н": 110,
      "Ю": 111,
      "—": 112,
      "―": 113,
      "‘": 114,
      "’": 115,
      "“": 116,
      "”": 117,
      "…": 118,
      "※": 119,
      "℃": 120,
      "Ⅰ": 121,
      "Ⅱ": 122,
      "Ⅲ": 123,
      "∶": 124,
      "①": 125,
      "②": 126,
      "□": 127,
      "、": 128,
      "。": 129,
      "《": 130,
      "》": 131,
      "『": 132,
      "』": 133,
      "【": 134,
      "】": 135,
      "一": 136,
      "丁": 137,
      "七": 138,
      "万": 139,
      "丈": 140,
      "三": 141,
      "上": 142,
      "下": 143,
      "不": 144,
      "与": 145,
      "丐": 146,
      "丑": 147,
      "专": 148,
      "且": 149,
      "世": 150,
      "丘": 151,
      "丙": 152,
      "业": 153,
      "丛": 154,
      "东": 155,
      "丝": 156,
      "丢": 157,
      "两": 158,
      "严": 159,
      "丧": 160,
      "个": 161,
      "丫": 162,
      "中": 163,
      "丰": 164,
      "串": 165,
      "临": 166,
      "丸": 167,
      "丹": 168,
      "为": 169,
      "主": 170,
      "丽": 171,
      "举": 172,
      "乃": 173,
      "久": 174,
      "么": 175,
      "义": 176,
      "之": 177,
      "乌": 178,
      "乍": 179,
      "乎": 180,
      "乏": 181,
      "乐": 182,
      "乒": 183,
      "乓": 184,
      "乔": 185,
      "乖": 186,
      "乘": 187,
      "九": 188,
      "乞": 189,
      "也": 190,
      "习": 191,
      "乡": 192,
      "书": 193,
      "买": 194,
      "乱": 195,
      "乳": 196,
      "乾": 197,
      "了": 198,
      "予": 199,
      "争": 200,
      "事": 201,
      "二": 202,
      "于": 203,
      "亏": 204,
      "云": 205,
      "互": 206,
      "五": 207,
      "井": 208,
      "亘": 209,
      "亚": 210,
      "些": 211,
      "亡": 212,
      "亢": 213,
      "交": 214,
      "亥": 215,
      "亦": 216,
      "产": 217,
      "亨": 218,
      "亩": 219,
      "享": 220,
      "京": 221,
      "亭": 222,
      "亮": 223,
      "亲": 224,
      "亵": 225,
      "人": 226,
      "亿": 227,
      "什": 228,
      "仁": 229,
      "仅": 230,
      "仆": 231,
      "仇": 232,
      "今": 233,
      "介": 234,
      "仍": 235,
      "从": 236,
      "仑": 237,
      "仓": 238,
      "仔": 239,
      "仕": 240,
      "他": 241,
      "仗": 242,
      "付": 243,
      "仙": 244,
      "仞": 245,
      "代": 246,
      "令": 247,
      "以": 248,
      "仨": 249,
      "仪": 250,
      "们": 251,
      "仰": 252,
      "件": 253,
      "价": 254,
      "任": 255,
      "份": 256,
      "仿": 257,
      "企": 258,
      "伊": 259,
      "伍": 260,
      "伎": 261,
      "伏": 262,
      "伐": 263,
      "休": 264,
      "众": 265,
      "优": 266,
      "伙": 267,
      "会": 268,
      "伞": 269,
      "伟": 270,
      "传": 271,
      "伤": 272,
      "伦": 273,
      "伪": 274,
      "伯": 275,
      "估": 276,
      "伴": 277,
      "伶": 278,
      "伸": 279,
      "伺": 280,
      "似": 281,
      "伽": 282,
      "但": 283,
      "位": 284,
      "低": 285,
      "住": 286,
      "佐": 287,
      "佑": 288,
      "体": 289,
      "何": 290,
      "余": 291,
      "佛": 292,
      "作": 293,
      "你": 294,
      "佣": 295,
      "佩": 296,
      "佬": 297,
      "佯": 298,
      "佰": 299,
      "佳": 300,
      "佻": 301,
      "佼": 302,
      "使": 303,
      "侃": 304,
      "侄": 305,
      "侈": 306,
      "例": 307,
      "侍": 308,
      "侏": 309,
      "供": 310,
      "依": 311,
      "侠": 312,
      "侣": 313,
      "侥": 314,
      "侦": 315,
      "侧": 316,
      "侨": 317,
      "侬": 318,
      "侮": 319,
      "侯": 320,
      "侵": 321,
      "便": 322,
      "促": 323,
      "俄": 324,
      "俊": 325,
      "俏": 326,
      "俑": 327,
      "俗": 328,
      "俘": 329,
      "保": 330,
      "信": 331,
      "俩": 332,
      "俭": 333,
      "修": 334,
      "俯": 335,
      "俱": 336,
      "俺": 337,
      "倍": 338,
      "倒": 339,
      "倔": 340,
      "候": 341,
      "借": 342,
      "倡": 343,
      "倦": 344,
      "倪": 345,
      "倭": 346,
      "债": 347,
      "值": 348,
      "倾": 349,
      "假": 350,
      "偎": 351,
      "偏": 352,
      "做": 353,
      "停": 354,
      "健": 355,
      "偶": 356,
      "偷": 357,
      "偿": 358,
      "傅": 359,
      "傍": 360,
      "储": 361,
      "催": 362,
      "傲": 363,
      "傻": 364,
      "像": 365,
      "僚": 366,
      "僧": 367,
      "僵": 368,
      "僻": 369,
      "儒": 370,
      "儿": 371,
      "兀": 372,
      "允": 373,
      "元": 374,
      "兄": 375,
      "充": 376,
      "兆": 377,
      "先": 378,
      "光": 379,
      "克": 380,
      "免": 381,
      "兑": 382,
      "兔": 383,
      "党": 384,
      "兜": 385,
      "兢": 386,
      "入": 387,
      "全": 388,
      "八": 389,
      "公": 390,
      "六": 391,
      "兮": 392,
      "兰": 393,
      "共": 394,
      "关": 395,
      "兴": 396,
      "兵": 397,
      "其": 398,
      "具": 399,
      "典": 400,
      "兹": 401,
      "养": 402,
      "兼": 403,
      "兽": 404,
      "冀": 405,
      "内": 406,
      "冈": 407,
      "冉": 408,
      "册": 409,
      "再": 410,
      "冒": 411,
      "冕": 412,
      "冗": 413,
      "写": 414,
      "军": 415,
      "农": 416,
      "冠": 417,
      "冤": 418,
      "冥": 419,
      "冬": 420,
      "冯": 421,
      "冰": 422,
      "冲": 423,
      "决": 424,
      "况": 425,
      "冶": 426,
      "冷": 427,
      "冻": 428,
      "冽": 429,
      "净": 430,
      "凄": 431,
      "准": 432,
      "凉": 433,
      "凋": 434,
      "凌": 435,
      "减": 436,
      "凑": 437,
      "凛": 438,
      "凝": 439,
      "几": 440,
      "凡": 441,
      "凤": 442,
      "凭": 443,
      "凯": 444,
      "凰": 445,
      "凳": 446,
      "凶": 447,
      "凸": 448,
      "凹": 449,
      "出": 450,
      "击": 451,
      "函": 452,
      "凿": 453,
      "刀": 454,
      "刁": 455,
      "刃": 456,
      "分": 457,
      "切": 458,
      "刊": 459,
      "刍": 460,
      "刑": 461,
      "划": 462,
      "列": 463,
      "刘": 464,
      "则": 465,
      "刚": 466,
      "创": 467,
      "初": 468,
      "删": 469,
      "判": 470,
      "刨": 471,
      "利": 472,
      "别": 473,
      "刮": 474,
      "到": 475,
      "制": 476,
      "刷": 477,
      "券": 478,
      "刹": 479,
      "刺": 480,
      "刻": 481,
      "刽": 482,
      "剁": 483,
      "剂": 484,
      "剃": 485,
      "削": 486,
      "剌": 487,
      "前": 488,
      "剑": 489,
      "剔": 490,
      "剖": 491,
      "剜": 492,
      "剥": 493,
      "剧": 494,
      "剩": 495,
      "剪": 496,
      "副": 497,
      "割": 498,
      "剽": 499,
      "剿": 500,
      "劈": 501,
      "力": 502,
      "劝": 503,
      "办": 504,
      "功": 505,
      "加": 506,
      "务": 507,
      "劣": 508,
      "动": 509,
      "助": 510,
      "努": 511,
      "劫": 512,
      "励": 513,
      "劲": 514,
      "劳": 515,
      "劾": 516,
      "势": 517,
      "勃": 518,
      "勇": 519,
      "勉": 520,
      "勋": 521,
      "勒": 522,
      "勘": 523,
      "募": 524,
      "勤": 525,
      "勺": 526,
      "勾": 527,
      "勿": 528,
      "匀": 529,
      "包": 530,
      "匆": 531,
      "匈": 532,
      "匍": 533,
      "匕": 534,
      "化": 535,
      "北": 536,
      "匙": 537,
      "匠": 538,
      "匡": 539,
      "匣": 540,
      "匮": 541,
      "匹": 542,
      "区": 543,
      "医": 544,
      "匿": 545,
      "十": 546,
      "千": 547,
      "升": 548,
      "午": 549,
      "卉": 550,
      "半": 551,
      "华": 552,
      "协": 553,
      "卑": 554,
      "卒": 555,
      "卓": 556,
      "单": 557,
      "卖": 558,
      "南": 559,
      "博": 560,
      "卜": 561,
      "占": 562,
      "卡": 563,
      "卢": 564,
      "卦": 565,
      "卧": 566,
      "卫": 567,
      "印": 568,
      "危": 569,
      "即": 570,
      "却": 571,
      "卵": 572,
      "卷": 573,
      "卸": 574,
      "卿": 575,
      "厂": 576,
      "厅": 577,
      "历": 578,
      "厉": 579,
      "压": 580,
      "厌": 581,
      "厕": 582,
      "厘": 583,
      "厚": 584,
      "原": 585,
      "厢": 586,
      "厥": 587,
      "厦": 588,
      "厨": 589,
      "厩": 590,
      "厮": 591,
      "去": 592,
      "县": 593,
      "参": 594,
      "又": 595,
      "叉": 596,
      "及": 597,
      "友": 598,
      "双": 599,
      "反": 600,
      "发": 601,
      "叔": 602,
      "取": 603,
      "受": 604,
      "变": 605,
      "叙": 606,
      "叛": 607,
      "叠": 608,
      "口": 609,
      "古": 610,
      "句": 611,
      "另": 612,
      "叨": 613,
      "只": 614,
      "叫": 615,
      "召": 616,
      "叭": 617,
      "叮": 618,
      "可": 619,
      "台": 620,
      "史": 621,
      "右": 622,
      "叶": 623,
      "号": 624,
      "司": 625,
      "叹": 626,
      "叼": 627,
      "叽": 628,
      "吁": 629,
      "吃": 630,
      "各": 631,
      "合": 632,
      "吉": 633,
      "吊": 634,
      "吋": 635,
      "同": 636,
      "名": 637,
      "后": 638,
      "吐": 639,
      "向": 640,
      "吓": 641,
      "吕": 642,
      "吗": 643,
      "君": 644,
      "吝": 645,
      "吞": 646,
      "吟": 647,
      "吠": 648,
      "否": 649,
      "吧": 650,
      "吨": 651,
      "吩": 652,
      "含": 653,
      "听": 654,
      "吭": 655,
      "吮": 656,
      "启": 657,
      "吱": 658,
      "吴": 659,
      "吵": 660,
      "吸": 661,
      "吹": 662,
      "吻": 663,
      "吼": 664,
      "吾": 665,
      "呀": 666,
      "呆": 667,
      "呈": 668,
      "告": 669,
      "呐": 670,
      "呓": 671,
      "呕": 672,
      "呗": 673,
      "员": 674,
      "呛": 675,
      "呜": 676,
      "呢": 677,
      "呤": 678,
      "周": 679,
      "呲": 680,
      "味": 681,
      "呵": 682,
      "呷": 683,
      "呸": 684,
      "呻": 685,
      "呼": 686,
      "命": 687,
      "咀": 688,
      "咂": 689,
      "咄": 690,
      "咆": 691,
      "咋": 692,
      "和": 693,
      "咐": 694,
      "咒": 695,
      "咔": 696,
      "咕": 697,
      "咖": 698,
      "咙": 699,
      "咚": 700,
      "咛": 701,
      "咝": 702,
      "咣": 703,
      "咦": 704,
      "咧": 705,
      "咨": 706,
      "咪": 707,
      "咫": 708,
      "咬": 709,
      "咯": 710,
      "咱": 711,
      "咳": 712,
      "咸": 713,
      "咽": 714,
      "哀": 715,
      "品": 716,
      "哄": 717,
      "哆": 718,
      "哇": 719,
      "哈": 720,
      "响": 721,
      "哎": 722,
      "哑": 723,
      "哒": 724,
      "哔": 725,
      "哗": 726,
      "哝": 727,
      "哟": 728,
      "哥": 729,
      "哦": 730,
      "哧": 731,
      "哨": 732,
      "哩": 733,
      "哪": 734,
      "哭": 735,
      "哮": 736,
      "哲": 737,
      "哺": 738,
      "哼": 739,
      "哽": 740,
      "唇": 741,
      "唉": 742,
      "唏": 743,
      "唐": 744,
      "唔": 745,
      "唠": 746,
      "唤": 747,
      "唬": 748,
      "售": 749,
      "唯": 750,
      "唱": 751,
      "唾": 752,
      "啃": 753,
      "商": 754,
      "啊": 755,
      "啐": 756,
      "啕": 757,
      "啜": 758,
      "啡": 759,
      "啤": 760,
      "啥": 761,
      "啦": 762,
      "啧": 763,
      "啪": 764,
      "啬": 765,
      "啮": 766,
      "啰": 767,
      "啷": 768,
      "啸": 769,
      "啼": 770,
      "啾": 771,
      "喀": 772,
      "喂": 773,
      "喃": 774,
      "善": 775,
      "喇": 776,
      "喉": 777,
      "喊": 778,
      "喋": 779,
      "喑": 780,
      "喘": 781,
      "喜": 782,
      "喝": 783,
      "喧": 784,
      "喳": 785,
      "喵": 786,
      "喷": 787,
      "喻": 788,
      "喽": 789,
      "嗅": 790,
      "嗑": 791,
      "嗒": 792,
      "嗓": 793,
      "嗔": 794,
      "嗖": 795,
      "嗜": 796,
      "嗡": 797,
      "嗤": 798,
      "嗦": 799,
      "嗨": 800,
      "嗯": 801,
      "嗽": 802,
      "嘀": 803,
      "嘁": 804,
      "嘈": 805,
      "嘉": 806,
      "嘎": 807,
      "嘘": 808,
      "嘛": 809,
      "嘟": 810,
      "嘣": 811,
      "嘤": 812,
      "嘭": 813,
      "嘱": 814,
      "嘲": 815,
      "嘴": 816,
      "嘶": 817,
      "嘹": 818,
      "嘻": 819,
      "嘿": 820,
      "噎": 821,
      "噗": 822,
      "噜": 823,
      "噢": 824,
      "器": 825,
      "噩": 826,
      "噪": 827,
      "噬": 828,
      "噼": 829,
      "嚎": 830,
      "嚏": 831,
      "嚓": 832,
      "嚣": 833,
      "嚷": 834,
      "嚼": 835,
      "囊": 836,
      "囔": 837,
      "囚": 838,
      "四": 839,
      "回": 840,
      "因": 841,
      "团": 842,
      "园": 843,
      "困": 844,
      "囱": 845,
      "围": 846,
      "固": 847,
      "国": 848,
      "图": 849,
      "圆": 850,
      "圈": 851,
      "土": 852,
      "圣": 853,
      "在": 854,
      "圪": 855,
      "地": 856,
      "场": 857,
      "圾": 858,
      "址": 859,
      "均": 860,
      "坊": 861,
      "坍": 862,
      "坎": 863,
      "坏": 864,
      "坐": 865,
      "坑": 866,
      "块": 867,
      "坚": 868,
      "坛": 869,
      "坝": 870,
      "坞": 871,
      "坟": 872,
      "坠": 873,
      "坡": 874,
      "坦": 875,
      "坪": 876,
      "坯": 877,
      "坷": 878,
      "垂": 879,
      "垃": 880,
      "垄": 881,
      "垅": 882,
      "型": 883,
      "垒": 884,
      "垛": 885,
      "垠": 886,
      "垢": 887,
      "垣": 888,
      "垦": 889,
      "垩": 890,
      "垫": 891,
      "垮": 892,
      "埂": 893,
      "埃": 894,
      "埋": 895,
      "城": 896,
      "域": 897,
      "培": 898,
      "基": 899,
      "堂": 900,
      "堆": 901,
      "堕": 902,
      "堡": 903,
      "堤": 904,
      "堪": 905,
      "堵": 906,
      "塌": 907,
      "塑": 908,
      "塔": 909,
      "塘": 910,
      "塞": 911,
      "填": 912,
      "境": 913,
      "墅": 914,
      "墓": 915,
      "墙": 916,
      "增": 917,
      "墟": 918,
      "墨": 919,
      "墩": 920,
      "壁": 921,
      "壑": 922,
      "壕": 923,
      "壤": 924,
      "士": 925,
      "壮": 926,
      "声": 927,
      "壳": 928,
      "壶": 929,
      "处": 930,
      "备": 931,
      "复": 932,
      "夏": 933,
      "夕": 934,
      "外": 935,
      "夙": 936,
      "多": 937,
      "夜": 938,
      "够": 939,
      "大": 940,
      "天": 941,
      "太": 942,
      "夫": 943,
      "夭": 944,
      "央": 945,
      "失": 946,
      "头": 947,
      "夷": 948,
      "夸": 949,
      "夹": 950,
      "夺": 951,
      "奄": 952,
      "奇": 953,
      "奈": 954,
      "奉": 955,
      "奋": 956,
      "奏": 957,
      "契": 958,
      "奔": 959,
      "奖": 960,
      "套": 961,
      "奠": 962,
      "奢": 963,
      "奥": 964,
      "女": 965,
      "奴": 966,
      "奶": 967,
      "奸": 968,
      "她": 969,
      "好": 970,
      "如": 971,
      "妄": 972,
      "妆": 973,
      "妇": 974,
      "妈": 975,
      "妒": 976,
      "妓": 977,
      "妖": 978,
      "妙": 979,
      "妞": 980,
      "妥": 981,
      "妨": 982,
      "妩": 983,
      "妮": 984,
      "妹": 985,
      "妻": 986,
      "姆": 987,
      "始": 988,
      "姐": 989,
      "姑": 990,
      "姓": 991,
      "委": 992,
      "姚": 993,
      "姜": 994,
      "姣": 995,
      "姨": 996,
      "姬": 997,
      "姻": 998,
      "姿": 999,
      "威": 1000,
      "娃": 1001,
      "娄": 1002,
      "娅": 1003,
      "娇": 1004,
      "娑": 1005,
      "娓": 1006,
      "娘": 1007,
      "娜": 1008,
      "娟": 1009,
      "娩": 1010,
      "娱": 1011,
      "娲": 1012,
      "娴": 1013,
      "娶": 1014,
      "娼": 1015,
      "婆": 1016,
      "婉": 1017,
      "婊": 1018,
      "婚": 1019,
      "婪": 1020,
      "婴": 1021,
      "婷": 1022,
      "媒": 1023,
      "媚": 1024,
      "媳": 1025,
      "嫁": 1026,
      "嫉": 1027,
      "嫌": 1028,
      "嫖": 1029,
      "嫣": 1030,
      "嫩": 1031,
      "嬉": 1032,
      "嬴": 1033,
      "子": 1034,
      "孔": 1035,
      "孕": 1036,
      "字": 1037,
      "存": 1038,
      "孙": 1039,
      "孝": 1040,
      "孟": 1041,
      "季": 1042,
      "孤": 1043,
      "学": 1044,
      "孩": 1045,
      "孵": 1046,
      "孺": 1047,
      "孽": 1048,
      "宁": 1049,
      "它": 1050,
      "宅": 1051,
      "宇": 1052,
      "守": 1053,
      "安": 1054,
      "宋": 1055,
      "完": 1056,
      "宏": 1057,
      "宕": 1058,
      "宗": 1059,
      "官": 1060,
      "宙": 1061,
      "定": 1062,
      "宜": 1063,
      "宝": 1064,
      "实": 1065,
      "宠": 1066,
      "审": 1067,
      "客": 1068,
      "宣": 1069,
      "室": 1070,
      "宦": 1071,
      "宪": 1072,
      "宫": 1073,
      "宰": 1074,
      "害": 1075,
      "宴": 1076,
      "宵": 1077,
      "家": 1078,
      "容": 1079,
      "宽": 1080,
      "宾": 1081,
      "宿": 1082,
      "寂": 1083,
      "寄": 1084,
      "密": 1085,
      "富": 1086,
      "寐": 1087,
      "寒": 1088,
      "寓": 1089,
      "寝": 1090,
      "寞": 1091,
      "察": 1092,
      "寡": 1093,
      "寥": 1094,
      "寸": 1095,
      "对": 1096,
      "寺": 1097,
      "寻": 1098,
      "导": 1099,
      "寿": 1100,
      "封": 1101,
      "射": 1102,
      "将": 1103,
      "尉": 1104,
      "尊": 1105,
      "小": 1106,
      "少": 1107,
      "尔": 1108,
      "尖": 1109,
      "尘": 1110,
      "尚": 1111,
      "尝": 1112,
      "尤": 1113,
      "尬": 1114,
      "就": 1115,
      "尴": 1116,
      "尸": 1117,
      "尺": 1118,
      "尼": 1119,
      "尽": 1120,
      "尾": 1121,
      "尿": 1122,
      "局": 1123,
      "屁": 1124,
      "层": 1125,
      "居": 1126,
      "屈": 1127,
      "屉": 1128,
      "届": 1129,
      "屋": 1130,
      "屎": 1131,
      "屏": 1132,
      "屐": 1133,
      "屑": 1134,
      "展": 1135,
      "属": 1136,
      "屠": 1137,
      "屡": 1138,
      "履": 1139,
      "屯": 1140,
      "山": 1141,
      "屹": 1142,
      "屿": 1143,
      "岁": 1144,
      "岂": 1145,
      "岑": 1146,
      "岔": 1147,
      "岗": 1148,
      "岘": 1149,
      "岛": 1150,
      "岩": 1151,
      "岭": 1152,
      "岳": 1153,
      "岸": 1154,
      "峋": 1155,
      "峙": 1156,
      "峡": 1157,
      "峦": 1158,
      "峨": 1159,
      "峭": 1160,
      "峰": 1161,
      "峻": 1162,
      "崇": 1163,
      "崎": 1164,
      "崖": 1165,
      "崛": 1166,
      "崩": 1167,
      "崭": 1168,
      "崴": 1169,
      "嵌": 1170,
      "嶙": 1171,
      "巅": 1172,
      "巍": 1173,
      "川": 1174,
      "州": 1175,
      "巡": 1176,
      "巢": 1177,
      "工": 1178,
      "左": 1179,
      "巧": 1180,
      "巨": 1181,
      "巫": 1182,
      "差": 1183,
      "己": 1184,
      "已": 1185,
      "巳": 1186,
      "巴": 1187,
      "巷": 1188,
      "巾": 1189,
      "币": 1190,
      "市": 1191,
      "布": 1192,
      "帅": 1193,
      "帆": 1194,
      "师": 1195,
      "希": 1196,
      "帐": 1197,
      "帕": 1198,
      "帘": 1199,
      "帜": 1200,
      "帝": 1201,
      "带": 1202,
      "帧": 1203,
      "席": 1204,
      "帮": 1205,
      "帷": 1206,
      "常": 1207,
      "帽": 1208,
      "幄": 1209,
      "幅": 1210,
      "幔": 1211,
      "幕": 1212,
      "幢": 1213,
      "干": 1214,
      "平": 1215,
      "年": 1216,
      "并": 1217,
      "幸": 1218,
      "幻": 1219,
      "幼": 1220,
      "幽": 1221,
      "广": 1222,
      "庄": 1223,
      "庆": 1224,
      "床": 1225,
      "序": 1226,
      "库": 1227,
      "应": 1228,
      "底": 1229,
      "店": 1230,
      "庙": 1231,
      "府": 1232,
      "庞": 1233,
      "废": 1234,
      "度": 1235,
      "座": 1236,
      "庭": 1237,
      "庶": 1238,
      "康": 1239,
      "庸": 1240,
      "廉": 1241,
      "廊": 1242,
      "廓": 1243,
      "延": 1244,
      "廷": 1245,
      "建": 1246,
      "开": 1247,
      "异": 1248,
      "弃": 1249,
      "弄": 1250,
      "弈": 1251,
      "弋": 1252,
      "式": 1253,
      "弓": 1254,
      "引": 1255,
      "弗": 1256,
      "弘": 1257,
      "弛": 1258,
      "弟": 1259,
      "张": 1260,
      "弥": 1261,
      "弦": 1262,
      "弧": 1263,
      "弩": 1264,
      "弭": 1265,
      "弯": 1266,
      "弱": 1267,
      "弹": 1268,
      "强": 1269,
      "归": 1270,
      "当": 1271,
      "录": 1272,
      "彗": 1273,
      "形": 1274,
      "彩": 1275,
      "彪": 1276,
      "彬": 1277,
      "彭": 1278,
      "彰": 1279,
      "影": 1280,
      "役": 1281,
      "彻": 1282,
      "彼": 1283,
      "往": 1284,
      "征": 1285,
      "径": 1286,
      "待": 1287,
      "很": 1288,
      "徊": 1289,
      "律": 1290,
      "徐": 1291,
      "徒": 1292,
      "得": 1293,
      "徘": 1294,
      "徙": 1295,
      "御": 1296,
      "循": 1297,
      "微": 1298,
      "德": 1299,
      "徽": 1300,
      "心": 1301,
      "必": 1302,
      "忆": 1303,
      "忌": 1304,
      "忍": 1305,
      "忏": 1306,
      "忒": 1307,
      "志": 1308,
      "忘": 1309,
      "忙": 1310,
      "忠": 1311,
      "忡": 1312,
      "忧": 1313,
      "忪": 1314,
      "快": 1315,
      "念": 1316,
      "忻": 1317,
      "忽": 1318,
      "怀": 1319,
      "态": 1320,
      "怅": 1321,
      "怆": 1322,
      "怎": 1323,
      "怏": 1324,
      "怒": 1325,
      "怕": 1326,
      "怖": 1327,
      "怛": 1328,
      "怜": 1329,
      "思": 1330,
      "怠": 1331,
      "怡": 1332,
      "急": 1333,
      "性": 1334,
      "怨": 1335,
      "怪": 1336,
      "怯": 1337,
      "总": 1338,
      "恃": 1339,
      "恋": 1340,
      "恍": 1341,
      "恐": 1342,
      "恒": 1343,
      "恕": 1344,
      "恙": 1345,
      "恢": 1346,
      "恣": 1347,
      "恤": 1348,
      "恨": 1349,
      "恩": 1350,
      "恫": 1351,
      "恬": 1352,
      "恭": 1353,
      "息": 1354,
      "恰": 1355,
      "恳": 1356,
      "恶": 1357,
      "恻": 1358,
      "恼": 1359,
      "悄": 1360,
      "悉": 1361,
      "悍": 1362,
      "悔": 1363,
      "悖": 1364,
      "悚": 1365,
      "悟": 1366,
      "悠": 1367,
      "患": 1368,
      "悦": 1369,
      "您": 1370,
      "悬": 1371,
      "悯": 1372,
      "悲": 1373,
      "悴": 1374,
      "悸": 1375,
      "悻": 1376,
      "情": 1377,
      "惆": 1378,
      "惊": 1379,
      "惋": 1380,
      "惑": 1381,
      "惕": 1382,
      "惘": 1383,
      "惚": 1384,
      "惜": 1385,
      "惟": 1386,
      "惠": 1387,
      "惦": 1388,
      "惧": 1389,
      "惨": 1390,
      "惩": 1391,
      "惫": 1392,
      "惬": 1393,
      "惭": 1394,
      "惮": 1395,
      "惯": 1396,
      "惰": 1397,
      "想": 1398,
      "惶": 1399,
      "惹": 1400,
      "惺": 1401,
      "愁": 1402,
      "愈": 1403,
      "愉": 1404,
      "意": 1405,
      "愕": 1406,
      "愚": 1407,
      "感": 1408,
      "愠": 1409,
      "愣": 1410,
      "愤": 1411,
      "愧": 1412,
      "愿": 1413,
      "慈": 1414,
      "慌": 1415,
      "慎": 1416,
      "慑": 1417,
      "慕": 1418,
      "慢": 1419,
      "慧": 1420,
      "慨": 1421,
      "慰": 1422,
      "慷": 1423,
      "憋": 1424,
      "憎": 1425,
      "憔": 1426,
      "憧": 1427,
      "憨": 1428,
      "憬": 1429,
      "憾": 1430,
      "懂": 1431,
      "懈": 1432,
      "懊": 1433,
      "懒": 1434,
      "戈": 1435,
      "戎": 1436,
      "戏": 1437,
      "成": 1438,
      "我": 1439,
      "戒": 1440,
      "或": 1441,
      "战": 1442,
      "戚": 1443,
      "戛": 1444,
      "戟": 1445,
      "截": 1446,
      "戮": 1447,
      "戳": 1448,
      "戴": 1449,
      "户": 1450,
      "戾": 1451,
      "房": 1452,
      "所": 1453,
      "扁": 1454,
      "扇": 1455,
      "扉": 1456,
      "手": 1457,
      "才": 1458,
      "扎": 1459,
      "扑": 1460,
      "扒": 1461,
      "打": 1462,
      "扔": 1463,
      "托": 1464,
      "扛": 1465,
      "扣": 1466,
      "扦": 1467,
      "执": 1468,
      "扩": 1469,
      "扫": 1470,
      "扬": 1471,
      "扭": 1472,
      "扮": 1473,
      "扯": 1474,
      "扰": 1475,
      "扳": 1476,
      "扶": 1477,
      "批": 1478,
      "扼": 1479,
      "找": 1480,
      "承": 1481,
      "技": 1482,
      "抄": 1483,
      "抉": 1484,
      "把": 1485,
      "抑": 1486,
      "抓": 1487,
      "投": 1488,
      "抖": 1489,
      "抗": 1490,
      "折": 1491,
      "抚": 1492,
      "抛": 1493,
      "抠": 1494,
      "抡": 1495,
      "抢": 1496,
      "护": 1497,
      "报": 1498,
      "抨": 1499,
      "披": 1500,
      "抬": 1501,
      "抱": 1502,
      "抵": 1503,
      "抹": 1504,
      "押": 1505,
      "抽": 1506,
      "抿": 1507,
      "拂": 1508,
      "拄": 1509,
      "担": 1510,
      "拆": 1511,
      "拇": 1512,
      "拈": 1513,
      "拉": 1514,
      "拌": 1515,
      "拍": 1516,
      "拎": 1517,
      "拐": 1518,
      "拒": 1519,
      "拓": 1520,
      "拔": 1521,
      "拖": 1522,
      "拘": 1523,
      "拙": 1524,
      "拚": 1525,
      "招": 1526,
      "拜": 1527,
      "拟": 1528,
      "拢": 1529,
      "拣": 1530,
      "拥": 1531,
      "拦": 1532,
      "拧": 1533,
      "拨": 1534,
      "择": 1535,
      "括": 1536,
      "拭": 1537,
      "拯": 1538,
      "拱": 1539,
      "拳": 1540,
      "拴": 1541,
      "拷": 1542,
      "拼": 1543,
      "拽": 1544,
      "拾": 1545,
      "拿": 1546,
      "持": 1547,
      "挂": 1548,
      "指": 1549,
      "按": 1550,
      "挎": 1551,
      "挑": 1552,
      "挖": 1553,
      "挚": 1554,
      "挛": 1555,
      "挟": 1556,
      "挠": 1557,
      "挡": 1558,
      "挣": 1559,
      "挤": 1560,
      "挥": 1561,
      "挨": 1562,
      "挪": 1563,
      "挫": 1564,
      "振": 1565,
      "挺": 1566,
      "挽": 1567,
      "捂": 1568,
      "捅": 1569,
      "捆": 1570,
      "捉": 1571,
      "捍": 1572,
      "捏": 1573,
      "捐": 1574,
      "捕": 1575,
      "捞": 1576,
      "损": 1577,
      "捡": 1578,
      "换": 1579,
      "捣": 1580,
      "捧": 1581,
      "据": 1582,
      "捶": 1583,
      "捷": 1584,
      "捻": 1585,
      "掀": 1586,
      "掂": 1587,
      "授": 1588,
      "掉": 1589,
      "掌": 1590,
      "掏": 1591,
      "掐": 1592,
      "排": 1593,
      "掘": 1594,
      "掠": 1595,
      "探": 1596,
      "接": 1597,
      "控": 1598,
      "推": 1599,
      "掩": 1600,
      "措": 1601,
      "掬": 1602,
      "掰": 1603,
      "掷": 1604,
      "掺": 1605,
      "掾": 1606,
      "揉": 1607,
      "揍": 1608,
      "描": 1609,
      "提": 1610,
      "插": 1611,
      "握": 1612,
      "揣": 1613,
      "揪": 1614,
      "揭": 1615,
      "援": 1616,
      "揶": 1617,
      "揽": 1618,
      "搀": 1619,
      "搁": 1620,
      "搂": 1621,
      "搅": 1622,
      "搏": 1623,
      "搐": 1624,
      "搓": 1625,
      "搔": 1626,
      "搜": 1627,
      "搞": 1628,
      "搡": 1629,
      "搬": 1630,
      "搭": 1631,
      "携": 1632,
      "摄": 1633,
      "摆": 1634,
      "摇": 1635,
      "摊": 1636,
      "摔": 1637,
      "摘": 1638,
      "摞": 1639,
      "摧": 1640,
      "摩": 1641,
      "摸": 1642,
      "撂": 1643,
      "撇": 1644,
      "撑": 1645,
      "撒": 1646,
      "撕": 1647,
      "撖": 1648,
      "撞": 1649,
      "撤": 1650,
      "撩": 1651,
      "撬": 1652,
      "播": 1653,
      "撮": 1654,
      "撰": 1655,
      "撵": 1656,
      "撼": 1657,
      "擀": 1658,
      "擂": 1659,
      "擅": 1660,
      "操": 1661,
      "擎": 1662,
      "擦": 1663,
      "攀": 1664,
      "攒": 1665,
      "攘": 1666,
      "攥": 1667,
      "攫": 1668,
      "支": 1669,
      "收": 1670,
      "攸": 1671,
      "改": 1672,
      "攻": 1673,
      "放": 1674,
      "政": 1675,
      "故": 1676,
      "效": 1677,
      "敌": 1678,
      "敏": 1679,
      "救": 1680,
      "教": 1681,
      "敛": 1682,
      "敝": 1683,
      "敞": 1684,
      "敢": 1685,
      "散": 1686,
      "敦": 1687,
      "敬": 1688,
      "数": 1689,
      "敲": 1690,
      "整": 1691,
      "敷": 1692,
      "文": 1693,
      "斋": 1694,
      "斐": 1695,
      "斑": 1696,
      "斓": 1697,
      "斗": 1698,
      "料": 1699,
      "斜": 1700,
      "斟": 1701,
      "斤": 1702,
      "斥": 1703,
      "斧": 1704,
      "斩": 1705,
      "断": 1706,
      "斯": 1707,
      "新": 1708,
      "方": 1709,
      "施": 1710,
      "旁": 1711,
      "旅": 1712,
      "旋": 1713,
      "族": 1714,
      "旗": 1715,
      "无": 1716,
      "既": 1717,
      "日": 1718,
      "旦": 1719,
      "旧": 1720,
      "旨": 1721,
      "早": 1722,
      "旭": 1723,
      "旱": 1724,
      "时": 1725,
      "旷": 1726,
      "旺": 1727,
      "昀": 1728,
      "昂": 1729,
      "昆": 1730,
      "昌": 1731,
      "明": 1732,
      "昏": 1733,
      "易": 1734,
      "昔": 1735,
      "昙": 1736,
      "星": 1737,
      "映": 1738,
      "春": 1739,
      "昧": 1740,
      "昨": 1741,
      "昭": 1742,
      "是": 1743,
      "昵": 1744,
      "昼": 1745,
      "显": 1746,
      "晃": 1747,
      "晋": 1748,
      "晌": 1749,
      "晒": 1750,
      "晓": 1751,
      "晕": 1752,
      "晖": 1753,
      "晚": 1754,
      "晤": 1755,
      "晦": 1756,
      "晨": 1757,
      "普": 1758,
      "景": 1759,
      "晰": 1760,
      "晴": 1761,
      "晶": 1762,
      "晷": 1763,
      "智": 1764,
      "晾": 1765,
      "暂": 1766,
      "暇": 1767,
      "暑": 1768,
      "暖": 1769,
      "暗": 1770,
      "暧": 1771,
      "暮": 1772,
      "暴": 1773,
      "曙": 1774,
      "曜": 1775,
      "曝": 1776,
      "曦": 1777,
      "曲": 1778,
      "曳": 1779,
      "更": 1780,
      "曹": 1781,
      "曼": 1782,
      "曾": 1783,
      "替": 1784,
      "最": 1785,
      "月": 1786,
      "有": 1787,
      "朋": 1788,
      "服": 1789,
      "朔": 1790,
      "朕": 1791,
      "朗": 1792,
      "望": 1793,
      "朝": 1794,
      "期": 1795,
      "朦": 1796,
      "木": 1797,
      "未": 1798,
      "末": 1799,
      "本": 1800,
      "术": 1801,
      "朱": 1802,
      "朴": 1803,
      "朵": 1804,
      "机": 1805,
      "朽": 1806,
      "杀": 1807,
      "杂": 1808,
      "权": 1809,
      "杆": 1810,
      "杈": 1811,
      "杉": 1812,
      "李": 1813,
      "杏": 1814,
      "材": 1815,
      "村": 1816,
      "杓": 1817,
      "杖": 1818,
      "杜": 1819,
      "杞": 1820,
      "束": 1821,
      "杠": 1822,
      "条": 1823,
      "来": 1824,
      "杨": 1825,
      "杭": 1826,
      "杯": 1827,
      "杰": 1828,
      "松": 1829,
      "板": 1830,
      "极": 1831,
      "构": 1832,
      "析": 1833,
      "枕": 1834,
      "林": 1835,
      "枚": 1836,
      "果": 1837,
      "枝": 1838,
      "枞": 1839,
      "枢": 1840,
      "枪": 1841,
      "枫": 1842,
      "枯": 1843,
      "架": 1844,
      "枷": 1845,
      "柄": 1846,
      "柏": 1847,
      "某": 1848,
      "染": 1849,
      "柔": 1850,
      "柜": 1851,
      "柞": 1852,
      "柠": 1853,
      "查": 1854,
      "柯": 1855,
      "柱": 1856,
      "柳": 1857,
      "柴": 1858,
      "柿": 1859,
      "栅": 1860,
      "标": 1861,
      "栈": 1862,
      "栉": 1863,
      "栋": 1864,
      "栎": 1865,
      "栏": 1866,
      "树": 1867,
      "栓": 1868,
      "栖": 1869,
      "栗": 1870,
      "校": 1871,
      "栩": 1872,
      "株": 1873,
      "样": 1874,
      "核": 1875,
      "根": 1876,
      "格": 1877,
      "栽": 1878,
      "桁": 1879,
      "桃": 1880,
      "桅": 1881,
      "框": 1882,
      "案": 1883,
      "桌": 1884,
      "桎": 1885,
      "桐": 1886,
      "桑": 1887,
      "桓": 1888,
      "桔": 1889,
      "档": 1890,
      "桥": 1891,
      "桦": 1892,
      "桨": 1893,
      "桩": 1894,
      "桶": 1895,
      "梁": 1896,
      "梅": 1897,
      "梢": 1898,
      "梦": 1899,
      "梧": 1900,
      "梭": 1901,
      "梯": 1902,
      "械": 1903,
      "梳": 1904,
      "梵": 1905,
      "检": 1906,
      "棉": 1907,
      "棋": 1908,
      "棍": 1909,
      "棒": 1910,
      "棕": 1911,
      "棘": 1912,
      "棚": 1913,
      "森": 1914,
      "棱": 1915,
      "棵": 1916,
      "棺": 1917,
      "椅": 1918,
      "植": 1919,
      "椎": 1920,
      "椐": 1921,
      "椒": 1922,
      "椭": 1923,
      "椰": 1924,
      "楂": 1925,
      "楔": 1926,
      "楚": 1927,
      "楞": 1928,
      "楠": 1929,
      "楷": 1930,
      "楼": 1931,
      "概": 1932,
      "榄": 1933,
      "榆": 1934,
      "榈": 1935,
      "榔": 1936,
      "榕": 1937,
      "榨": 1938,
      "榭": 1939,
      "榴": 1940,
      "榻": 1941,
      "槌": 1942,
      "槐": 1943,
      "槛": 1944,
      "槟": 1945,
      "槽": 1946,
      "樊": 1947,
      "樟": 1948,
      "模": 1949,
      "横": 1950,
      "樽": 1951,
      "橄": 1952,
      "橇": 1953,
      "橘": 1954,
      "橙": 1955,
      "橡": 1956,
      "橱": 1957,
      "檀": 1958,
      "檐": 1959,
      "檬": 1960,
      "欠": 1961,
      "次": 1962,
      "欢": 1963,
      "欣": 1964,
      "欧": 1965,
      "欲": 1966,
      "欺": 1967,
      "款": 1968,
      "歇": 1969,
      "歉": 1970,
      "歌": 1971,
      "止": 1972,
      "正": 1973,
      "此": 1974,
      "步": 1975,
      "武": 1976,
      "歧": 1977,
      "歪": 1978,
      "死": 1979,
      "歼": 1980,
      "殆": 1981,
      "殊": 1982,
      "残": 1983,
      "殒": 1984,
      "殓": 1985,
      "殖": 1986,
      "殚": 1987,
      "殡": 1988,
      "殴": 1989,
      "段": 1990,
      "殷": 1991,
      "殿": 1992,
      "毁": 1993,
      "毅": 1994,
      "母": 1995,
      "每": 1996,
      "毒": 1997,
      "比": 1998,
      "毕": 1999,
      "毙": 2000,
      "毛": 2001,
      "毫": 2002,
      "毯": 2003,
      "氏": 2004,
      "民": 2005,
      "氓": 2006,
      "气": 2007,
      "氕": 2008,
      "氖": 2009,
      "氘": 2010,
      "氚": 2011,
      "氛": 2012,
      "氟": 2013,
      "氢": 2014,
      "氦": 2015,
      "氧": 2016,
      "氨": 2017,
      "氮": 2018,
      "氯": 2019,
      "氰": 2020,
      "水": 2021,
      "永": 2022,
      "汀": 2023,
      "汁": 2024,
      "求": 2025,
      "汇": 2026,
      "汉": 2027,
      "汐": 2028,
      "汗": 2029,
      "汛": 2030,
      "江": 2031,
      "池": 2032,
      "污": 2033,
      "汤": 2034,
      "汨": 2035,
      "汩": 2036,
      "汪": 2037,
      "汰": 2038,
      "汲": 2039,
      "汹": 2040,
      "汽": 2041,
      "汾": 2042,
      "沁": 2043,
      "沃": 2044,
      "沈": 2045,
      "沉": 2046,
      "沌": 2047,
      "沐": 2048,
      "沓": 2049,
      "沙": 2050,
      "沛": 2051,
      "沟": 2052,
      "没": 2053,
      "沥": 2054,
      "沦": 2055,
      "沧": 2056,
      "沫": 2057,
      "沮": 2058,
      "沱": 2059,
      "河": 2060,
      "沸": 2061,
      "油": 2062,
      "治": 2063,
      "沼": 2064,
      "沽": 2065,
      "沾": 2066,
      "沿": 2067,
      "泄": 2068,
      "泉": 2069,
      "泊": 2070,
      "法": 2071,
      "泛": 2072,
      "泞": 2073,
      "泡": 2074,
      "波": 2075,
      "泣": 2076,
      "泥": 2077,
      "注": 2078,
      "泪": 2079,
      "泰": 2080,
      "泳": 2081,
      "泵": 2082,
      "泻": 2083,
      "泼": 2084,
      "泽": 2085,
      "泾": 2086,
      "洁": 2087,
      "洋": 2088,
      "洒": 2089,
      "洗": 2090,
      "洛": 2091,
      "洞": 2092,
      "津": 2093,
      "洪": 2094,
      "洲": 2095,
      "活": 2096,
      "洼": 2097,
      "洽": 2098,
      "派": 2099,
      "流": 2100,
      "浅": 2101,
      "浆": 2102,
      "浇": 2103,
      "浊": 2104,
      "测": 2105,
      "济": 2106,
      "浏": 2107,
      "浑": 2108,
      "浓": 2109,
      "浦": 2110,
      "浩": 2111,
      "浪": 2112,
      "浮": 2113,
      "浴": 2114,
      "海": 2115,
      "浸": 2116,
      "涂": 2117,
      "涅": 2118,
      "消": 2119,
      "涉": 2120,
      "涌": 2121,
      "涎": 2122,
      "涓": 2123,
      "涕": 2124,
      "涛": 2125,
      "涟": 2126,
      "涡": 2127,
      "涤": 2128,
      "润": 2129,
      "涨": 2130,
      "涩": 2131,
      "涯": 2132,
      "液": 2133,
      "涵": 2134,
      "涸": 2135,
      "淀": 2136,
      "淅": 2137,
      "淇": 2138,
      "淋": 2139,
      "淌": 2140,
      "淑": 2141,
      "淘": 2142,
      "淙": 2143,
      "淡": 2144,
      "淤": 2145,
      "淫": 2146,
      "深": 2147,
      "混": 2148,
      "淹": 2149,
      "添": 2150,
      "淼": 2151,
      "清": 2152,
      "渊": 2153,
      "渍": 2154,
      "渎": 2155,
      "渐": 2156,
      "渔": 2157,
      "渗": 2158,
      "渠": 2159,
      "渡": 2160,
      "渣": 2161,
      "渤": 2162,
      "渥": 2163,
      "温": 2164,
      "渭": 2165,
      "港": 2166,
      "渲": 2167,
      "渴": 2168,
      "游": 2169,
      "渺": 2170,
      "湃": 2171,
      "湍": 2172,
      "湖": 2173,
      "湘": 2174,
      "湛": 2175,
      "湮": 2176,
      "湾": 2177,
      "湿": 2178,
      "溃": 2179,
      "溅": 2180,
      "溉": 2181,
      "溏": 2182,
      "源": 2183,
      "溜": 2184,
      "溢": 2185,
      "溪": 2186,
      "溯": 2187,
      "溴": 2188,
      "溶": 2189,
      "溺": 2190,
      "滂": 2191,
      "滋": 2192,
      "滑": 2193,
      "滔": 2194,
      "滚": 2195,
      "滞": 2196,
      "满": 2197,
      "滤": 2198,
      "滥": 2199,
      "滨": 2200,
      "滩": 2201,
      "滴": 2202,
      "漂": 2203,
      "漆": 2204,
      "漉": 2205,
      "漏": 2206,
      "漓": 2207,
      "演": 2208,
      "漠": 2209,
      "漪": 2210,
      "漫": 2211,
      "漱": 2212,
      "漾": 2213,
      "潇": 2214,
      "潘": 2215,
      "潜": 2216,
      "潢": 2217,
      "潦": 2218,
      "潭": 2219,
      "潮": 2220,
      "澄": 2221,
      "澈": 2222,
      "澎": 2223,
      "澜": 2224,
      "澡": 2225,
      "澳": 2226,
      "激": 2227,
      "濑": 2228,
      "濒": 2229,
      "瀑": 2230,
      "瀚": 2231,
      "灌": 2232,
      "火": 2233,
      "灭": 2234,
      "灯": 2235,
      "灰": 2236,
      "灵": 2237,
      "灶": 2238,
      "灼": 2239,
      "灾": 2240,
      "灿": 2241,
      "炉": 2242,
      "炊": 2243,
      "炎": 2244,
      "炒": 2245,
      "炕": 2246,
      "炖": 2247,
      "炙": 2248,
      "炫": 2249,
      "炬": 2250,
      "炭": 2251,
      "炮": 2252,
      "炯": 2253,
      "炸": 2254,
      "点": 2255,
      "炼": 2256,
      "炽": 2257,
      "烁": 2258,
      "烂": 2259,
      "烈": 2260,
      "烘": 2261,
      "烙": 2262,
      "烛": 2263,
      "烟": 2264,
      "烤": 2265,
      "烦": 2266,
      "烧": 2267,
      "烫": 2268,
      "烬": 2269,
      "热": 2270,
      "烷": 2271,
      "烹": 2272,
      "焉": 2273,
      "焊": 2274,
      "焕": 2275,
      "焙": 2276,
      "焚": 2277,
      "焦": 2278,
      "焰": 2279,
      "然": 2280,
      "煅": 2281,
      "煌": 2282,
      "煎": 2283,
      "煞": 2284,
      "煤": 2285,
      "煦": 2286,
      "照": 2287,
      "煮": 2288,
      "煸": 2289,
      "熄": 2290,
      "熊": 2291,
      "熏": 2292,
      "熔": 2293,
      "熙": 2294,
      "熟": 2295,
      "熠": 2296,
      "熨": 2297,
      "熬": 2298,
      "熵": 2299,
      "燃": 2300,
      "燎": 2301,
      "燕": 2302,
      "燥": 2303,
      "爆": 2304,
      "爪": 2305,
      "爬": 2306,
      "爱": 2307,
      "爵": 2308,
      "父": 2309,
      "爷": 2310,
      "爸": 2311,
      "爹": 2312,
      "爽": 2313,
      "片": 2314,
      "版": 2315,
      "牌": 2316,
      "牒": 2317,
      "牙": 2318,
      "牛": 2319,
      "牢": 2320,
      "牧": 2321,
      "物": 2322,
      "牲": 2323,
      "牵": 2324,
      "特": 2325,
      "牺": 2326,
      "犀": 2327,
      "犁": 2328,
      "犄": 2329,
      "犬": 2330,
      "犯": 2331,
      "状": 2332,
      "犷": 2333,
      "犸": 2334,
      "犹": 2335,
      "狂": 2336,
      "狄": 2337,
      "狈": 2338,
      "狍": 2339,
      "狐": 2340,
      "狗": 2341,
      "狙": 2342,
      "狞": 2343,
      "狠": 2344,
      "狡": 2345,
      "狩": 2346,
      "独": 2347,
      "狭": 2348,
      "狮": 2349,
      "狰": 2350,
      "狱": 2351,
      "狸": 2352,
      "狼": 2353,
      "猎": 2354,
      "猖": 2355,
      "猛": 2356,
      "猜": 2357,
      "猝": 2358,
      "猩": 2359,
      "猪": 2360,
      "猫": 2361,
      "献": 2362,
      "猴": 2363,
      "猾": 2364,
      "猿": 2365,
      "獠": 2366,
      "玄": 2367,
      "率": 2368,
      "玉": 2369,
      "王": 2370,
      "玛": 2371,
      "玩": 2372,
      "玫": 2373,
      "环": 2374,
      "现": 2375,
      "玲": 2376,
      "玻": 2377,
      "珂": 2378,
      "珊": 2379,
      "珍": 2380,
      "珑": 2381,
      "珠": 2382,
      "珥": 2383,
      "班": 2384,
      "球": 2385,
      "理": 2386,
      "琉": 2387,
      "琐": 2388,
      "琢": 2389,
      "琳": 2390,
      "琴": 2391,
      "琼": 2392,
      "瑕": 2393,
      "瑙": 2394,
      "瑚": 2395,
      "瑞": 2396,
      "瑟": 2397,
      "瑰": 2398,
      "瑶": 2399,
      "璀": 2400,
      "璃": 2401,
      "璨": 2402,
      "瓜": 2403,
      "瓣": 2404,
      "瓦": 2405,
      "瓮": 2406,
      "瓶": 2407,
      "瓷": 2408,
      "甄": 2409,
      "甘": 2410,
      "甚": 2411,
      "甜": 2412,
      "生": 2413,
      "用": 2414,
      "甩": 2415,
      "甭": 2416,
      "田": 2417,
      "由": 2418,
      "甲": 2419,
      "申": 2420,
      "电": 2421,
      "男": 2422,
      "甸": 2423,
      "画": 2424,
      "畅": 2425,
      "界": 2426,
      "畏": 2427,
      "畔": 2428,
      "留": 2429,
      "畜": 2430,
      "略": 2431,
      "番": 2432,
      "畴": 2433,
      "畸": 2434,
      "疆": 2435,
      "疏": 2436,
      "疑": 2437,
      "疗": 2438,
      "疙": 2439,
      "疚": 2440,
      "疤": 2441,
      "疫": 2442,
      "疮": 2443,
      "疯": 2444,
      "疲": 2445,
      "疵": 2446,
      "疼": 2447,
      "疾": 2448,
      "病": 2449,
      "症": 2450,
      "痉": 2451,
      "痊": 2452,
      "痒": 2453,
      "痕": 2454,
      "痛": 2455,
      "痪": 2456,
      "痰": 2457,
      "痴": 2458,
      "痹": 2459,
      "瘁": 2460,
      "瘙": 2461,
      "瘟": 2462,
      "瘠": 2463,
      "瘤": 2464,
      "瘦": 2465,
      "瘩": 2466,
      "瘪": 2467,
      "瘫": 2468,
      "瘴": 2469,
      "瘸": 2470,
      "瘾": 2471,
      "癌": 2472,
      "癖": 2473,
      "癫": 2474,
      "登": 2475,
      "白": 2476,
      "百": 2477,
      "皂": 2478,
      "的": 2479,
      "皆": 2480,
      "皇": 2481,
      "皈": 2482,
      "皑": 2483,
      "皓": 2484,
      "皙": 2485,
      "皮": 2486,
      "皱": 2487,
      "皲": 2488,
      "皿": 2489,
      "盆": 2490,
      "盈": 2491,
      "益": 2492,
      "盎": 2493,
      "盏": 2494,
      "盐": 2495,
      "监": 2496,
      "盒": 2497,
      "盔": 2498,
      "盖": 2499,
      "盗": 2500,
      "盘": 2501,
      "盛": 2502,
      "盟": 2503,
      "盥": 2504,
      "目": 2505,
      "盯": 2506,
      "盲": 2507,
      "直": 2508,
      "相": 2509,
      "盹": 2510,
      "盼": 2511,
      "盾": 2512,
      "省": 2513,
      "眉": 2514,
      "看": 2515,
      "真": 2516,
      "眠": 2517,
      "眨": 2518,
      "眩": 2519,
      "眬": 2520,
      "眯": 2521,
      "眶": 2522,
      "眷": 2523,
      "眸": 2524,
      "眺": 2525,
      "眼": 2526,
      "着": 2527,
      "睁": 2528,
      "睐": 2529,
      "睑": 2530,
      "睛": 2531,
      "睡": 2532,
      "督": 2533,
      "睦": 2534,
      "睫": 2535,
      "睬": 2536,
      "睹": 2537,
      "睽": 2538,
      "睿": 2539,
      "瞄": 2540,
      "瞅": 2541,
      "瞌": 2542,
      "瞎": 2543,
      "瞒": 2544,
      "瞟": 2545,
      "瞠": 2546,
      "瞥": 2547,
      "瞧": 2548,
      "瞩": 2549,
      "瞪": 2550,
      "瞬": 2551,
      "瞰": 2552,
      "瞳": 2553,
      "瞻": 2554,
      "矇": 2555,
      "矗": 2556,
      "矛": 2557,
      "矢": 2558,
      "矣": 2559,
      "知": 2560,
      "矩": 2561,
      "矫": 2562,
      "短": 2563,
      "矮": 2564,
      "石": 2565,
      "矶": 2566,
      "矸": 2567,
      "矿": 2568,
      "码": 2569,
      "砂": 2570,
      "砌": 2571,
      "砍": 2572,
      "研": 2573,
      "砖": 2574,
      "砝": 2575,
      "砥": 2576,
      "砰": 2577,
      "破": 2578,
      "砸": 2579,
      "砺": 2580,
      "砾": 2581,
      "础": 2582,
      "硅": 2583,
      "硕": 2584,
      "硝": 2585,
      "硫": 2586,
      "硬": 2587,
      "确": 2588,
      "碉": 2589,
      "碌": 2590,
      "碍": 2591,
      "碎": 2592,
      "碑": 2593,
      "碗": 2594,
      "碘": 2595,
      "碛": 2596,
      "碜": 2597,
      "碟": 2598,
      "碣": 2599,
      "碧": 2600,
      "碰": 2601,
      "碱": 2602,
      "碳": 2603,
      "碴": 2604,
      "碾": 2605,
      "磁": 2606,
      "磅": 2607,
      "磋": 2608,
      "磐": 2609,
      "磕": 2610,
      "磨": 2611,
      "磷": 2612,
      "磺": 2613,
      "礁": 2614,
      "礴": 2615,
      "示": 2616,
      "礼": 2617,
      "社": 2618,
      "祁": 2619,
      "祈": 2620,
      "祖": 2621,
      "祗": 2622,
      "祝": 2623,
      "神": 2624,
      "祟": 2625,
      "祠": 2626,
      "祥": 2627,
      "票": 2628,
      "祭": 2629,
      "祯": 2630,
      "祷": 2631,
      "祸": 2632,
      "禁": 2633,
      "福": 2634,
      "离": 2635,
      "禽": 2636,
      "禾": 2637,
      "秀": 2638,
      "私": 2639,
      "秃": 2640,
      "秆": 2641,
      "秉": 2642,
      "秋": 2643,
      "种": 2644,
      "科": 2645,
      "秒": 2646,
      "秘": 2647,
      "租": 2648,
      "秤": 2649,
      "秦": 2650,
      "秧": 2651,
      "秩": 2652,
      "积": 2653,
      "称": 2654,
      "秸": 2655,
      "移": 2656,
      "秽": 2657,
      "稀": 2658,
      "程": 2659,
      "稍": 2660,
      "税": 2661,
      "稚": 2662,
      "稠": 2663,
      "稣": 2664,
      "稳": 2665,
      "稻": 2666,
      "稼": 2667,
      "稽": 2668,
      "稿": 2669,
      "穆": 2670,
      "穗": 2671,
      "穴": 2672,
      "究": 2673,
      "穷": 2674,
      "穹": 2675,
      "空": 2676,
      "穿": 2677,
      "突": 2678,
      "窃": 2679,
      "窄": 2680,
      "窍": 2681,
      "窑": 2682,
      "窒": 2683,
      "窕": 2684,
      "窖": 2685,
      "窗": 2686,
      "窘": 2687,
      "窜": 2688,
      "窝": 2689,
      "窟": 2690,
      "窥": 2691,
      "窿": 2692,
      "立": 2693,
      "竖": 2694,
      "站": 2695,
      "竞": 2696,
      "竟": 2697,
      "章": 2698,
      "童": 2699,
      "竭": 2700,
      "端": 2701,
      "竹": 2702,
      "竿": 2703,
      "笆": 2704,
      "笑": 2705,
      "笔": 2706,
      "笛": 2707,
      "符": 2708,
      "笨": 2709,
      "第": 2710,
      "笼": 2711,
      "等": 2712,
      "筋": 2713,
      "筏": 2714,
      "筐": 2715,
      "筑": 2716,
      "筒": 2717,
      "答": 2718,
      "策": 2719,
      "筛": 2720,
      "筝": 2721,
      "筷": 2722,
      "筹": 2723,
      "签": 2724,
      "简": 2725,
      "箍": 2726,
      "箔": 2727,
      "算": 2728,
      "管": 2729,
      "箭": 2730,
      "箱": 2731,
      "篆": 2732,
      "篇": 2733,
      "篝": 2734,
      "篡": 2735,
      "篮": 2736,
      "篱": 2737,
      "篷": 2738,
      "簇": 2739,
      "簧": 2740,
      "簸": 2741,
      "簿": 2742,
      "籁": 2743,
      "籍": 2744,
      "米": 2745,
      "类": 2746,
      "籽": 2747,
      "粉": 2748,
      "粒": 2749,
      "粗": 2750,
      "粘": 2751,
      "粥": 2752,
      "粪": 2753,
      "粮": 2754,
      "粱": 2755,
      "粹": 2756,
      "粼": 2757,
      "粽": 2758,
      "精": 2759,
      "糅": 2760,
      "糊": 2761,
      "糕": 2762,
      "糖": 2763,
      "糙": 2764,
      "糟": 2765,
      "系": 2766,
      "紊": 2767,
      "素": 2768,
      "索": 2769,
      "紧": 2770,
      "紫": 2771,
      "累": 2772,
      "絮": 2773,
      "繁": 2774,
      "纂": 2775,
      "纠": 2776,
      "红": 2777,
      "纣": 2778,
      "纤": 2779,
      "约": 2780,
      "级": 2781,
      "纪": 2782,
      "纬": 2783,
      "纭": 2784,
      "纯": 2785,
      "纰": 2786,
      "纱": 2787,
      "纲": 2788,
      "纳": 2789,
      "纵": 2790,
      "纷": 2791,
      "纸": 2792,
      "纹": 2793,
      "纺": 2794,
      "纽": 2795,
      "线": 2796,
      "练": 2797,
      "组": 2798,
      "绅": 2799,
      "细": 2800,
      "织": 2801,
      "终": 2802,
      "绊": 2803,
      "绍": 2804,
      "绎": 2805,
      "经": 2806,
      "绑": 2807,
      "绒": 2808,
      "结": 2809,
      "绕": 2810,
      "绘": 2811,
      "给": 2812,
      "绚": 2813,
      "络": 2814,
      "绝": 2815,
      "绞": 2816,
      "统": 2817,
      "绢": 2818,
      "绣": 2819,
      "继": 2820,
      "绩": 2821,
      "绪": 2822,
      "续": 2823,
      "绰": 2824,
      "绳": 2825,
      "维": 2826,
      "绵": 2827,
      "绶": 2828,
      "绷": 2829,
      "绸": 2830,
      "综": 2831,
      "绽": 2832,
      "绾": 2833,
      "绿": 2834,
      "缀": 2835,
      "缄": 2836,
      "缅": 2837,
      "缆": 2838,
      "缈": 2839,
      "缎": 2840,
      "缓": 2841,
      "缕": 2842,
      "编": 2843,
      "缘": 2844,
      "缚": 2845,
      "缜": 2846,
      "缝": 2847,
      "缠": 2848,
      "缢": 2849,
      "缤": 2850,
      "缥": 2851,
      "缨": 2852,
      "缩": 2853,
      "缭": 2854,
      "缰": 2855,
      "缴": 2856,
      "缸": 2857,
      "缺": 2858,
      "罐": 2859,
      "网": 2860,
      "罕": 2861,
      "罗": 2862,
      "罚": 2863,
      "罢": 2864,
      "罩": 2865,
      "罪": 2866,
      "置": 2867,
      "署": 2868,
      "羁": 2869,
      "羊": 2870,
      "美": 2871,
      "羔": 2872,
      "羚": 2873,
      "羞": 2874,
      "羟": 2875,
      "羡": 2876,
      "群": 2877,
      "羰": 2878,
      "羲": 2879,
      "羸": 2880,
      "羽": 2881,
      "翁": 2882,
      "翅": 2883,
      "翎": 2884,
      "翔": 2885,
      "翘": 2886,
      "翠": 2887,
      "翩": 2888,
      "翰": 2889,
      "翱": 2890,
      "翻": 2891,
      "翼": 2892,
      "耀": 2893,
      "老": 2894,
      "考": 2895,
      "者": 2896,
      "而": 2897,
      "耍": 2898,
      "耐": 2899,
      "耕": 2900,
      "耗": 2901,
      "耙": 2902,
      "耳": 2903,
      "耶": 2904,
      "耸": 2905,
      "耻": 2906,
      "耽": 2907,
      "耿": 2908,
      "聆": 2909,
      "聊": 2910,
      "聋": 2911,
      "职": 2912,
      "联": 2913,
      "聘": 2914,
      "聚": 2915,
      "聪": 2916,
      "肃": 2917,
      "肆": 2918,
      "肇": 2919,
      "肉": 2920,
      "肋": 2921,
      "肌": 2922,
      "肓": 2923,
      "肖": 2924,
      "肚": 2925,
      "肛": 2926,
      "肝": 2927,
      "肠": 2928,
      "股": 2929,
      "肢": 2930,
      "肤": 2931,
      "肥": 2932,
      "肩": 2933,
      "肪": 2934,
      "肮": 2935,
      "肯": 2936,
      "育": 2937,
      "肺": 2938,
      "肾": 2939,
      "肿": 2940,
      "胀": 2941,
      "胁": 2942,
      "胃": 2943,
      "胆": 2944,
      "背": 2945,
      "胎": 2946,
      "胖": 2947,
      "胚": 2948,
      "胜": 2949,
      "胞": 2950,
      "胡": 2951,
      "胧": 2952,
      "胫": 2953,
      "胯": 2954,
      "胰": 2955,
      "胳": 2956,
      "胴": 2957,
      "胶": 2958,
      "胸": 2959,
      "胺": 2960,
      "能": 2961,
      "脂": 2962,
      "脆": 2963,
      "脉": 2964,
      "脊": 2965,
      "脏": 2966,
      "脐": 2967,
      "脑": 2968,
      "脓": 2969,
      "脖": 2970,
      "脚": 2971,
      "脯": 2972,
      "脱": 2973,
      "脸": 2974,
      "脾": 2975,
      "腈": 2976,
      "腊": 2977,
      "腋": 2978,
      "腐": 2979,
      "腑": 2980,
      "腔": 2981,
      "腕": 2982,
      "腥": 2983,
      "腮": 2984,
      "腰": 2985,
      "腱": 2986,
      "腹": 2987,
      "腺": 2988,
      "腻": 2989,
      "腾": 2990,
      "腿": 2991,
      "膀": 2992,
      "膊": 2993,
      "膏": 2994,
      "膛": 2995,
      "膜": 2996,
      "膝": 2997,
      "膨": 2998,
      "臂": 2999,
      "臃": 3000,
      "臆": 3001,
      "臣": 3002,
      "自": 3003,
      "臭": 3004,
      "至": 3005,
      "致": 3006,
      "臼": 3007,
      "舀": 3008,
      "舆": 3009,
      "舌": 3010,
      "舍": 3011,
      "舒": 3012,
      "舔": 3013,
      "舞": 3014,
      "舟": 3015,
      "舢": 3016,
      "航": 3017,
      "般": 3018,
      "舰": 3019,
      "舱": 3020,
      "舵": 3021,
      "舶": 3022,
      "舷": 3023,
      "船": 3024,
      "艇": 3025,
      "艘": 3026,
      "艮": 3027,
      "良": 3028,
      "艰": 3029,
      "色": 3030,
      "艳": 3031,
      "艺": 3032,
      "艾": 3033,
      "节": 3034,
      "芒": 3035,
      "芜": 3036,
      "芝": 3037,
      "芥": 3038,
      "芦": 3039,
      "芬": 3040,
      "芭": 3041,
      "芯": 3042,
      "花": 3043,
      "芳": 3044,
      "芽": 3045,
      "苇": 3046,
      "苍": 3047,
      "苏": 3048,
      "苔": 3049,
      "苗": 3050,
      "苛": 3051,
      "苟": 3052,
      "若": 3053,
      "苦": 3054,
      "英": 3055,
      "苹": 3056,
      "茂": 3057,
      "范": 3058,
      "茄": 3059,
      "茅": 3060,
      "茎": 3061,
      "茨": 3062,
      "茫": 3063,
      "茬": 3064,
      "茵": 3065,
      "茶": 3066,
      "茸": 3067,
      "荆": 3068,
      "草": 3069,
      "荐": 3070,
      "荒": 3071,
      "荡": 3072,
      "荣": 3073,
      "荤": 3074,
      "荧": 3075,
      "荫": 3076,
      "药": 3077,
      "荷": 3078,
      "荼": 3079,
      "莉": 3080,
      "莎": 3081,
      "莓": 3082,
      "莞": 3083,
      "莫": 3084,
      "莱": 3085,
      "莲": 3086,
      "获": 3087,
      "莹": 3088,
      "莺": 3089,
      "莽": 3090,
      "菇": 3091,
      "菊": 3092,
      "菌": 3093,
      "菜": 3094,
      "菩": 3095,
      "菱": 3096,
      "菲": 3097,
      "萃": 3098,
      "萄": 3099,
      "萌": 3100,
      "萍": 3101,
      "萎": 3102,
      "萝": 3103,
      "萤": 3104,
      "营": 3105,
      "萦": 3106,
      "萧": 3107,
      "萨": 3108,
      "落": 3109,
      "著": 3110,
      "葛": 3111,
      "葡": 3112,
      "董": 3113,
      "葫": 3114,
      "葬": 3115,
      "葵": 3116,
      "蒂": 3117,
      "蒙": 3118,
      "蒜": 3119,
      "蒸": 3120,
      "蒿": 3121,
      "蓄": 3122,
      "蓉": 3123,
      "蓝": 3124,
      "蓬": 3125,
      "蔑": 3126,
      "蔓": 3127,
      "蔚": 3128,
      "蔡": 3129,
      "蔫": 3130,
      "蔬": 3131,
      "蔷": 3132,
      "蔼": 3133,
      "蔽": 3134,
      "蕉": 3135,
      "蕊": 3136,
      "蕴": 3137,
      "蕾": 3138,
      "薄": 3139,
      "薇": 3140,
      "薛": 3141,
      "薪": 3142,
      "薯": 3143,
      "藉": 3144,
      "藏": 3145,
      "藓": 3146,
      "藕": 3147,
      "藤": 3148,
      "藻": 3149,
      "蘑": 3150,
      "蘸": 3151,
      "虎": 3152,
      "虏": 3153,
      "虐": 3154,
      "虑": 3155,
      "虔": 3156,
      "虚": 3157,
      "虫": 3158,
      "虹": 3159,
      "虽": 3160,
      "虾": 3161,
      "蚀": 3162,
      "蚁": 3163,
      "蚂": 3164,
      "蚊": 3165,
      "蚌": 3166,
      "蚓": 3167,
      "蚕": 3168,
      "蚜": 3169,
      "蚤": 3170,
      "蚪": 3171,
      "蚯": 3172,
      "蚱": 3173,
      "蛀": 3174,
      "蛆": 3175,
      "蛇": 3176,
      "蛋": 3177,
      "蛐": 3178,
      "蛙": 3179,
      "蛛": 3180,
      "蛮": 3181,
      "蛾": 3182,
      "蜂": 3183,
      "蜒": 3184,
      "蜓": 3185,
      "蜗": 3186,
      "蜘": 3187,
      "蜚": 3188,
      "蜜": 3189,
      "蜡": 3190,
      "蜥": 3191,
      "蜴": 3192,
      "蜷": 3193,
      "蜻": 3194,
      "蜿": 3195,
      "蝇": 3196,
      "蝈": 3197,
      "蝉": 3198,
      "蝌": 3199,
      "蝗": 3200,
      "蝙": 3201,
      "蝠": 3202,
      "蝴": 3203,
      "蝶": 3204,
      "螂": 3205,
      "螃": 3206,
      "融": 3207,
      "螨": 3208,
      "螳": 3209,
      "螺": 3210,
      "蟑": 3211,
      "蟒": 3212,
      "蟹": 3213,
      "蟾": 3214,
      "蠕": 3215,
      "蠢": 3216,
      "血": 3217,
      "衅": 3218,
      "行": 3219,
      "衍": 3220,
      "衔": 3221,
      "街": 3222,
      "衡": 3223,
      "衣": 3224,
      "补": 3225,
      "表": 3226,
      "衫": 3227,
      "衬": 3228,
      "衰": 3229,
      "衷": 3230,
      "袄": 3231,
      "袅": 3232,
      "袋": 3233,
      "袍": 3234,
      "袒": 3235,
      "袖": 3236,
      "袜": 3237,
      "袤": 3238,
      "被": 3239,
      "袭": 3240,
      "袱": 3241,
      "裁": 3242,
      "裂": 3243,
      "装": 3244,
      "裆": 3245,
      "裔": 3246,
      "裕": 3247,
      "裙": 3248,
      "裤": 3249,
      "裱": 3250,
      "裳": 3251,
      "裸": 3252,
      "裹": 3253,
      "褂": 3254,
      "褐": 3255,
      "褒": 3256,
      "褓": 3257,
      "褚": 3258,
      "褛": 3259,
      "褥": 3260,
      "褪": 3261,
      "褴": 3262,
      "褶": 3263,
      "襁": 3264,
      "襟": 3265,
      "西": 3266,
      "要": 3267,
      "覆": 3268,
      "见": 3269,
      "观": 3270,
      "规": 3271,
      "觅": 3272,
      "视": 3273,
      "览": 3274,
      "觉": 3275,
      "觑": 3276,
      "角": 3277,
      "解": 3278,
      "触": 3279,
      "言": 3280,
      "詹": 3281,
      "誉": 3282,
      "誊": 3283,
      "誓": 3284,
      "警": 3285,
      "计": 3286,
      "订": 3287,
      "认": 3288,
      "讥": 3289,
      "讨": 3290,
      "让": 3291,
      "讪": 3292,
      "训": 3293,
      "议": 3294,
      "讯": 3295,
      "记": 3296,
      "讲": 3297,
      "讳": 3298,
      "讶": 3299,
      "讷": 3300,
      "许": 3301,
      "论": 3302,
      "讼": 3303,
      "讽": 3304,
      "设": 3305,
      "访": 3306,
      "证": 3307,
      "诃": 3308,
      "评": 3309,
      "诅": 3310,
      "识": 3311,
      "诈": 3312,
      "诉": 3313,
      "诊": 3314,
      "诋": 3315,
      "词": 3316,
      "诏": 3317,
      "译": 3318,
      "试": 3319,
      "诗": 3320,
      "诚": 3321,
      "诛": 3322,
      "话": 3323,
      "诞": 3324,
      "诠": 3325,
      "诡": 3326,
      "询": 3327,
      "诣": 3328,
      "该": 3329,
      "详": 3330,
      "诧": 3331,
      "诫": 3332,
      "诬": 3333,
      "语": 3334,
      "误": 3335,
      "诱": 3336,
      "诲": 3337,
      "说": 3338,
      "诵": 3339,
      "请": 3340,
      "诸": 3341,
      "诺": 3342,
      "读": 3343,
      "诽": 3344,
      "课": 3345,
      "谁": 3346,
      "调": 3347,
      "谅": 3348,
      "谈": 3349,
      "谊": 3350,
      "谋": 3351,
      "谍": 3352,
      "谎": 3353,
      "谐": 3354,
      "谑": 3355,
      "谓": 3356,
      "谙": 3357,
      "谜": 3358,
      "谢": 3359,
      "谣": 3360,
      "谤": 3361,
      "谦": 3362,
      "谧": 3363,
      "谨": 3364,
      "谩": 3365,
      "谬": 3366,
      "谱": 3367,
      "谲": 3368,
      "谴": 3369,
      "谵": 3370,
      "谷": 3371,
      "豁": 3372,
      "豆": 3373,
      "豚": 3374,
      "象": 3375,
      "豪": 3376,
      "豫": 3377,
      "豹": 3378,
      "豺": 3379,
      "貉": 3380,
      "貌": 3381,
      "贝": 3382,
      "贞": 3383,
      "负": 3384,
      "贡": 3385,
      "财": 3386,
      "责": 3387,
      "贤": 3388,
      "败": 3389,
      "账": 3390,
      "货": 3391,
      "质": 3392,
      "贩": 3393,
      "贪": 3394,
      "贫": 3395,
      "贬": 3396,
      "购": 3397,
      "贮": 3398,
      "贯": 3399,
      "贱": 3400,
      "贴": 3401,
      "贵": 3402,
      "贷": 3403,
      "贸": 3404,
      "费": 3405,
      "贺": 3406,
      "贻": 3407,
      "贼": 3408,
      "贾": 3409,
      "贿": 3410,
      "赁": 3411,
      "赂": 3412,
      "资": 3413,
      "赋": 3414,
      "赌": 3415,
      "赎": 3416,
      "赏": 3417,
      "赐": 3418,
      "赔": 3419,
      "赖": 3420,
      "赘": 3421,
      "赚": 3422,
      "赛": 3423,
      "赞": 3424,
      "赠": 3425,
      "赡": 3426,
      "赢": 3427,
      "赤": 3428,
      "赦": 3429,
      "赫": 3430,
      "赭": 3431,
      "走": 3432,
      "赴": 3433,
      "赵": 3434,
      "赶": 3435,
      "起": 3436,
      "趁": 3437,
      "超": 3438,
      "越": 3439,
      "趋": 3440,
      "趟": 3441,
      "趣": 3442,
      "足": 3443,
      "趴": 3444,
      "趾": 3445,
      "跃": 3446,
      "跋": 3447,
      "跌": 3448,
      "跑": 3449,
      "跚": 3450,
      "距": 3451,
      "跟": 3452,
      "跨": 3453,
      "跪": 3454,
      "路": 3455,
      "跳": 3456,
      "践": 3457,
      "跺": 3458,
      "踊": 3459,
      "踏": 3460,
      "踞": 3461,
      "踢": 3462,
      "踩": 3463,
      "踪": 3464,
      "踱": 3465,
      "踵": 3466,
      "踹": 3467,
      "蹄": 3468,
      "蹈": 3469,
      "蹒": 3470,
      "蹦": 3471,
      "蹩": 3472,
      "蹬": 3473,
      "蹭": 3474,
      "蹲": 3475,
      "蹼": 3476,
      "蹾": 3477,
      "蹿": 3478,
      "躁": 3479,
      "身": 3480,
      "躬": 3481,
      "躯": 3482,
      "躲": 3483,
      "躺": 3484,
      "车": 3485,
      "轧": 3486,
      "轨": 3487,
      "轩": 3488,
      "转": 3489,
      "轭": 3490,
      "轮": 3491,
      "软": 3492,
      "轰": 3493,
      "轴": 3494,
      "轶": 3495,
      "轻": 3496,
      "载": 3497,
      "轿": 3498,
      "较": 3499,
      "辄": 3500,
      "辅": 3501,
      "辆": 3502,
      "辈": 3503,
      "辉": 3504,
      "辎": 3505,
      "辐": 3506,
      "辑": 3507,
      "输": 3508,
      "辖": 3509,
      "辗": 3510,
      "辘": 3511,
      "辙": 3512,
      "辛": 3513,
      "辜": 3514,
      "辞": 3515,
      "辟": 3516,
      "辣": 3517,
      "辨": 3518,
      "辩": 3519,
      "辫": 3520,
      "辰": 3521,
      "辱": 3522,
      "边": 3523,
      "辽": 3524,
      "达": 3525,
      "迁": 3526,
      "迂": 3527,
      "迄": 3528,
      "迅": 3529,
      "过": 3530,
      "迈": 3531,
      "迎": 3532,
      "运": 3533,
      "近": 3534,
      "返": 3535,
      "还": 3536,
      "这": 3537,
      "进": 3538,
      "远": 3539,
      "违": 3540,
      "连": 3541,
      "迟": 3542,
      "迢": 3543,
      "迥": 3544,
      "迪": 3545,
      "迫": 3546,
      "迭": 3547,
      "述": 3548,
      "迷": 3549,
      "迸": 3550,
      "迹": 3551,
      "追": 3552,
      "退": 3553,
      "送": 3554,
      "适": 3555,
      "逃": 3556,
      "逆": 3557,
      "选": 3558,
      "逊": 3559,
      "逍": 3560,
      "透": 3561,
      "逐": 3562,
      "递": 3563,
      "途": 3564,
      "逗": 3565,
      "通": 3566,
      "逛": 3567,
      "逝": 3568,
      "速": 3569,
      "造": 3570,
      "逢": 3571,
      "逮": 3572,
      "逸": 3573,
      "逻": 3574,
      "逼": 3575,
      "逾": 3576,
      "遁": 3577,
      "遂": 3578,
      "遇": 3579,
      "遍": 3580,
      "遏": 3581,
      "道": 3582,
      "遗": 3583,
      "遛": 3584,
      "遣": 3585,
      "遥": 3586,
      "遭": 3587,
      "遮": 3588,
      "遴": 3589,
      "遵": 3590,
      "避": 3591,
      "邀": 3592,
      "邃": 3593,
      "邑": 3594,
      "邓": 3595,
      "那": 3596,
      "邦": 3597,
      "邪": 3598,
      "邮": 3599,
      "邯": 3600,
      "邱": 3601,
      "邸": 3602,
      "邻": 3603,
      "郁": 3604,
      "郊": 3605,
      "郎": 3606,
      "郑": 3607,
      "郝": 3608,
      "郡": 3609,
      "部": 3610,
      "郭": 3611,
      "郸": 3612,
      "都": 3613,
      "鄂": 3614,
      "鄙": 3615,
      "酋": 3616,
      "酌": 3617,
      "配": 3618,
      "酒": 3619,
      "酗": 3620,
      "酝": 3621,
      "酣": 3622,
      "酪": 3623,
      "酬": 3624,
      "酰": 3625,
      "酱": 3626,
      "酵": 3627,
      "酶": 3628,
      "酷": 3629,
      "酸": 3630,
      "酿": 3631,
      "醉": 3632,
      "醒": 3633,
      "醺": 3634,
      "采": 3635,
      "釉": 3636,
      "释": 3637,
      "里": 3638,
      "重": 3639,
      "野": 3640,
      "量": 3641,
      "金": 3642,
      "鉴": 3643,
      "鑫": 3644,
      "针": 3645,
      "钉": 3646,
      "钎": 3647,
      "钒": 3648,
      "钓": 3649,
      "钙": 3650,
      "钛": 3651,
      "钝": 3652,
      "钞": 3653,
      "钟": 3654,
      "钢": 3655,
      "钥": 3656,
      "钦": 3657,
      "钧": 3658,
      "钩": 3659,
      "钮": 3660,
      "钯": 3661,
      "钱": 3662,
      "钳": 3663,
      "钴": 3664,
      "钻": 3665,
      "钾": 3666,
      "铀": 3667,
      "铁": 3668,
      "铂": 3669,
      "铃": 3670,
      "铅": 3671,
      "铆": 3672,
      "铐": 3673,
      "铒": 3674,
      "铛": 3675,
      "铜": 3676,
      "铝": 3677,
      "铠": 3678,
      "铬": 3679,
      "铭": 3680,
      "铰": 3681,
      "铲": 3682,
      "银": 3683,
      "铸": 3684,
      "铺": 3685,
      "链": 3686,
      "销": 3687,
      "锁": 3688,
      "锃": 3689,
      "锄": 3690,
      "锅": 3691,
      "锈": 3692,
      "锋": 3693,
      "锌": 3694,
      "锐": 3695,
      "错": 3696,
      "锚": 3697,
      "锡": 3698,
      "锢": 3699,
      "锣": 3700,
      "锤": 3701,
      "锥": 3702,
      "锦": 3703,
      "锨": 3704,
      "锭": 3705,
      "键": 3706,
      "锯": 3707,
      "锰": 3708,
      "锵": 3709,
      "锹": 3710,
      "镀": 3711,
      "镁": 3712,
      "镂": 3713,
      "镇": 3714,
      "镊": 3715,
      "镌": 3716,
      "镍": 3717,
      "镐": 3718,
      "镖": 3719,
      "镙": 3720,
      "镜": 3721,
      "镣": 3722,
      "镪": 3723,
      "镰": 3724,
      "镶": 3725,
      "长": 3726,
      "门": 3727,
      "闪": 3728,
      "闭": 3729,
      "问": 3730,
      "闯": 3731,
      "闲": 3732,
      "间": 3733,
      "闷": 3734,
      "闸": 3735,
      "闹": 3736,
      "闺": 3737,
      "闻": 3738,
      "阀": 3739,
      "阁": 3740,
      "阂": 3741,
      "阅": 3742,
      "阈": 3743,
      "阐": 3744,
      "阔": 3745,
      "阙": 3746,
      "队": 3747,
      "阱": 3748,
      "防": 3749,
      "阳": 3750,
      "阴": 3751,
      "阵": 3752,
      "阶": 3753,
      "阻": 3754,
      "阿": 3755,
      "附": 3756,
      "际": 3757,
      "陆": 3758,
      "陈": 3759,
      "陋": 3760,
      "陌": 3761,
      "降": 3762,
      "限": 3763,
      "陕": 3764,
      "陛": 3765,
      "陡": 3766,
      "院": 3767,
      "除": 3768,
      "陨": 3769,
      "险": 3770,
      "陪": 3771,
      "陵": 3772,
      "陶": 3773,
      "陷": 3774,
      "隅": 3775,
      "隆": 3776,
      "隋": 3777,
      "随": 3778,
      "隐": 3779,
      "隔": 3780,
      "隘": 3781,
      "隙": 3782,
      "障": 3783,
      "隧": 3784,
      "隶": 3785,
      "难": 3786,
      "雀": 3787,
      "雁": 3788,
      "雄": 3789,
      "雅": 3790,
      "集": 3791,
      "雇": 3792,
      "雏": 3793,
      "雕": 3794,
      "雨": 3795,
      "雪": 3796,
      "雳": 3797,
      "零": 3798,
      "雷": 3799,
      "雹": 3800,
      "雾": 3801,
      "需": 3802,
      "霄": 3803,
      "霆": 3804,
      "震": 3805,
      "霉": 3806,
      "霍": 3807,
      "霎": 3808,
      "霏": 3809,
      "霓": 3810,
      "霖": 3811,
      "霜": 3812,
      "霞": 3813,
      "霭": 3814,
      "霰": 3815,
      "露": 3816,
      "霸": 3817,
      "霹": 3818,
      "霾": 3819,
      "青": 3820,
      "靓": 3821,
      "靖": 3822,
      "静": 3823,
      "非": 3824,
      "靠": 3825,
      "靡": 3826,
      "面": 3827,
      "革": 3828,
      "靳": 3829,
      "靴": 3830,
      "靶": 3831,
      "鞋": 3832,
      "鞍": 3833,
      "鞘": 3834,
      "鞠": 3835,
      "鞭": 3836,
      "韦": 3837,
      "韧": 3838,
      "韩": 3839,
      "音": 3840,
      "韵": 3841,
      "韶": 3842,
      "页": 3843,
      "顶": 3844,
      "顷": 3845,
      "项": 3846,
      "顺": 3847,
      "须": 3848,
      "顽": 3849,
      "顾": 3850,
      "顿": 3851,
      "颀": 3852,
      "颁": 3853,
      "颂": 3854,
      "预": 3855,
      "颅": 3856,
      "领": 3857,
      "颇": 3858,
      "颈": 3859,
      "颊": 3860,
      "颐": 3861,
      "频": 3862,
      "颓": 3863,
      "颔": 3864,
      "颖": 3865,
      "颗": 3866,
      "题": 3867,
      "颚": 3868,
      "颜": 3869,
      "额": 3870,
      "颠": 3871,
      "颤": 3872,
      "颧": 3873,
      "风": 3874,
      "飒": 3875,
      "飓": 3876,
      "飕": 3877,
      "飘": 3878,
      "飙": 3879,
      "飞": 3880,
      "食": 3881,
      "餐": 3882,
      "餮": 3883,
      "饕": 3884,
      "饥": 3885,
      "饨": 3886,
      "饪": 3887,
      "饭": 3888,
      "饮": 3889,
      "饰": 3890,
      "饱": 3891,
      "饲": 3892,
      "饵": 3893,
      "饶": 3894,
      "饺": 3895,
      "饼": 3896,
      "饿": 3897,
      "馄": 3898,
      "馅": 3899,
      "馆": 3900,
      "馈": 3901,
      "馊": 3902,
      "馋": 3903,
      "馍": 3904,
      "馒": 3905,
      "首": 3906,
      "香": 3907,
      "馨": 3908,
      "马": 3909,
      "驭": 3910,
      "驮": 3911,
      "驯": 3912,
      "驰": 3913,
      "驱": 3914,
      "驳": 3915,
      "驴": 3916,
      "驶": 3917,
      "驹": 3918,
      "驻": 3919,
      "驼": 3920,
      "驾": 3921,
      "骁": 3922,
      "骂": 3923,
      "骄": 3924,
      "骇": 3925,
      "骋": 3926,
      "验": 3927,
      "骑": 3928,
      "骗": 3929,
      "骚": 3930,
      "骛": 3931,
      "骡": 3932,
      "骤": 3933,
      "骨": 3934,
      "骰": 3935,
      "骷": 3936,
      "骸": 3937,
      "骼": 3938,
      "髂": 3939,
      "髅": 3940,
      "髓": 3941,
      "高": 3942,
      "髦": 3943,
      "髻": 3944,
      "鬃": 3945,
      "鬈": 3946,
      "鬓": 3947,
      "鬼": 3948,
      "魁": 3949,
      "魂": 3950,
      "魄": 3951,
      "魅": 3952,
      "魏": 3953,
      "魔": 3954,
      "鱼": 3955,
      "鲁": 3956,
      "鲍": 3957,
      "鲜": 3958,
      "鲤": 3959,
      "鲨": 3960,
      "鲱": 3961,
      "鲸": 3962,
      "鳃": 3963,
      "鳄": 3964,
      "鳍": 3965,
      "鳕": 3966,
      "鳖": 3967,
      "鳞": 3968,
      "鸟": 3969,
      "鸡": 3970,
      "鸢": 3971,
      "鸣": 3972,
      "鸥": 3973,
      "鸦": 3974,
      "鸭": 3975,
      "鸽": 3976,
      "鸿": 3977,
      "鹄": 3978,
      "鹅": 3979,
      "鹊": 3980,
      "鹏": 3981,
      "鹤": 3982,
      "鹫": 3983,
      "鹰": 3984,
      "鹿": 3985,
      "麦": 3986,
      "麻": 3987,
      "黄": 3988,
      "黎": 3989,
      "黏": 3990,
      "黑": 3991,
      "默": 3992,
      "黛": 3993,
      "黝": 3994,
      "黯": 3995,
      "鼎": 3996,
      "鼐": 3997,
      "鼓": 3998,
      "鼠": 3999,
      "鼻": 4000,
      "鼾": 4001,
      "齐": 4002,
      "齿": 4003,
      "龄": 4004,
      "龙": 4005,
      "龛": 4006,
      "龟": 4007,
      "！": 4008,
      "＂": 4009,
      "％": 4010,
      "（": 4011,
      "）": 4012,
      "，": 4013,
      "－": 4014,
      "．": 4015,
      "／": 4016,
      "０": 4017,
      "１": 4018,
      "２": 4019,
      "３": 4020,
      "４": 4021,
      "５": 4022,
      "６": 4023,
      "７": 4024,
      "８": 4025,
      "９": 4026,
      "：": 4027,
      "；": 4028,
      "？": 4029,
      "Ａ": 4030,
      "Ｂ": 4031,
      "Ｃ": 4032,
      "Ｆ": 4033,
      "Ｇ": 4034,
      "Ｊ": 4035,
      "Ｌ": 4036,
      "Ｓ": 4037,
      "Ｗ": 4038,
      "～": 4039,
      "一个": 4040,
      "我们": 4041,
      "他们": 4042,
      "没有": 4043,
      "什么": 4044,
      "qu": 4045,
      "quo": 4046,
      "quot": 4047,
      "这个": 4048,
      "现在": 4049,
      "世界": 4050,
      "自己": 4051,
      "孩子": 4052,
      "看到": 4053,
      "了一": 4054,
      "中的": 4055,
      "可能": 4056,
      "知道": 4057,
      "地球": 4058,
      "太阳": 4059,
      "你们": 4060,
      "已经": 4061,
      "的一": 4062,
      "人类": 4063,
      "就是": 4064,
      "太空": 4065,
      "时间": 4066,
      "程心": 4067,
      "的人": 4068,
      "宇宙": 4069,
      "不是": 4070,
      "上的": 4071,
      "可以": 4072,
      "这是": 4073,
      "这样": 4074,
      "大的": 4075,
      "那个": 4076,
      "起来": 4077,
      "罗辑": 4078,
      "到了": 4079,
      "他的": 4080,
      "这种": 4081,
      "开始": 4082,
      "出现": 4083,
      "这些": 4084,
      "最后": 4085,
      "一样": 4086,
      "如果": 4087,
      "只是": 4088,
      "三体": 4089,
      "有一": 4090,
      "东西": 4091,
      "文明": 4092,
      "这时": 4093,
      "的大": 4094,
      "所有": 4095,
      "两个": 4096,
      "这里": 4097,
      "它们": 4098,
      "发现": 4099,
      "那些": 4100,
      "飞船": 4101,
      "来的": 4102,
      "部分": 4103,
      "看着": 4104,
      "还是": 4105,
      "人的": 4106,
      "进行": 4107,
      "是一": 4108,
      "自己的": 4109,
      "很快": 4110,
      "只有": 4111,
      "系统": 4112,
      "一次": 4113,
      "都是": 4114,
      "然后": 4115,
      "舰队": 4116,
      "色的": 4117,
      "信息": 4118,
      "怎么": 4119,
      "面的": 4120,
      "下来": 4121,
      "感觉": 4122,
      "时代": 4123,
      "国家": 4124,
      "人们": 4125,
      "城市": 4126,
      "的是": 4127,
      "了一个": 4128,
      "这一": 4129,
      "空间": 4130,
      "世纪": 4131,
      "还有": 4132,
      "因为": 4133,
      "技术": 4134,
      "出来": 4135,
      "工作": 4136,
      "进入": 4137,
      "孩子们": 4138,
      "汪淼": 4139,
      "的事": 4140,
      "的地": 4141,
      "这么": 4142,
      "研究": 4143,
      "它的": 4144,
      "完全": 4145,
      "出了": 4146,
      "社会": 4147,
      "是一个": 4148,
      "行星": 4149,
      "同时": 4150,
      "需要": 4151,
      "她的": 4152,
      "也不": 4153,
      "那么": 4154,
      "在这": 4155,
      "突然": 4156,
      "一直": 4157,
      "出的": 4158,
      "声音": 4159,
      "消失": 4160,
      "在一": 4161,
      "生活": 4162,
      "我的": 4163,
      "问题": 4164,
      "成了": 4165,
      "计划": 4166,
      "真的": 4167,
      "产生": 4168,
      "速度": 4169,
      "所以": 4170,
      "当然": 4171,
      "任何": 4172,
      "应该": 4173,
      "存在": 4174,
      "方向": 4175,
      "科学": 4176,
      "不到": 4177,
      "正在": 4178,
      "恒星": 4179,
      "生命": 4180,
      "那里": 4181,
      "只能": 4182,
      "我们的": 4183,
      "周围": 4184,
      "整个": 4185,
      "显示": 4186,
      "文洁": 4187,
      "不同": 4188,
      "三个": 4189,
      "他们的": 4190,
      "基地": 4191,
      "地说": 4192,
      "计算": 4193,
      "由于": 4194,
      "仿佛": 4195,
      "最高": 4196,
      "眼睛": 4197,
      "认为": 4198,
      "太阳系": 4199,
      "那是": 4200,
      "发生": 4201,
      "黑暗": 4202,
      "战争": 4203,
      "发射": 4204,
      "的小": 4205,
      "一种": 4206,
      "甚至": 4207,
      "不能": 4208,
      "点点": 4209,
      "也是": 4210,
      "第二": 4211,
      "引力": 4212,
      "不可能": 4213,
      "不会": 4214,
      "叶文洁": 4215,
      "中国": 4216,
      "看看": 4217,
      "许多": 4218,
      "长的": 4219,
      "智子": 4220,
      "目光": 4221,
      "目标": 4222,
      "以后": 4223,
      "前的": 4224,
      "第一": 4225,
      "历史": 4226,
      "游戏": 4227,
      "你的": 4228,
      "下去": 4229,
      "执政": 4230,
      "工程": 4231,
      "能够": 4232,
      "美国": 4233,
      "几个": 4234,
      "成为": 4235,
      "小时": 4236,
      "十分": 4237,
      "状态": 4238,
      "光速": 4239,
      "的东西": 4240,
      "是在": 4241,
      "空中": 4242,
      "面壁": 4243,
      "博士": 4244,
      "不过": 4245,
      "二十": 4246,
      "通过": 4247,
      "地上": 4248,
      "点点头": 4249,
      "巨大的": 4250,
      "注意": 4251,
      "的那": 4252,
      "不知道": 4253,
      "后来": 4254,
      "立刻": 4255,
      "距离": 4256,
      "肯定": 4257,
      "一片": 4258,
      "过去": 4259,
      "执政官": 4260,
      "小的": 4261,
      "上去": 4262,
      "克斯": 4263,
      "几乎": 4264,
      "AA": 4265,
      "变成": 4266,
      "菲利": 4267,
      "接着": 4268,
      "处于": 4269,
      "菲利克斯": 4270,
      "位置": 4271,
      "其他": 4272,
      "加速": 4273,
      "世界的": 4274,
      "的话": 4275,
      "00": 4276,
      "有一个": 4277,
      "其实": 4278,
      "时候": 4279,
      "无法": 4280,
      "继续": 4281,
      "告诉": 4282,
      "感到": 4283,
      "似乎": 4284,
      "成的": 4285,
      "控制": 4286,
      "运行": 4287,
      "想象": 4288,
      "华华": 4289,
      "面上": 4290,
      "下的": 4291,
      "好像": 4292,
      "计算机": 4293,
      "来自": 4294,
      "看到了": 4295,
      "有人": 4296,
      "一些": 4297,
      "纪元": 4298,
      "听到": 4299,
      "轨道": 4300,
      "一切": 4301,
      "公里": 4302,
      "回答": 4303,
      "虽然": 4304,
      "中心": 4305,
      "的光": 4306,
      "发出": 4307,
      "摇头": 4308,
      "爆炸": 4309,
      "着一": 4310,
      "像一": 4311,
      "其中": 4312,
      "另一": 4313,
      "是的": 4314,
      "上帝": 4315,
      "为了": 4316,
      "力量": 4317,
      "对于": 4318,
      "联合": 4319,
      "觉得": 4320,
      "再次": 4321,
      "有些": 4322,
      "即使": 4323,
      "那样": 4324,
      "首先": 4325,
      "北海": 4326,
      "情况": 4327,
      "飞行": 4328,
      "以前": 4329,
      "会议": 4330,
      "渐渐": 4331,
      "多的": 4332,
      "有的": 4333,
      "第一次": 4334,
      "起了": 4335,
      "思想": 4336,
      "了一下": 4337,
      "过了": 4338,
      "这样的": 4339,
      "电脑": 4340,
      "之间": 4341,
      "变得": 4342,
      "那时": 4343,
      "刚才": 4344,
      "不要": 4345,
      "章北海": 4346,
      "一起": 4347,
      "离开": 4348,
      "天空": 4349,
      "都在": 4350,
      "复杂": 4351,
      "选择": 4352,
      "水滴": 4353,
      "屏幕": 4354,
      "物质": 4355,
      "一下": 4356,
      "不可": 4357,
      "全部": 4358,
      "天明": 4359,
      "年的": 4360,
      "森林": 4361,
      "显然": 4362,
      "武器": 4363,
      "希望": 4364,
      "云天明": 4365,
      "看上去": 4366,
      "冬眠": 4367,
      "年轻": 4368,
      "这次": 4369,
      "最高执政官": 4370,
      "自然": 4371,
      "年前": 4372,
      "摇摇头": 4373,
      "星星": 4374,
      "人类的": 4375,
      "出现了": 4376,
      "到达": 4377,
      "二维": 4378,
      "表面": 4379,
      "于是": 4380,
      "奥拉": 4381,
      "发动": 4382,
      "建筑": 4383,
      "大陆": 4384,
      "将军": 4385,
      "才能": 4386,
      "明白": 4387,
      "所有的": 4388,
      "为什么": 4389,
      "之一": 4390,
      "到的": 4391,
      "攻击": 4392,
      "大部分": 4393,
      "也许": 4394,
      "就在": 4395,
      "政府": 4396,
      "大家": 4397,
      "她们": 4398,
      "每个": 4399,
      "的世界": 4400,
      "软件": 4401,
      "面壁者": 4402,
      "就像": 4403,
      "必须": 4404,
      "物理": 4405,
      "确实": 4406,
      "组合": 4407,
      "说的": 4408,
      "父亲": 4409,
      "真正": 4410,
      "国的": 4411,
      "去了": 4412,
      "沉默": 4413,
      "上了": 4414,
      "动的": 4415,
      "理解": 4416,
      "领导": 4417,
      "多少": 4418,
      "地面": 4419,
      "外面": 4420,
      "方的": 4421,
      "戴维": 4422,
      "蚂蚁": 4423,
      "现实": 4424,
      "长时间": 4425,
      "过来": 4426,
      "大史": 4427,
      "精神": 4428,
      "的地方": 4429,
      "下面": 4430,
      "并不": 4431,
      "丁仪": 4432,
      "建立": 4433,
      "当时": 4434,
      "的一个": 4435,
      "相信": 4436,
      "过程": 4437,
      "除了": 4438,
      "住了": 4439,
      "目前": 4440,
      "航行": 4441,
      "一帆": 4442,
      "毁灭": 4443,
      "满了": 4444,
      "重要": 4445,
      "太空中": 4446,
      "关一帆": 4447,
      "的时间": 4448,
      "随着": 4449,
      "刚刚": 4450,
      "走了": 4451,
      "安全": 4452,
      "方式": 4453,
      "发动机": 4454,
      "仍然": 4455,
      "另一个": 4456,
      "我是": 4457,
      "结果": 4458,
      "简单": 4459,
      "蓝色": 4460,
      "面前": 4461,
      "后面": 4462,
      "而是": 4463,
      "内部": 4464,
      "想到": 4465,
      "南极": 4466,
      "观测": 4467,
      "学家": 4468,
      "这就是": 4469,
      "一定": 4470,
      "之前": 4471,
      "今天": 4472,
      "您的": 4473,
      "站在": 4474,
      "体的": 4475,
      "形状": 4476,
      "战舰": 4477,
      "眼镜": 4478,
      "并没有": 4479,
      "我想": 4480,
      "生存": 4481,
      "史强": 4482,
      "恐龙": 4483,
      "永远": 4484,
      "的巨": 4485,
      "来了": 4486,
      "在这个": 4487,
      "透明": 4488,
      "阳光": 4489,
      "地看着": 4490,
      "意识": 4491,
      "一般": 4492,
      "代表": 4493,
      "联合国": 4494,
      "作为": 4495,
      "理论": 4496,
      "主要": 4497,
      "来说": 4498,
      "说话": 4499,
      "飞机": 4500,
      "三十": 4501,
      "意义": 4502,
      "终于": 4503,
      "消失了": 4504,
      "分钟": 4505,
      "是什么": 4506,
      "普通": 4507,
      "正常": 4508,
      "后的": 4509,
      "很多": 4510,
      "都不": 4511,
      "作用": 4512,
      "过的": 4513,
      "千米": 4514,
      "恐惧": 4515,
      "有什么": 4516,
      "木星": 4517,
      "也没有": 4518,
      "使用": 4519,
      "上面": 4520,
      "公民": 4521,
      "决定": 4522,
      "出一": 4523,
      "图像": 4524,
      "探测": 4525,
      "旁边": 4526,
      "无数": 4527,
      "清楚": 4528,
      "五十": 4529,
      "结构": 4530,
      "儿子": 4531,
      "变化": 4532,
      "孩儿": 4533,
      "一个人": 4534,
      "文明的": 4535,
      "东方": 4536,
      "了起来": 4537,
      "士兵": 4538,
      "指挥": 4539,
      "星环": 4540,
      "的一切": 4541,
      "句话": 4542,
      "第三": 4543,
      "就会": 4544,
      "能力": 4545,
      "你们的": 4546,
      "你是": 4547,
      "形成": 4548,
      "一百": 4549,
      "不知": 4550,
      "观察": 4551,
      "坦克": 4552,
      "开了": 4553,
      "运动": 4554,
      "金属": 4555,
      "三体世界": 4556,
      "越来": 4557,
      "公元": 4558,
      "关系": 4559,
      "得到": 4560,
      "相当": 4561,
      "越来越": 4562,
      "主席": 4563,
      "威慑": 4564,
      "容易": 4565,
      "电话": 4566,
      "量的": 4567,
      "机器": 4568,
      "的手": 4569,
      "结束": 4570,
      "都没有": 4571,
      "黑暗森林": 4572,
      "一点": 4573,
      "恢复": 4574,
      "银河": 4575,
      "一名": 4576,
      "发展": 4577,
      "妈妈": 4578,
      "共和": 4579,
      "喜欢": 4580,
      "回到": 4581,
      "之中": 4582,
      "以为": 4583,
      "公主": 4584,
      "基础": 4585,
      "的声音": 4586,
      "远处": 4587,
      "得很": 4588,
      "面对": 4589,
      "似的": 4590,
      "医生": 4591,
      "大厅": 4592,
      "来到": 4593,
      "样子": 4594,
      "看不": 4595,
      "维德": 4596,
      "宇宙的": 4597,
      "地方": 4598,
      "好的": 4599,
      "先生": 4600,
      "号的": 4601,
      "身上": 4602,
      "出去": 4603,
      "天文": 4604,
      "空气": 4605,
      "辐射": 4606,
      "一条": 4607,
      "三维": 4608,
      "不了": 4609,
      "人都": 4610,
      "他在": 4611,
      "唯一": 4612,
      "不断": 4613,
      "内容": 4614,
      "根本": 4615,
      "的高": 4616,
      "还在": 4617,
      "亚兹": 4618,
      "原因": 4619,
      "启动": 4620,
      "基本": 4621,
      "总统": 4622,
      "走到": 4623,
      "迪亚兹": 4624,
      "雷迪亚兹": 4625,
      "地球的": 4626,
      "一阵": 4627,
      "基因": 4628,
      "导弹": 4629,
      "看了": 4630,
      "宇宙中": 4631,
      "他说": 4632,
      "像是": 4633,
      "危险": 4634,
      "水娃": 4635,
      "海洋": 4636,
      "指着": 4637,
      "爸爸": 4638,
      "缓缓": 4639,
      "辛妮": 4640,
      "国际": 4641,
      "在这里": 4642,
      "移民": 4643,
      "至少": 4644,
      "产生的": 4645,
      "国土": 4646,
      "环境": 4647,
      "秒钟": 4648,
      "包括": 4649,
      "滑膛": 4650,
      "盯着": 4651,
      "都有": 4652,
      "军官": 4653,
      "平静": 4654,
      "身体": 4655,
      "未来": 4656,
      "者的": 4657,
      "在地": 4658,
      "要求": 4659,
      "比如": 4660,
      "的孩子": 4661,
      "同样": 4662,
      "穿过": 4663,
      "组织": 4664,
      "而且": 4665,
      "舰长": 4666,
      "事情": 4667,
      "会儿": 4668,
      "意思": 4669,
      "新的": 4670,
      "沃恩": 4671,
      "可能是": 4672,
      "里面": 4673,
      "下了": 4674,
      "10": 4675,
      "四个": 4676,
      "比亚": 4677,
      "笑着": 4678,
      "责任": 4679,
      "努力": 4680,
      "在大": 4681,
      "核弹": 4682,
      "特别": 4683,
      "完成": 4684,
      "的速度": 4685,
      "转向": 4686,
      "战略": 4687,
      "画面": 4688,
      "太空城": 4689,
      "停止": 4690,
      "外的": 4691,
      "如此": 4692,
      "打击": 4693,
      "推进": 4694,
      "的时候": 4695,
      "直接": 4696,
      "确定": 4697,
      "经过": 4698,
      "轻轻": 4699,
      "看到的": 4700,
      "准备": 4701,
      "成功": 4702,
      "是个": 4703,
      "最大的": 4704,
      "主义": 4705,
      "数据": 4706,
      "规模": 4707,
      "39": 4708,
      "不管": 4709,
      "发出的": 4710,
      "打开": 4711,
      "背景": 4712,
      "人员": 4713,
      "但在": 4714,
      "恩斯": 4715,
      "那一": 4716,
      "那种": 4717,
      "重新": 4718,
      "使得": 4719,
      "好了": 4720,
      "首长": 4721,
      "左右": 4722,
      "希恩斯": 4723,
      "军队": 4724,
      "变成了": 4725,
      "影响": 4726,
      "接近": 4727,
      "桑比亚": 4728,
      "欧洲": 4729,
      "很难": 4730,
      "找到": 4731,
      "敌人": 4732,
      "数量": 4733,
      "模型": 4734,
      "转身": 4735,
      "北京": 4736,
      "奇怪": 4737,
      "子的": 4738,
      "本来": 4739,
      "现代": 4740,
      "直到": 4741,
      "地球上": 4742,
      "有引力": 4743,
      "直升": 4744,
      "绝对": 4745,
      "考虑": 4746,
      "在一起": 4747,
      "就能": 4748,
      "故事": 4749,
      "真实": 4750,
      "一步": 4751,
      "万有引力": 4752,
      "前面": 4753,
      "子弹": 4754,
      "机会": 4755,
      "白色": 4756,
      "参加": 4757,
      "各种": 4758,
      "广阔": 4759,
      "政治": 4760,
      "深处": 4761,
      "窗口": 4762,
      "老师": 4763,
      "现在的": 4764,
      "这一切": 4765,
      "命令": 4766,
      "坐在": 4767,
      "望远": 4768,
      "说着": 4769,
      "直升机": 4770,
      "哪儿": 4771,
      "地问": 4772,
      "电视": 4773,
      "移动": 4774,
      "它们的": 4775,
      "望远镜": 4776,
      "人民": 4777,
      "在一个": 4778,
      "我说": 4779,
      "能量": 4780,
      "几十": 4781,
      "向前": 4782,
      "就要": 4783,
      "聚变": 4784,
      "范围": 4785,
      "一颗": 4786,
      "创造": 4787,
      "接触": 4788,
      "件事": 4789,
      "只要": 4790,
      "难以": 4791,
      "高的": 4792,
      "二百": 4793,
      "双眼": 4794,
      "外星": 4795,
      "新星": 4796,
      "王星": 4797,
      "相比": 4798,
      "走去": 4799,
      "走进": 4800,
      "委员": 4801,
      "我不": 4802,
      "时的": 4803,
      "事实": 4804,
      "操作": 4805,
      "爆发": 4806,
      "科学家": 4807,
      "但这": 4808,
      "别的": 4809,
      "危机": 4810,
      "在那": 4811,
      "改变": 4812,
      "航天": 4813,
      "一声": 4814,
      "把它": 4815,
      "抬头": 4816,
      "放到": 4817,
      "时刻": 4818,
      "联系": 4819,
      "起身": 4820,
      "超新星": 4821,
      "万年": 4822,
      "办公": 4823,
      "指指": 4824,
      "玻璃": 4825,
      "的心": 4826,
      "瞬间": 4827,
      "西亚": 4828,
      "量子": 4829,
      "黑色的": 4830,
      "工程师": 4831,
      "另外": 4832,
      "证明": 4833,
      "试验": 4834,
      "内的": 4835,
      "思维": 4836,
      "总是": 4837,
      "泰勒": 4838,
      "红岸": 4839,
      "里的": 4840,
      "银河系": 4841,
      "信号": 4842,
      "各个": 4843,
      "很大": 4844,
      "边缘": 4845,
      "达到": 4846,
      "组合体": 4847,
      "但他": 4848,
      "尘埃": 4849,
      "星空": 4850,
      "母亲": 4851,
      "电磁": 4852,
      "最后的": 4853,
      "拥有": 4854,
      "生物": 4855,
      "目的": 4856,
      "等待": 4857,
      "进来": 4858,
      "太阳的": 4859,
      "丽的": 4860,
      "也有": 4861,
      "他是": 4862,
      "作战": 4863,
      "带着": 4864,
      "复杂的": 4865,
      "光中": 4866,
      "光的": 4867,
      "吞食": 4868,
      "四十": 4869,
      "多了": 4870,
      "小小的": 4871,
      "无限": 4872,
      "材料": 4873,
      "迅速": 4874,
      "之后": 4875,
      "令人": 4876,
      "华北": 4877,
      "极其": 4878,
      "着的": 4879,
      "老人": 4880,
      "出来的": 4881,
      "办法": 4882,
      "反射": 4883,
      "定的": 4884,
      "方面": 4885,
      "至于": 4886,
      "色彩": 4887,
      "让人": 4888,
      "起的": 4889,
      "专业": 4890,
      "保持": 4891,
      "减速": 4892,
      "白色的": 4893,
      "看不到": 4894,
      "红色": 4895,
      "脸上": 4896,
      "般的": 4897,
      "解释": 4898,
      "遥远": 4899,
      "防御": 4900,
      "没有任何": 4901,
      "共和国": 4902,
      "不再": 4903,
      "了下来": 4904,
      "兴趣": 4905,
      "半个": 4906,
      "大脑": 4907,
      "文化": 4908,
      "晓梦": 4909,
      "熟悉": 4910,
      "白冰": 4911,
      "声说": 4912,
      "死亡": 4913,
      "没什么": 4914,
      "程序": 4915,
      "周围的": 4916,
      "不得": 4917,
      "分之一": 4918,
      "清晰": 4919,
      "的目光": 4920,
      "还没有": 4921,
      "屏幕上": 4922,
      "了几": 4923,
      "哈哈": 4924,
      "最近": 4925,
      "月球": 4926,
      "的感觉": 4927,
      "行动": 4928,
      "注意到": 4929,
      "039": 4930,
      "房间": 4931,
      "浮在": 4932,
      "留下": 4933,
      "经历": 4934,
      "设备": 4935,
      "资源": 4936,
      "郑晨": 4937,
      "只剩": 4938,
      "四维": 4939,
      "失败": 4940,
      "展开": 4941,
      "摧毁": 4942,
      "陷入": 4943,
      "太空艇": 4944,
      "天线": 4945,
      "如同": 4946,
      "对着": 4947,
      "本身": 4948,
      "精确": 4949,
      "维持": 4950,
      "女孩儿": 4951,
      "属于": 4952,
      "庄宇": 4953,
      "急剧": 4954,
      "让他": 4955,
      "有一种": 4956,
      "探测器": 4957,
      "一只": 4958,
      "光年": 4959,
      "力的": 4960,
      "哪里": 4961,
      "数学": 4962,
      "星云": 4963,
      "模拟": 4964,
      "看来": 4965,
      "终端": 4966,
      "质量": 4967,
      "部队": 4968,
      "最后一": 4969,
      "引力波": 4970,
      "如何": 4971,
      "形的": 4972,
      "最终": 4973,
      "某种": 4974,
      "死了": 4975,
      "见到": 4976,
      "可以看到": 4977,
      "蓝色空间": 4978,
      "动着": 4979,
      "参谋": 4980,
      "很好": 4981,
      "慢慢": 4982,
      "记得": 4983,
      "这两": 4984,
      "世纪的": 4985,
      "一眼": 4986,
      "增加": 4987,
      "建造": 4988,
      "战场": 4989,
      "数字": 4990,
      "早就": 4991,
      "电梯": 4992,
      "疯狂": 4993,
      "苏醒": 4994,
      "这话": 4995,
      "反应": 4996,
      "大气": 4997,
      "干什么": 4998,
      "我知道": 4999,
      "沙漠": 5000,
      "玩儿": 5001,
      "走出": 5002,
      "重的": 5003,
      "人在": 5004,
      "但现在": 5005,
      "具有": 5006,
      "千万": 5007,
      "者们": 5008,
      "记录": 5009,
      "边的": 5010,
      "黑洞": 5011,
      "这是一个": 5012,
      "一块": 5013,
      "五个": 5014,
      "兴奋": 5015,
      "吃惊": 5016,
      "大地": 5017,
      "小心": 5018,
      "很少": 5019,
      "战斗": 5020,
      "是不": 5021,
      "每天": 5022,
      "生的": 5023,
      "记忆": 5024,
      "负责": 5025,
      "超级": 5026,
      "黑色": 5027,
      "程心和": 5028,
      "像一个": 5029,
      "口气": 5030,
      "大小": 5031,
      "实验": 5032,
      "持续": 5033,
      "的火": 5034,
      "的位置": 5035,
      "直径": 5036,
      "远方": 5037,
      "系统的": 5038,
      "也在": 5039,
      "仍在": 5040,
      "度的": 5041,
      "灾难": 5042,
      "认识": 5043,
      "语言": 5044,
      "一位": 5045,
      "会场": 5046,
      "其中的": 5047,
      "后者": 5048,
      "广场": 5049,
      "手中": 5050,
      "接收": 5051,
      "谢谢": 5052,
      "世界上": 5053,
      "不动": 5054,
      "亮的": 5055,
      "出了一": 5056,
      "大多": 5057,
      "每一个": 5058,
      "男人": 5059,
      "联邦": 5060,
      "虚拟": 5061,
      "在那里": 5062,
      "处理": 5063,
      "大利": 5064,
      "按照": 5065,
      "更加": 5066,
      "条件": 5067,
      "破壁": 5068,
      "时代的": 5069,
      "仔细": 5070,
      "实现": 5071,
      "正是": 5072,
      "衣服": 5073,
      "什么都": 5074,
      "上校": 5075,
      "使命": 5076,
      "做的": 5077,
      "卫星": 5078,
      "各国": 5079,
      "大厦": 5080,
      "庄颜": 5081,
      "我要": 5082,
      "接受": 5083,
      "朋友": 5084,
      "沿着": 5085,
      "闪烁": 5086,
      "11": 5087,
      "五百": 5088,
      "制造": 5089,
      "姑娘": 5090,
      "思考": 5091,
      "惊奇": 5092,
      "真是": 5093,
      "眼前": 5094,
      "默默": 5095,
      "年轻人": 5096,
      "交流": 5097,
      "可怕": 5098,
      "所在": 5099,
      "星系": 5100,
      "燃烧": 5101,
      "眼中": 5102,
      "着一个": 5103,
      "而已": 5104,
      "说完": 5105,
      "这事": 5106,
      "这就": 5107,
      "委员会": 5108,
      "IN": 5109,
      "中央": 5110,
      "人群": 5111,
      "元首": 5112,
      "回来": 5113,
      "知识": 5114,
      "表现": 5115,
      "上方": 5116,
      "也就是": 5117,
      "区域": 5118,
      "广播": 5119,
      "情报": 5120,
      "沈华北": 5121,
      "都被": 5122,
      "宋诚": 5123,
      "年后": 5124,
      "我也": 5125,
      "我在": 5126,
      "最初": 5127,
      "的水": 5128,
      "的信息": 5129,
      "穿梭": 5130,
      "远远": 5131,
      "集中": 5132,
      "不起": 5133,
      "了解": 5134,
      "在他": 5135,
      "大会": 5136,
      "明显": 5137,
      "证实": 5138,
      "两人": 5139,
      "受到": 5140,
      "成一": 5141,
      "是最": 5142,
      "有可能": 5143,
      "汽车": 5144,
      "球体": 5145,
      "生态": 5146,
      "行的": 5147,
      "规律": 5148,
      "介绍": 5149,
      "回去": 5150,
      "帝国": 5151,
      "我就": 5152,
      "战士": 5153,
      "紧张": 5154,
      "经济": 5155,
      "长长的": 5156,
      "面壁计划": 5157,
      "加速器": 5158,
      "十几": 5159,
      "影像": 5160,
      "得多": 5161,
      "掩体": 5162,
      "视着": 5163,
      "镜面": 5164,
      "出现的": 5165,
      "舰队的": 5166,
      "大了": 5167,
      "天的": 5168,
      "平面": 5169,
      "澳大利": 5170,
      "科幻": 5171,
      "细节": 5172,
      "能看到": 5173,
      "那是一": 5174,
      "重力": 5175,
      "穿梭机": 5176,
      "澳大利亚": 5177,
      "公路": 5178,
      "分子": 5179,
      "动物": 5180,
      "十多": 5181,
      "巨大": 5182,
      "平线": 5183,
      "心理": 5184,
      "怎样": 5185,
      "掌握": 5186,
      "提供": 5187,
      "放在": 5188,
      "法律": 5189,
      "看去": 5190,
      "国家的": 5191,
      "一切都": 5192,
      "BR": 5193,
      "光芒": 5194,
      "关键": 5195,
      "想法": 5196,
      "文斯": 5197,
      "晚上": 5198,
      "组成": 5199,
      "资料": 5200,
      "适应": 5201,
      "真正的": 5202,
      "上百": 5203,
      "使他": 5204,
      "全息": 5205,
      "地下": 5206,
      "威胁": 5207,
      "射击": 5208,
      "新闻": 5209,
      "星际": 5210,
      "更多的": 5211,
      "最大": 5212,
      "有了": 5213,
      "电子": 5214,
      "第一个": 5215,
      "网络": 5216,
      "表情": 5217,
      "透过": 5218,
      "附近": 5219,
      "AIN": 5220,
      "公司": 5221,
      "出一个": 5222,
      "干扰": 5223,
      "是从": 5224,
      "曾经": 5225,
      "用的": 5226,
      "的方向": 5227,
      "通讯": 5228,
      "的人们": 5229,
      "也没": 5230,
      "六个": 5231,
      "其它": 5232,
      "坐标": 5233,
      "海中": 5234,
      "覆盖": 5235,
      "开始了": 5236,
      "BRAIN": 5237,
      "从未": 5238,
      "化的": 5239,
      "可是": 5240,
      "同志": 5241,
      "意味": 5242,
      "显得": 5243,
      "物体": 5244,
      "神经": 5245,
      "进去": 5246,
      "项目": 5247,
      "飞人": 5248,
      "上升": 5249,
      "下来的": 5250,
      "充满了": 5251,
      "分析": 5252,
      "前方": 5253,
      "功率": 5254,
      "寂静": 5255,
      "烈的": 5256,
      "称为": 5257,
      "美的": 5258,
      "见过": 5259,
      "让我": 5260,
      "阶段": 5261,
      "孩子的": 5262,
      "飞船的": 5263,
      "行星的": 5264,
      "办公室": 5265,
      "破壁人": 5266,
      "上空": 5267,
      "从来": 5268,
      "信念": 5269,
      "只有一": 5270,
      "含义": 5271,
      "呼吸": 5272,
      "驾驶": 5273,
      "他们在": 5274,
      "了一些": 5275,
      "发生了": 5276,
      "一部分": 5277,
      "命运": 5278,
      "圆圆": 5279,
      "子里": 5280,
      "很有": 5281,
      "星的": 5282,
      "望着": 5283,
      "比较": 5284,
      "粒子": 5285,
      "艰难": 5286,
      "要是": 5287,
      "这儿": 5288,
      "静静": 5289,
      "他们都": 5290,
      "充满": 5291,
      "分别": 5292,
      "吕刚": 5293,
      "喊道": 5294,
      "困难": 5295,
      "在他们": 5296,
      "女人": 5297,
      "崩溃": 5298,
      "并不是": 5299,
      "心里": 5300,
      "或者": 5301,
      "是否": 5302,
      "段时间": 5303,
      "监视": 5304,
      "足够": 5305,
      "自然选择": 5306,
      "别人": 5307,
      "即将": 5308,
      "彻底": 5309,
      "得知": 5310,
      "想想": 5311,
      "板上": 5312,
      "构成": 5313,
      "的技术": 5314,
      "看出": 5315,
      "穿着": 5316,
      "面积": 5317,
      "之外": 5318,
      "你说": 5319,
      "微微": 5320,
      "日本": 5321,
      "昨天": 5322,
      "返回": 5323,
      "的一部分": 5324,
      "物理学": 5325,
      "全国": 5326,
      "尽头": 5327,
      "巨型": 5328,
      "成员": 5329,
      "放大": 5330,
      "画师": 5331,
      "白的": 5332,
      "的海": 5333,
      "红色的": 5334,
      "说明": 5335,
      "还要": 5336,
      "一天": 5337,
      "中间": 5338,
      "做出": 5339,
      "到处": 5340,
      "头发": 5341,
      "提出": 5342,
      "旋转": 5343,
      "曲率": 5344,
      "末日": 5345,
      "死神": 5346,
      "漫长的": 5347,
      "秋生": 5348,
      "秘密": 5349,
      "设想": 5350,
      "说不": 5351,
      "还有一": 5352,
      "递给": 5353,
      "的光芒": 5354,
      "过程中": 5355,
      "广阔的": 5356,
      "不用": 5357,
      "亚洲": 5358,
      "击中": 5359,
      "台上": 5360,
      "女儿": 5361,
      "将在": 5362,
      "性的": 5363,
      "投入": 5364,
      "是不是": 5365,
      "碎片": 5366,
      "计时": 5367,
      "的事情": 5368,
      "伟大的": 5369,
      "保证": 5370,
      "关于": 5371,
      "单位": 5372,
      "垃圾": 5373,
      "完了": 5374,
      "家庭": 5375,
      "掠过": 5376,
      "撞击": 5377,
      "有时": 5378,
      "模糊": 5379,
      "王子": 5380,
      "的眼睛": 5381,
      "监听": 5382,
      "相对": 5383,
      "逃亡": 5384,
      "都能": 5385,
      "降落": 5386,
      "不在": 5387,
      "不多": 5388,
      "但我": 5389,
      "保护": 5390,
      "古老": 5391,
      "司令": 5392,
      "名字": 5393,
      "失去": 5394,
      "寻找": 5395,
      "平原": 5396,
      "想起了": 5397,
      "的太空": 5398,
      "设计": 5399,
      "跟着": 5400,
      "集团": 5401,
      "感觉到": 5402,
      "情况下": 5403,
      "一会儿": 5404,
      "半球": 5405,
      "她在": 5406,
      "它是": 5407,
      "寒冷": 5408,
      "已被": 5409,
      "探险": 5410,
      "断了": 5411,
      "照片": 5412,
      "的研究": 5413,
      "统帅": 5414,
      "行者": 5415,
      "震惊": 5416,
      "没有人": 5417,
      "一旦": 5418,
      "一艘": 5419,
      "仅仅": 5420,
      "伟思": 5421,
      "响起": 5422,
      "回头": 5423,
      "小组": 5424,
      "尽管": 5425,
      "常伟思": 5426,
      "是啊": 5427,
      "机构": 5428,
      "梦中": 5429,
      "梦想": 5430,
      "消灭": 5431,
      "灿烂": 5432,
      "的问题": 5433,
      "相互": 5434,
      "聚集": 5435,
      "超过": 5436,
      "这两个": 5437,
      "这个世界": 5438,
      "怎么样": 5439,
      "DC": 5440,
      "他那": 5441,
      "双方": 5442,
      "在海": 5443,
      "是对": 5444,
      "炸弹": 5445,
      "理想": 5446,
      "程度": 5447,
      "身后": 5448,
      "飞快": 5449,
      "我们要": 5450,
      "接着说": 5451,
      "了吗": 5452,
      "你知道": 5453,
      "影子": 5454,
      "很大的": 5455,
      "微笑": 5456,
      "方案": 5457,
      "的距离": 5458,
      "表示": 5459,
      "警报": 5460,
      "身边": 5461,
      "还不": 5462,
      "隧道": 5463,
      "发现了": 5464,
      "不同的": 5465,
      "物理学家": 5466,
      "事实上": 5467,
      "只剩下": 5468,
      "意味着": 5469,
      "升起": 5470,
      "地把": 5471,
      "复制": 5472,
      "大楼": 5473,
      "实际": 5474,
      "找到了": 5475,
      "正确": 5476,
      "毕竟": 5477,
      "火焰": 5478,
      "胜利": 5479,
      "试图": 5480,
      "说过": 5481,
      "身份": 5482,
      "这座": 5483,
      "这不是": 5484,
      "都会": 5485,
      "醒来": 5486,
      "钢印": 5487,
      "颗恒星": 5488,
      "城市的": 5489,
      "其他的": 5490,
      "向上": 5491,
      "夜空": 5492,
      "大量的": 5493,
      "幸运": 5494,
      "拿起": 5495,
      "的工作": 5496,
      "的生活": 5497,
      "纷纷": 5498,
      "让我们": 5499,
      "降低": 5500,
      "高速": 5501,
      "太空中的": 5502,
      "一样的": 5503,
      "是一种": 5504,
      "中国孩子": 5505,
      "意识到": 5506,
      "一号": 5507,
      "不想": 5508,
      "主任": 5509,
      "了许多": 5510,
      "他看到": 5511,
      "体育": 5512,
      "十五": 5513,
      "成长": 5514,
      "景象": 5515,
      "林肯": 5516,
      "永生": 5517,
      "神秘": 5518,
      "笼罩": 5519,
      "蓝色的": 5520,
      "见的": 5521,
      "规则": 5522,
      "露出": 5523,
      "太空军": 5524,
      "这一点": 5525,
      "历史上": 5526,
      "一千": 5527,
      "二号": 5528,
      "他知道": 5529,
      "你在": 5530,
      "大片": 5531,
      "失重": 5532,
      "岁月": 5533,
      "整体": 5534,
      "星球": 5535,
      "曹彬": 5536,
      "路上": 5537,
      "避免": 5538,
      "都很": 5539,
      "降临": 5540,
      "高兴": 5541,
      "仿佛是": 5542,
      "20": 5543,
      "一支": 5544,
      "他又": 5545,
      "伊文斯": 5546,
      "在太空中": 5547,
      "外部": 5548,
      "失去了": 5549,
      "子上": 5550,
      "居然": 5551,
      "更多": 5552,
      "点儿": 5553,
      "等着": 5554,
      "角度": 5555,
      "进一步": 5556,
      "难道": 5557,
      "预测": 5558,
      "十分钟": 5559,
      "000": 5560,
      "一根": 5561,
      "一群": 5562,
      "个人": 5563,
      "但她": 5564,
      "分之": 5565,
      "双手": 5566,
      "大人": 5567,
      "就可以": 5568,
      "很不": 5569,
      "是因为": 5570,
      "每次": 5571,
      "的太阳": 5572,
      "相同": 5573,
      "膨胀": 5574,
      "贝纳": 5575,
      "进行的": 5576,
      "一直在": 5577,
      "19": 5578,
      "万个": 5579,
      "体积": 5580,
      "军事": 5581,
      "军人": 5582,
      "到来": 5583,
      "回事": 5584,
      "在空中": 5585,
      "多么": 5586,
      "学生": 5587,
      "宣布": 5588,
      "总网": 5589,
      "报告": 5590,
      "放弃": 5591,
      "的样子": 5592,
      "舷窗": 5593,
      "装甲": 5594,
      "让她": 5595,
      "记者": 5596,
      "谈话": 5597,
      "还能": 5598,
      "这人": 5599,
      "遇到": 5600,
      "长长": 5601,
      "几天": 5602,
      "后面的": 5603,
      "外面的": 5604,
      "岩石": 5605,
      "延绪": 5606,
      "打算": 5607,
      "扩散": 5608,
      "拯救": 5609,
      "智慧": 5610,
      "物种": 5611,
      "的两": 5612,
      "宇宙中的": 5613,
      "进入了": 5614,
      "东方延绪": 5615,
      "下面的": 5616,
      "会有": 5617,
      "准确": 5618,
      "几百": 5619,
      "凯西": 5620,
      "制止": 5621,
      "原始": 5622,
      "原来": 5623,
      "大约": 5624,
      "天空中": 5625,
      "执行": 5626,
      "是由": 5627,
      "海岸": 5628,
      "熄灭": 5629,
      "理事": 5630,
      "皇帝": 5631,
      "稳定": 5632,
      "美丽的": 5633,
      "随时": 5634,
      "驱动": 5635,
      "两个世纪": 5636,
      "这里的": 5637,
      "上来": 5638,
      "不行": 5639,
      "以上": 5640,
      "全世界": 5641,
      "再说": 5642,
      "冷静": 5643,
      "创世": 5644,
      "判断": 5645,
      "医院": 5646,
      "原子": 5647,
      "大人们": 5648,
      "学习": 5649,
      "学者": 5650,
      "必要": 5651,
      "惠子": 5652,
      "房子": 5653,
      "执剑": 5654,
      "是很": 5655,
      "的长": 5656,
      "紧急": 5657,
      "罗斯": 5658,
      "航迹": 5659,
      "舰上": 5660,
      "这条": 5661,
      "这类": 5662,
      "通信": 5663,
      "飘浮": 5664,
      "透明的": 5665,
      "默默地": 5666,
      "不停": 5667,
      "不时": 5668,
      "他对": 5669,
      "冯帆": 5670,
      "各位": 5671,
      "回家": 5672,
      "回到了": 5673,
      "字幕": 5674,
      "密封": 5675,
      "小雨": 5676,
      "开的": 5677,
      "得到了": 5678,
      "想起": 5679,
      "愿意": 5680,
      "时光": 5681,
      "行为": 5682,
      "进了": 5683,
      "人类社会": 5684,
      "生命的": 5685,
      "看了看": 5686,
      "一道": 5687,
      "做为": 5688,
      "八十": 5689,
      "冥王星": 5690,
      "印象": 5691,
      "取得": 5692,
      "号上": 5693,
      "号基地": 5694,
      "审判": 5695,
      "惊叫": 5696,
      "我和": 5697,
      "战役": 5698,
      "斯坦": 5699,
      "早已": 5700,
      "暴露": 5701,
      "百多": 5702,
      "破坏": 5703,
      "进化": 5704,
      "迷惑": 5705,
      "我们在": 5706,
      "应该是": 5707,
      "之间的": 5708,
      "静静地": 5709,
      "不敢": 5710,
      "了两": 5711,
      "元帅": 5712,
      "共同": 5713,
      "在水": 5714,
      "地的": 5715,
      "护士": 5716,
      "抬起": 5717,
      "指令": 5718,
      "时期": 5719,
      "机枪": 5720,
      "林云": 5721,
      "核聚变": 5722,
      "此时": 5723,
      "没人": 5724,
      "燃料": 5725,
      "秘书": 5726,
      "没有什么": 5727,
      "三体舰队": 5728,
      "三体世界的": 5729,
      "吞食者": 5730,
      "交换": 5731,
      "卫宁": 5732,
      "发着": 5733,
      "只好": 5734,
      "在她": 5735,
      "异常": 5736,
      "引起": 5737,
      "心中": 5738,
      "我会": 5739,
      "我现在": 5740,
      "按钮": 5741,
      "摩托": 5742,
      "杨卫宁": 5743,
      "绝望": 5744,
      "解决": 5745,
      "那就": 5746,
      "青铜": 5747,
      "面临": 5748,
      "也能": 5749,
      "了个": 5750,
      "亨特": 5751,
      "他把": 5752,
      "以来": 5753,
      "先行者": 5754,
      "关闭": 5755,
      "十二": 5756,
      "大牙": 5757,
      "孤独": 5758,
      "年代": 5759,
      "延续": 5760,
      "有两": 5761,
      "有关": 5762,
      "有多": 5763,
      "灯光": 5764,
      "球形": 5765,
      "的那个": 5766,
      "艺术": 5767,
      "落到": 5768,
      "间的": 5769,
      "飞向": 5770,
      "一个小": 5771,
      "了一眼": 5772,
      "程心的": 5773,
      "的人都": 5774,
      "明白了": 5775,
      "18": 5776,
      "一件": 5777,
      "五年": 5778,
      "克雷": 5779,
      "卫队": 5780,
      "同步": 5781,
      "坎特": 5782,
      "夜里": 5783,
      "天啊": 5784,
      "奥运": 5785,
      "完整": 5786,
      "建设": 5787,
      "很长时间": 5788,
      "感兴趣": 5789,
      "手枪": 5790,
      "无所": 5791,
      "无际": 5792,
      "日子": 5793,
      "明天": 5794,
      "明的": 5795,
      "检测": 5796,
      "比例": 5797,
      "流浪": 5798,
      "等等": 5799,
      "纪念": 5800,
      "草原": 5801,
      "视野": 5802,
      "讨论": 5803,
      "让他们": 5804,
      "轰鸣": 5805,
      "高度": 5806,
      "我们是": 5807,
      "进行了": 5808,
      "黑暗中": 5809,
      "过去了": 5810,
      "飞行器": 5811,
      "上次": 5812,
      "传统": 5813,
      "倒计时": 5814,
      "否则": 5815,
      "咱们": 5816,
      "在那个": 5817,
      "婴儿": 5818,
      "官员": 5819,
      "对他": 5820,
      "层的": 5821,
      "常常": 5822,
      "描述": 5823,
      "斯肯": 5824,
      "月光": 5825,
      "有几": 5826,
      "构成的": 5827,
      "深的": 5828,
      "火星": 5829,
      "真空": 5830,
      "站起来": 5831,
      "细胞": 5832,
      "表达": 5833,
      "那你": 5834,
      "都没": 5835,
      "默斯肯": 5836,
      "知道了": 5837,
      "这样一个": 5838,
      "只是一个": 5839,
      "存在的": 5840,
      "一时": 5841,
      "不太": 5842,
      "专家": 5843,
      "丝毫": 5844,
      "中最": 5845,
      "之处": 5846,
      "位于": 5847,
      "到这里": 5848,
      "前进": 5849,
      "半径": 5850,
      "回忆": 5851,
      "地点点头": 5852,
      "大学": 5853,
      "宁静": 5854,
      "工业": 5855,
      "开来": 5856,
      "相反": 5857,
      "绿色": 5858,
      "脚步": 5859,
      "自由": 5860,
      "赫尔": 5861,
      "金字": 5862,
      "阶梯": 5863,
      "高大的": 5864,
      "他们是": 5865,
      "不好": 5866,
      "单元": 5867,
      "占据": 5868,
      "向外": 5869,
      "听到了": 5870,
      "地图": 5871,
      "大量": 5872,
      "头上": 5873,
      "女孩": 5874,
      "对话": 5875,
      "就行": 5876,
      "想像": 5877,
      "把自己": 5878,
      "有许多": 5879,
      "王国": 5880,
      "的最": 5881,
      "给我": 5882,
      "而言": 5883,
      "肥皂": 5884,
      "遥控": 5885,
      "防线": 5886,
      "颤抖": 5887,
      "人类文明": 5888,
      "也不知道": 5889,
      "小时后": 5890,
      "死神永生": 5891,
      "金字塔": 5892,
      "之外的": 5893,
      "也会": 5894,
      "剩下的": 5895,
      "在他的": 5896,
      "墙壁": 5897,
      "大概": 5898,
      "室中": 5899,
      "宽姨": 5900,
      "封闭": 5901,
      "带来": 5902,
      "开发": 5903,
      "抓住": 5904,
      "文件": 5905,
      "斯科": 5906,
      "有两个": 5907,
      "爱的": 5908,
      "生产": 5909,
      "用了": 5910,
      "痛苦": 5911,
      "终极": 5912,
      "群星": 5913,
      "航程": 5914,
      "警察": 5915,
      "说了": 5916,
      "那条": 5917,
      "了一种": 5918,
      "地球文明": 5919,
      "所有人": 5920,
      "以后的": 5921,
      "第三部": 5922,
      "特别是": 5923,
      "一座": 5924,
      "为一": 5925,
      "也很": 5926,
      "也都": 5927,
      "你能": 5928,
      "你要": 5929,
      "倒是": 5930,
      "功能": 5931,
      "多次": 5932,
      "妻子": 5933,
      "密集": 5934,
      "常规": 5935,
      "形象": 5936,
      "循环": 5937,
      "我对": 5938,
      "手中的": 5939,
      "智能": 5940,
      "有限": 5941,
      "氢弹": 5942,
      "没了": 5943,
      "独立": 5944,
      "航空": 5945,
      "越过": 5946,
      "还没": 5947,
      "雷达": 5948,
      "预料": 5949,
      "罗辑的": 5950,
      "显示出": 5951,
      "离开了": 5952,
      "显然是": 5953,
      "两千": 5954,
      "也就": 5955,
      "以下": 5956,
      "俄罗斯": 5957,
      "到现在": 5958,
      "古代": 5959,
      "号和": 5960,
      "和平": 5961,
      "它在": 5962,
      "对方": 5963,
      "带来的": 5964,
      "承认": 5965,
      "无论": 5966,
      "混乱": 5967,
      "精致": 5968,
      "茫然": 5969,
      "那人": 5970,
      "那儿": 5971,
      "镜像": 5972,
      "闪电": 5973,
      "出现了一个": 5974,
      "是一片": 5975,
      "的巨大": 5976,
      "相当于": 5977,
      "上面的": 5978,
      "不对": 5979,
      "六十": 5980,
      "冷却": 5981,
      "加上": 5982,
      "区的": 5983,
      "可见": 5984,
      "向下": 5985,
      "四下": 5986,
      "土地": 5987,
      "地平线": 5988,
      "复活": 5989,
      "娃娃": 5990,
      "平衡": 5991,
      "把他": 5992,
      "旋涡": 5993,
      "有三": 5994,
      "毫无": 5995,
      "激动": 5996,
      "空旷": 5997,
      "组成的": 5998,
      "维度": 5999,
      "航母": 6000,
      "英国": 6001,
      "质子": 6002,
      "这场": 6003,
      "迹象": 6004,
      "错误": 6005,
      "隐藏": 6006,
      "世界中": 6007,
      "程心说": 6008,
      "三体人": 6009,
      "还有一个": 6010,
      "消失在": 6011,
      "超新星纪元": 6012,
      "一场": 6013,
      "万人": 6014,
      "不出": 6015,
      "也不是": 6016,
      "全球": 6017,
      "全面": 6018,
      "动作": 6019,
      "她说": 6020,
      "好象": 6021,
      "层次": 6022,
      "怀疑": 6023,
      "敏感": 6024,
      "文字": 6025,
      "活动": 6026,
      "测试": 6027,
      "激光": 6028,
      "的外": 6029,
      "走向": 6030,
      "了一声": 6031,
      "了一会儿": 6032,
      "的那种": 6033,
      "停止了": 6034,
      "等待着": 6035,
      "虚拟公民": 6036,
      "一张": 6037,
      "一辆": 6038,
      "不需要": 6039,
      "互相": 6040,
      "他就": 6041,
      "任务": 6042,
      "会的": 6043,
      "你想": 6044,
      "反物质": 6045,
      "同意": 6046,
      "听着": 6047,
      "地对": 6048,
      "坚持": 6049,
      "学校": 6050,
      "安慰": 6051,
      "岩浆": 6052,
      "幸福": 6053,
      "惊恐": 6054,
      "挥手": 6055,
      "武装": 6056,
      "水的": 6057,
      "液体": 6058,
      "温暖": 6059,
      "牛顿": 6060,
      "纳米": 6061,
      "编队": 6062,
      "而不是": 6063,
      "获得": 6064,
      "重复": 6065,
      "飞摩托": 6066,
      "出现了一": 6067,
      "战争中": 6068,
      "轨道上": 6069,
      "简单的": 6070,
      "克雷尔": 6071,
      "13": 6072,
      "不清": 6073,
      "严重": 6074,
      "了好": 6075,
      "交通": 6076,
      "亿人": 6077,
      "优势": 6078,
      "但他们": 6079,
      "只手": 6080,
      "在这种": 6081,
      "多长时间": 6082,
      "存贮": 6083,
      "放下": 6084,
      "方法": 6085,
      "方阵": 6086,
      "标志": 6087,
      "比赛": 6088,
      "消耗": 6089,
      "用于": 6090,
      "的力量": 6091,
      "纽约": 6092,
      "细的": 6093,
      "艘飞船": 6094,
      "跟踪": 6095,
      "辛根": 6096,
      "这点": 6097,
      "错了": 6098,
      "队列": 6099,
      "隐约": 6100,
      "我们现在": 6101,
      "也不可能": 6102,
      "计划的": 6103,
      "中国太阳": 6104,
      "想象的": 6105,
      "思想钢印": 6106,
      "真实的": 6107,
      "赫尔辛根": 6108,
      "PDC": 6109,
      "一把": 6110,
      "三天": 6111,
      "了他": 6112,
      "了吧": 6113,
      "仍是": 6114,
      "以及": 6115,
      "做了": 6116,
      "做到": 6117,
      "出现在": 6118,
      "去的": 6119,
      "发布": 6120,
      "地向": 6121,
      "多年": 6122,
      "太平": 6123,
      "她是": 6124,
      "工具": 6125,
      "幽灵": 6126,
      "床上": 6127,
      "您是": 6128,
      "悬浮在": 6129,
      "杨冬": 6130,
      "死的": 6131,
      "海面": 6132,
      "犹豫": 6133,
      "纸条": 6134,
      "美丽": 6135,
      "解读": 6136,
      "起飞": 6137,
      "适合": 6138,
      "那就是": 6139,
      "都要": 6140,
      "风吹": 6141,
      "了一切": 6142,
      "的一次": 6143,
      "怎么办": 6144,
      "这么说": 6145,
      "美国孩子": 6146,
      "参谋长": 6147,
      "一人": 6148,
      "上一": 6149,
      "上的一": 6150,
      "以前的": 6151,
      "体系": 6152,
      "呆呆": 6153,
      "地层": 6154,
      "地摇摇头": 6155,
      "夕阳": 6156,
      "好吧": 6157,
      "对象": 6158,
      "山杉": 6159,
      "已是": 6160,
      "并非": 6161,
      "担心": 6162,
      "教授": 6163,
      "方面的": 6164,
      "无力": 6165,
      "星期": 6166,
      "是为了": 6167,
      "显现": 6168,
      "晶莹": 6169,
      "沙发": 6170,
      "电波": 6171,
      "相应": 6172,
      "看清": 6173,
      "类似": 6174,
      "联盟": 6175,
      "自动": 6176,
      "让你": 6177,
      "说什么": 6178,
      "陨石": 6179,
      "风中": 6180,
      "魔鬼": 6181,
      "第二天": 6182,
      "其他人": 6183,
      "公元世纪": 6184,
      "程心和AA": 6185,
      "一看": 6186,
      "三人": 6187,
      "了出来": 6188,
      "传来": 6189,
      "前面的": 6190,
      "场的": 6191,
      "实在": 6192,
      "小型": 6193,
      "拒绝": 6194,
      "收到": 6195,
      "整齐": 6196,
      "有过": 6197,
      "权力": 6198,
      "的恒星": 6199,
      "监测": 6200,
      "短短": 6201,
      "空中的": 6202,
      "级的": 6203,
      "给他": 6204,
      "莱尔": 6205,
      "落下": 6206,
      "躺在": 6207,
      "转动": 6208,
      "道德": 6209,
      "郑和": 6210,
      "罗辑说": 6211,
      "有一天": 6212,
      "建筑物": 6213,
      "领导人": 6214,
      "旁边的": 6215,
      "15": 6216,
      "亮了": 6217,
      "但没有": 6218,
      "你看": 6219,
      "光滑": 6220,
      "其余": 6221,
      "具体": 6222,
      "几秒钟": 6223,
      "反复": 6224,
      "四周": 6225,
      "地看到": 6226,
      "导致": 6227,
      "少校": 6228,
      "很小": 6229,
      "恐怖": 6230,
      "排险": 6231,
      "既然": 6232,
      "更大的": 6233,
      "每秒": 6234,
      "活着": 6235,
      "海军": 6236,
      "的空间": 6237,
      "短暂": 6238,
      "身影": 6239,
      "银色的": 6240,
      "顶端": 6241,
      "我们都": 6242,
      "告诉你": 6243,
      "青铜时代": 6244,
      "肥皂泡": 6245,
      "一动": 6246,
      "不久": 6247,
      "伸出": 6248,
      "吴岳": 6249,
      "学的": 6250,
      "宇航": 6251,
      "对此": 6252,
      "很像": 6253,
      "愿望": 6254,
      "月亮": 6255,
      "漆黑": 6256,
      "的蓝": 6257,
      "的时代": 6258,
      "竟然": 6259,
      "脚下": 6260,
      "见了": 6261,
      "觉察": 6262,
      "设施": 6263,
      "这东西": 6264,
      "部的": 6265,
      "门口": 6266,
      "顶上": 6267,
      "频率": 6268,
      "马上": 6269,
      "一个大": 6270,
      "这些人": 6271,
      "好像是": 6272,
      "共和国的": 6273,
      "山杉惠子": 6274,
      "不及": 6275,
      "不存在": 6276,
      "与此": 6277,
      "事件": 6278,
      "五千": 6279,
      "价值": 6280,
      "保留": 6281,
      "冲击": 6282,
      "北约": 6283,
      "参数": 6284,
      "在地球": 6285,
      "外界": 6286,
      "天花": 6287,
      "始皇": 6288,
      "建议": 6289,
      "效应": 6290,
      "明确": 6291,
      "是人类": 6292,
      "暴雨": 6293,
      "核心": 6294,
      "正式": 6295,
      "火球": 6296,
      "火箭": 6297,
      "猜测": 6298,
      "现出": 6299,
      "男孩儿": 6300,
      "的不": 6301,
      "的深": 6302,
      "睡觉": 6303,
      "石块": 6304,
      "秦始皇": 6305,
      "站起身": 6306,
      "脆弱": 6307,
      "航线": 6308,
      "蒸发": 6309,
      "这也是": 6310,
      "采取": 6311,
      "问道": 6312,
      "阴影": 6313,
      "阵列": 6314,
      "预警": 6315,
      "领域": 6316,
      "什么东西": 6317,
      "这个问题": 6318,
      "不过是": 6319,
      "普通人": 6320,
      "太平洋": 6321,
      "IA": 6322,
      "为止": 6323,
      "依塔": 6324,
      "入了": 6325,
      "动力": 6326,
      "半天": 6327,
      "压力": 6328,
      "变幻": 6329,
      "吸引": 6330,
      "因素": 6331,
      "坐下": 6332,
      "多个": 6333,
      "尽快": 6334,
      "山谷": 6335,
      "我觉得": 6336,
      "有很多": 6337,
      "根据": 6338,
      "欢呼": 6339,
      "海上": 6340,
      "的白": 6341,
      "车上": 6342,
      "这块": 6343,
      "这片": 6344,
      "这项": 6345,
      "这件事": 6346,
      "针眼": 6347,
      "静止": 6348,
      "香皂": 6349,
      "我们就": 6350,
      "中的一个": 6351,
      "也不会": 6352,
      "第二部": 6353,
      "智子的": 6354,
      "运行的": 6355,
      "结束了": 6356,
      "古老的": 6357,
      "他和": 6358,
      "传递": 6359,
      "伦娜": 6360,
      "但那": 6361,
      "化了": 6362,
      "发光": 6363,
      "发送": 6364,
      "年龄": 6365,
      "庞大的": 6366,
      "感情": 6367,
      "旅行": 6368,
      "无关": 6369,
      "有几个": 6370,
      "机械": 6371,
      "机的": 6372,
      "来到了": 6373,
      "漫长": 6374,
      "电路": 6375,
      "的气": 6376,
      "的另一": 6377,
      "穿透": 6378,
      "红光": 6379,
      "肉眼": 6380,
      "行驶": 6381,
      "记住": 6382,
      "走上": 6383,
      "造成": 6384,
      "那块": 6385,
      "陆战": 6386,
      "随意": 6387,
      "非洲": 6388,
      "太空服": 6389,
      "怎么会": 6390,
      "天文单位": 6391,
      "笑着说": 6392,
      "大多数": 6393,
      "斯科特": 6394,
      "一半": 6395,
      "一小": 6396,
      "两次": 6397,
      "举起": 6398,
      "乔耶": 6399,
      "亿年": 6400,
      "他不": 6401,
      "兹罗": 6402,
      "出生": 6403,
      "原则": 6404,
      "后果": 6405,
      "圆形": 6406,
      "在她的": 6407,
      "声明": 6408,
      "女性": 6409,
      "延伸": 6410,
      "快速": 6411,
      "怪异": 6412,
      "成果": 6413,
      "手里": 6414,
      "打量": 6415,
      "放心": 6416,
      "敌人的": 6417,
      "斐兹罗": 6418,
      "星舰": 6419,
      "有着": 6420,
      "洪水": 6421,
      "海水": 6422,
      "消息": 6423,
      "深夜": 6424,
      "现象": 6425,
      "的黑": 6426,
      "目前的": 6427,
      "礼物": 6428,
      "突破": 6429,
      "船长": 6430,
      "表明": 6431,
      "训练": 6432,
      "跨越": 6433,
      "进攻": 6434,
      "连续": 6435,
      "露珠": 6436,
      "这样做": 6437,
      "的大脑": 6438,
      "两个人": 6439,
      "产生了": 6440,
      "第二个": 6441,
      "光速飞船": 6442,
      "分钟后": 6443,
      "数学模型": 6444,
      "为一体": 6445,
      "赫尔辛根默斯肯": 6446,
      "上尉": 6447,
      "丰富": 6448,
      "些什么": 6449,
      "到底": 6450,
      "化为": 6451,
      "反正": 6452,
      "周文": 6453,
      "围绕": 6454,
      "固定": 6455,
      "在我": 6456,
      "在我们": 6457,
      "在地上": 6458,
      "壁上": 6459,
      "大大": 6460,
      "大臣": 6461,
      "她那": 6462,
      "完成了": 6463,
      "密度": 6464,
      "忘记": 6465,
      "意外": 6466,
      "我没": 6467,
      "手指": 6468,
      "文物": 6469,
      "斯特": 6470,
      "新世界": 6471,
      "无声": 6472,
      "本书": 6473,
      "植物": 6474,
      "正好": 6475,
      "水平": 6476,
      "沃纳": 6477,
      "泡船": 6478,
      "深刻": 6479,
      "点头": 6480,
      "由此": 6481,
      "的中": 6482,
      "的宇宙": 6483,
      "的城市": 6484,
      "的金属": 6485,
      "笑笑": 6486,
      "翼翼": 6487,
      "脑袋": 6488,
      "蛛丝": 6489,
      "装置": 6490,
      "这句话": 6491,
      "障碍": 6492,
      "飞出": 6493,
      "高能": 6494,
      "可以在": 6495,
      "三体文明": 6496,
      "华华说": 6497,
      "主要是": 6498,
      "小心翼翼": 6499,
      "秘书长": 6500,
      "排险者": 6501,
      "周文王": 6502,
      "16": 6503,
      "一大": 6504,
      "一架": 6505,
      "三颗": 6506,
      "他没有": 6507,
      "你怎么": 6508,
      "允许": 6509,
      "别墅": 6510,
      "十号": 6511,
      "发言": 6512,
      "向他": 6513,
      "它那": 6514,
      "对不起": 6515,
      "山的": 6516,
      "幅画": 6517,
      "强光": 6518,
      "很远": 6519,
      "悬浮": 6520,
      "成熟": 6521,
      "新大陆": 6522,
      "时空": 6523,
      "曲线": 6524,
      "模式": 6525,
      "正中": 6526,
      "水星": 6527,
      "深水": 6528,
      "特征": 6529,
      "理智": 6530,
      "登上": 6531,
      "的所有": 6532,
      "皮肤": 6533,
      "管道": 6534,
      "经验": 6535,
      "置身": 6536,
      "萨伊": 6537,
      "转过": 6538,
      "这位": 6539,
      "那张": 6540,
      "那颗": 6541,
      "钢铁": 6542,
      "限制": 6543,
      "震动": 6544,
      "食品": 6545,
      "可能性": 6546,
      "是一名": 6547,
      "只有一个": 6548,
      "在这儿": 6549,
      "第二次": 6550,
      "运动员": 6551,
      "不断地": 6552,
      "从来没有": 6553,
      "一笑": 6554,
      "不大": 6555,
      "像在": 6556,
      "出口": 6557,
      "因此": 6558,
      "地区": 6559,
      "坠落": 6560,
      "大规模": 6561,
      "女孩子": 6562,
      "家里": 6563,
      "对我": 6564,
      "将被": 6565,
      "就被": 6566,
      "布莱尔": 6567,
      "强度": 6568,
      "形式": 6569,
      "忘了": 6570,
      "感到了": 6571,
      "我不知道": 6572,
      "扩大": 6573,
      "拍摄": 6574,
      "探索": 6575,
      "无人": 6576,
      "最好": 6577,
      "某些": 6578,
      "火光": 6579,
      "灵魂": 6580,
      "百分之": 6581,
      "紧接着": 6582,
      "给你": 6583,
      "脱离": 6584,
      "荡荡": 6585,
      "财富": 6586,
      "这颗": 6587,
      "可能的": 6588,
      "最后一个": 6589,
      "最后一次": 6590,
      "社会的": 6591,
      "行星防御": 6592,
      "整个宇宙": 6593,
      "太阳系的": 6594,
      "卫队长": 6595,
      "万千米": 6596,
      "下午": 6597,
      "不上": 6598,
      "与地球": 6599,
      "之类": 6600,
      "也可以": 6601,
      "人和": 6602,
      "但由于": 6603,
      "全人类": 6604,
      "冷酷": 6605,
      "加速度": 6606,
      "只需": 6607,
      "命的": 6608,
      "墓碑": 6609,
      "大海": 6610,
      "大小的": 6611,
      "天边": 6612,
      "媒体": 6613,
      "季姆": 6614,
      "定位": 6615,
      "少尉": 6616,
      "山大": 6617,
      "帮助": 6618,
      "感受": 6619,
      "星光": 6620,
      "是不可能": 6621,
      "服务": 6622,
      "桌上": 6623,
      "狄奥": 6624,
      "玩具": 6625,
      "理由": 6626,
      "瓦季姆": 6627,
      "留下的": 6628,
      "的形状": 6629,
      "离去": 6630,
      "窗外": 6631,
      "翻译": 6632,
      "自我": 6633,
      "自身": 6634,
      "舒适": 6635,
      "识别": 6636,
      "诞生": 6637,
      "转移": 6638,
      "输入": 6639,
      "那名": 6640,
      "那天": 6641,
      "重大": 6642,
      "雪茄": 6643,
      "饕餮": 6644,
      "首都": 6645,
      "什么时候": 6646,
      "信息窗口": 6647,
      "公里的": 6648,
      "唯一的": 6649,
      "两位": 6650,
      "两天": 6651,
      "中校": 6652,
      "他用": 6653,
      "但从": 6654,
      "低声说": 6655,
      "使其": 6656,
      "保存": 6657,
      "借助": 6658,
      "分布": 6659,
      "嘴里": 6660,
      "在距": 6661,
      "地面上": 6662,
      "好奇": 6663,
      "尺度": 6664,
      "差不多": 6665,
      "开关": 6666,
      "强烈的": 6667,
      "很容易": 6668,
      "惟一": 6669,
      "想到了": 6670,
      "找不到": 6671,
      "极端": 6672,
      "标准": 6673,
      "点的": 6674,
      "的门": 6675,
      "笑了": 6676,
      "米的": 6677,
      "西洋": 6678,
      "这天": 6679,
      "连接": 6680,
      "面前的": 6681,
      "颜色": 6682,
      "麻木": 6683,
      "太空的": 6684,
      "世纪前": 6685,
      "那么大": 6686,
      "注意力": 6687,
      "告诉我": 6688,
      "指挥官": 6689,
      "恢复了": 6690,
      "飞快地": 6691,
      "不停地": 6692,
      "狄奥伦娜": 6693,
      "上千": 6694,
      "不安": 6695,
      "不远处": 6696,
      "从事": 6697,
      "全是": 6698,
      "公众": 6699,
      "冯凡": 6700,
      "在于": 6701,
      "处的": 6702,
      "夜空中": 6703,
      "家的": 6704,
      "就这样": 6705,
      "庄严": 6706,
      "强大的": 6707,
      "微观": 6708,
      "态的": 6709,
      "思议": 6710,
      "情绪": 6711,
      "承受": 6712,
      "拿着": 6713,
      "树枝": 6714,
      "瓦纳": 6715,
      "界面": 6716,
      "的边缘": 6717,
      "表面的": 6718,
      "西北": 6719,
      "要想": 6720,
      "角落": 6721,
      "调整": 6722,
      "这声音": 6723,
      "进程": 6724,
      "鞠躬": 6725,
      "首脑": 6726,
      "高级": 6727,
      "齿哥": 6728,
      "这个时代": 6729,
      "知道的": 6730,
      "的大地": 6731,
      "所有人都": 6732,
      "是一件": 6733,
      "那么多": 6734,
      "在一片": 6735,
      "的那样": 6736,
      "不可思议": 6737,
      "推进器": 6738,
      "奇怪的": 6739,
      "遥远的": 6740,
      "不得不": 6741,
      "所在的": 6742,
      "灿烂的": 6743,
      "执剑人": 6744,
      "一团": 6745,
      "一遍": 6746,
      "为此": 6747,
      "仪式": 6748,
      "但是": 6749,
      "但很快": 6750,
      "几名": 6751,
      "区别": 6752,
      "原理": 6753,
      "双眼睛": 6754,
      "叹息": 6755,
      "呵呵": 6756,
      "国王": 6757,
      "在内的": 6758,
      "埃玛": 6759,
      "夜色": 6760,
      "大喊": 6761,
      "天体": 6762,
      "失望": 6763,
      "头盔": 6764,
      "将是": 6765,
      "就有": 6766,
      "居住": 6767,
      "成一个": 6768,
      "所说": 6769,
      "暂时": 6770,
      "未来的": 6771,
      "柔软": 6772,
      "概念": 6773,
      "母舰": 6774,
      "浑身": 6775,
      "渴望": 6776,
      "玉菲": 6777,
      "的存在": 6778,
      "的表面": 6779,
      "真理": 6780,
      "示意": 6781,
      "空白": 6782,
      "羽毛": 6783,
      "舒服": 6784,
      "艘战舰": 6785,
      "落日": 6786,
      "警告": 6787,
      "边界": 6788,
      "那东西": 6789,
      "里面的": 6790,
      "鉴定": 6791,
      "银色": 6792,
      "长达": 6793,
      "阿姨": 6794,
      "靠近": 6795,
      "麻烦": 6796,
      "已经没有": 6797,
      "基地的": 6798,
      "历史的": 6799,
      "背景上": 6800,
      "我说过": 6801,
      "大气层": 6802,
      "持续了": 6803,
      "天花板": 6804,
      "与会": 6805,
      "两名": 6806,
      "亮度": 6807,
      "人了": 6808,
      "从这个": 6809,
      "他妈": 6810,
      "但我们": 6811,
      "使她": 6812,
      "冈瓦纳": 6813,
      "冲锋": 6814,
      "名的": 6815,
      "围着": 6816,
      "国旗": 6817,
      "地核": 6818,
      "安静": 6819,
      "对我们": 6820,
      "就算": 6821,
      "就没有": 6822,
      "尾迹": 6823,
      "已在": 6824,
      "总参谋长": 6825,
      "成了一": 6826,
      "我还": 6827,
      "打破": 6828,
      "支撑": 6829,
      "政委": 6830,
      "文学": 6831,
      "早在": 6832,
      "来得": 6833,
      "来源": 6834,
      "林格": 6835,
      "满足": 6836,
      "申玉菲": 6837,
      "的三": 6838,
      "看法": 6839,
      "看见": 6840,
      "看了一眼": 6841,
      "着什么": 6842,
      "稀疏": 6843,
      "站着": 6844,
      "紧紧": 6845,
      "继峰": 6846,
      "草坪": 6847,
      "蓝天": 6848,
      "被击": 6849,
      "西方": 6850,
      "起航": 6851,
      "那片": 6852,
      "音乐": 6853,
      "飞去": 6854,
      "飞星": 6855,
      "一个个": 6856,
      "什么都没有": 6857,
      "了一阵": 6858,
      "的一种": 6859,
      "的人群": 6860,
      "开始时": 6861,
      "技术的": 6862,
      "战争的": 6863,
      "光速的": 6864,
      "即使在": 6865,
      "南极大陆": 6866,
      "你是说": 6867,
      "审判日": 6868,
      "行星防御理事": 6869,
      "不由": 6870,
      "中华": 6871,
      "云层": 6872,
      "人口": 6873,
      "休息": 6874,
      "但还是": 6875,
      "使自己": 6876,
      "内存": 6877,
      "军的": 6878,
      "卫明": 6879,
      "厚的": 6880,
      "另一种": 6881,
      "呼叫": 6882,
      "咒语": 6883,
      "地盯着": 6884,
      "型的": 6885,
      "墙上": 6886,
      "大叫": 6887,
      "客厅": 6888,
      "就把": 6889,
      "尸体": 6890,
      "平均": 6891,
      "我有": 6892,
      "我能": 6893,
      "接过": 6894,
      "是这样": 6895,
      "是怎么": 6896,
      "某个": 6897,
      "样的": 6898,
      "步枪": 6899,
      "永恒": 6900,
      "法国": 6901,
      "海王星": 6902,
      "热的": 6903,
      "疲惫": 6904,
      "石头": 6905,
      "神话": 6906,
      "等于": 6907,
      "舰体": 6908,
      "舱门": 6909,
      "荒凉": 6910,
      "那次": 6911,
      "集结": 6912,
      "顺利": 6913,
      "鼠标": 6914,
      "什么的": 6915,
      "这个国家": 6916,
      "已经被": 6917,
      "起来了": 6918,
      "起来的": 6919,
      "人们的": 6920,
      "工作的": 6921,
      "三个人": 6922,
      "那样的": 6923,
      "飞行员": 6924,
      "一下子": 6925,
      "大家都": 6926,
      "木星的": 6927,
      "国土上": 6928,
      "了几秒钟": 6929,
      "轰鸣声": 6930,
      "一句": 6931,
      "一段": 6932,
      "三百": 6933,
      "中有": 6934,
      "享受": 6935,
      "他已经": 6936,
      "以至于": 6937,
      "低谷": 6938,
      "你不": 6939,
      "信心": 6940,
      "充分": 6941,
      "关心": 6942,
      "凝固": 6943,
      "几次": 6944,
      "出了一个": 6945,
      "十三": 6946,
      "听说": 6947,
      "天堂": 6948,
      "宗教": 6949,
      "宽阔": 6950,
      "密密": 6951,
      "对人类": 6952,
      "就象": 6953,
      "岁的": 6954,
      "强烈": 6955,
      "想了": 6956,
      "掉了": 6957,
      "是吗": 6958,
      "是有": 6959,
      "期间": 6960,
      "本质": 6961,
      "步兵": 6962,
      "王宫": 6963,
      "电影": 6964,
      "的部分": 6965,
      "的国家": 6966,
      "的士兵": 6967,
      "的基础": 6968,
      "着那": 6969,
      "童年": 6970,
      "笑容": 6971,
      "第四": 6972,
      "答应": 6973,
      "统一": 6974,
      "考察": 6975,
      "聪明": 6976,
      "螺旋": 6977,
      "足以": 6978,
      "这也": 6979,
      "长期": 6980,
      "魔戒": 6981,
      "这么多": 6982,
      "社会学": 6983,
      "变成了一": 6984,
      "启动了": 6985,
      "抬起头": 6986,
      "就行了": 6987,
      "一动不动": 6988,
      "万公里": 6989,
      "上看": 6990,
      "不够": 6991,
      "习惯": 6992,
      "乱纪元": 6993,
      "事儿": 6994,
      "人是": 6995,
      "仪器": 6996,
      "你说的": 6997,
      "光粒": 6998,
      "克罗": 6999,
      "反而": 7000,
      "发的": 7001,
      "同一个": 7002,
      "向后": 7003,
      "启示": 7004,
      "因斯坦": 7005,
      "国内": 7006,
      "圆柱": 7007,
      "在两": 7008,
      "在哪儿": 7009,
      "大地上": 7010,
      "好好": 7011,
      "宏伟": 7012,
      "小行星": 7013,
      "形成了": 7014,
      "想的": 7015,
      "提醒": 7016,
      "摆脱": 7017,
      "教师": 7018,
      "早晨": 7019,
      "昏暗": 7020,
      "最多": 7021,
      "格兰": 7022,
      "歼击": 7023,
      "沉思": 7024,
      "法官": 7025,
      "潘寒": 7026,
      "爱因斯坦": 7027,
      "瓦西": 7028,
      "的原因": 7029,
      "缓慢": 7030,
      "老头": 7031,
      "脑海中": 7032,
      "蜘蛛": 7033,
      "谁都": 7034,
      "象征": 7035,
      "这不": 7036,
      "远方的": 7037,
      "那边": 7038,
      "那是一个": 7039,
      "问者": 7040,
      "陈继峰": 7041,
      "随便": 7042,
      "雪白的": 7043,
      "我们可以": 7044,
      "什么地方": 7045,
      "地球上的": 7046,
      "就是一个": 7047,
      "生活在": 7048,
      "恒星的": 7049,
      "三个孩子": 7050,
      "工程的": 7051,
      "爆炸声": 7052,
      "机器人": 7053,
      "向前走": 7054,
      "科学家们": 7055,
      "曲率驱动": 7056,
      "占据了": 7057,
      "与此同时": 7058,
      "14": 7059,
      "PIA": 7060,
      "一台": 7061,
      "一股": 7062,
      "上是": 7063,
      "下车": 7064,
      "与他": 7065,
      "也被": 7066,
      "也要": 7067,
      "了些": 7068,
      "伸手": 7069,
      "使他们": 7070,
      "冰沙": 7071,
      "动了": 7072,
      "博物": 7073,
      "因而": 7074,
      "大门": 7075,
      "奇点": 7076,
      "她又": 7077,
      "宏观": 7078,
      "定了": 7079,
      "对自己": 7080,
      "平时": 7081,
      "并且": 7082,
      "引擎": 7083,
      "总理": 7084,
      "我已经": 7085,
      "我真的": 7086,
      "所说的": 7087,
      "手段": 7088,
      "扔到": 7089,
      "把目光": 7090,
      "是他": 7091,
      "是用": 7092,
      "柔和": 7093,
      "格的": 7094,
      "榴弹": 7095,
      "欢迎": 7096,
      "海的": 7097,
      "漂亮": 7098,
      "王然": 7099,
      "玫瑰": 7100,
      "留在": 7101,
      "的阳光": 7102,
      "真的是": 7103,
      "种子": 7104,
      "脸色": 7105,
      "讲述": 7106,
      "诡异": 7107,
      "身上的": 7108,
      "轰炸": 7109,
      "运输": 7110,
      "远的": 7111,
      "通知": 7112,
      "道的": 7113,
      "那两": 7114,
      "采用": 7115,
      "金斯": 7116,
      "闪光": 7117,
      "地球发动机": 7118,
      "已经很": 7119,
      "的大陆": 7120,
      "怎么能": 7121,
      "空间中": 7122,
      "数据库": 7123,
      "生物学": 7124,
      "房间里": 7125,
      "明显的": 7126,
      "证实了": 7127,
      "转过身": 7128,
      "克罗德": 7129,
      "博物馆": 7130,
      "一年": 7131,
      "万多": 7132,
      "上有": 7133,
      "上了一": 7134,
      "上世纪": 7135,
      "下一个": 7136,
      "从中": 7137,
      "从这里": 7138,
      "伊曼": 7139,
      "保卫": 7140,
      "全体": 7141,
      "冷冷": 7142,
      "协议": 7143,
      "卡奇": 7144,
      "号上的": 7145,
      "吃的": 7146,
      "命题": 7147,
      "哲学": 7148,
      "地狱": 7149,
      "地发现": 7150,
      "均匀": 7151,
      "外形": 7152,
      "大爆炸": 7153,
      "她知道": 7154,
      "审问者": 7155,
      "对了": 7156,
      "小说": 7157,
      "就不": 7158,
      "市长": 7159,
      "平方": 7160,
      "弗雷": 7161,
      "形态": 7162,
      "戴着": 7163,
      "把这": 7164,
      "拦截": 7165,
      "接下来": 7166,
      "机场": 7167,
      "欣赏": 7168,
      "每一": 7169,
      "毫不": 7170,
      "水中": 7171,
      "污染": 7172,
      "淡淡": 7173,
      "清洁": 7174,
      "温度": 7175,
      "的头": 7176,
      "的第一": 7177,
      "的天空": 7178,
      "眼神": 7179,
      "着陆": 7180,
      "碎块": 7181,
      "空灵": 7182,
      "笑起来": 7183,
      "级别": 7184,
      "行走": 7185,
      "被称为": 7186,
      "诺伊曼": 7187,
      "调查": 7188,
      "那位": 7189,
      "雪花": 7190,
      "革命": 7191,
      "黑域": 7192,
      "孩子世界": 7193,
      "可以肯定": 7194,
      "他的话": 7195,
      "三体星系": 7196,
      "年轻的": 7197,
      "为什么不": 7198,
      "公元钟": 7199,
      "威慑纪元": 7200,
      "奥运会": 7201,
      "无际的": 7202,
      "卡奇卡": 7203,
      "12": 7204,
      "一生": 7205,
      "三千": 7206,
      "下方": 7207,
      "不解": 7208,
      "两舰": 7209,
      "个体": 7210,
      "举行": 7211,
      "低声": 7212,
      "你可以": 7213,
      "入侵": 7214,
      "内脏": 7215,
      "几千": 7216,
      "去吧": 7217,
      "只在": 7218,
      "同学": 7219,
      "四百": 7220,
      "图形": 7221,
      "娃们": 7222,
      "安乐": 7223,
      "安装": 7224,
      "对他们": 7225,
      "对这个": 7226,
      "小舱": 7227,
      "差别": 7228,
      "张援": 7229,
      "形成的": 7230,
      "微子": 7231,
      "意的": 7232,
      "把手": 7233,
      "挣扎": 7234,
      "操纵": 7235,
      "故障": 7236,
      "无形": 7237,
      "是以": 7238,
      "有个": 7239,
      "有效": 7240,
      "核武器": 7241,
      "正如": 7242,
      "毕业": 7243,
      "法庭": 7244,
      "状的": 7245,
      "玉莲": 7246,
      "理会": 7247,
      "白天": 7248,
      "的那些": 7249,
      "的机会": 7250,
      "着了": 7251,
      "精度": 7252,
      "船队": 7253,
      "走过": 7254,
      "运载": 7255,
      "这只是": 7256,
      "进步": 7257,
      "现在是": 7258,
      "时间里": 7259,
      "这种感觉": 7260,
      "人们都": 7261,
      "完全不同": 7262,
      "过去的": 7263,
      "冬眠者": 7264,
      "小心地": 7265,
      "集团军": 7266,
      "降临派": 7267,
      "置身于": 7268,
      "张援朝": 7269,
      "不足": 7270,
      "之所以": 7271,
      "了我": 7272,
      "交接": 7273,
      "他还": 7274,
      "估计": 7275,
      "但它": 7276,
      "低光速": 7277,
      "作者": 7278,
      "先进": 7279,
      "公布": 7280,
      "出于": 7281,
      "列车": 7282,
      "初步": 7283,
      "力地": 7284,
      "包含": 7285,
      "十字": 7286,
      "去找": 7287,
      "发电": 7288,
      "变为": 7289,
      "可笑": 7290,
      "各自": 7291,
      "后来的": 7292,
      "哥哥": 7293,
      "噩梦": 7294,
      "增大": 7295,
      "安排": 7296,
      "密的": 7297,
      "小学": 7298,
      "幸存": 7299,
      "得到的": 7300,
      "恒纪元": 7301,
      "我将": 7302,
      "指向": 7303,
      "收集": 7304,
      "教育": 7305,
      "比起": 7306,
      "沉浸": 7307,
      "没想到": 7308,
      "流逝": 7309,
      "深深": 7310,
      "痕迹": 7311,
      "的主": 7312,
      "的前": 7313,
      "的结果": 7314,
      "瞄准": 7315,
      "罗拉": 7316,
      "耳机": 7317,
      "脉冲": 7318,
      "警卫": 7319,
      "讲话": 7320,
      "说是": 7321,
      "走廊": 7322,
      "身材": 7323,
      "躯体": 7324,
      "这艘": 7325,
      "这一次": 7326,
      "这使得": 7327,
      "遗憾": 7328,
      "陌生": 7329,
      "黑点": 7330,
      "１０": 7331,
      "自己在": 7332,
      "已经在": 7333,
      "太空电梯": 7334,
      "时间的": 7335,
      "的大部分": 7336,
      "的事儿": 7337,
      "下去了": 7338,
      "会议上": 7339,
      "重要的": 7340,
      "大厅中": 7341,
      "笑着摇摇头": 7342,
      "失败主义": 7343,
      "引力波发射": 7344,
      "平原上": 7345,
      "遥控站": 7346,
      "沙发上": 7347,
      "中尉": 7348,
      "中断": 7349,
      "代码": 7350,
      "但也": 7351,
      "做什么": 7352,
      "停下": 7353,
      "减少": 7354,
      "分辨": 7355,
      "利用": 7356,
      "变形": 7357,
      "可怜": 7358,
      "台阶": 7359,
      "土地上": 7360,
      "地心": 7361,
      "头顶": 7362,
      "害怕": 7363,
      "容器": 7364,
      "射线": 7365,
      "少数": 7366,
      "尽的": 7367,
      "巨人": 7368,
      "得不": 7369,
      "心灵": 7370,
      "惊喜": 7371,
      "才知道": 7372,
      "扰动": 7373,
      "抱着": 7374,
      "招呼": 7375,
      "振动": 7376,
      "方形": 7377,
      "普金斯": 7378,
      "更为": 7379,
      "有多少": 7380,
      "朱汉": 7381,
      "歌者": 7382,
      "泡泡": 7383,
      "深海": 7384,
      "父母": 7385,
      "用手": 7386,
      "登陆": 7387,
      "的波": 7388,
      "的方式": 7389,
      "的空气": 7390,
      "目的地": 7391,
      "相距": 7392,
      "祭坛": 7393,
      "空军": 7394,
      "第2": 7395,
      "箱子": 7396,
      "粮食": 7397,
      "给她": 7398,
      "绿色的": 7399,
      "英语": 7400,
      "身处": 7401,
      "阻止": 7402,
      "随后": 7403,
      "隐喻": 7404,
      "霍普金斯": 7405,
      "现在已": 7406,
      "空间的": 7407,
      "孩子们都": 7408,
      "生活的": 7409,
      "的那一": 7410,
      "告诉他": 7411,
      "沉默了": 7412,
      "看不出": 7413,
      "轻轻地": 7414,
      "范围内": 7415,
      "走进了": 7416,
      "尘埃云": 7417,
      "电磁波": 7418,
      "广场上": 7419,
      "生态循环": 7420,
      "装甲车": 7421,
      "歼击机": 7422,
      "不少": 7423,
      "不懂": 7424,
      "中部": 7425,
      "中微子": 7426,
      "之下": 7427,
      "九十": 7428,
      "人数": 7429,
      "他向": 7430,
      "伟大": 7431,
      "但对": 7432,
      "入口": 7433,
      "关注": 7434,
      "冰冷": 7435,
      "加纳": 7436,
      "十个": 7437,
      "又在": 7438,
      "古典": 7439,
      "吃饭": 7440,
      "向他们": 7441,
      "在地球上": 7442,
      "大于": 7443,
      "大声说": 7444,
      "它将": 7445,
      "寻常": 7446,
      "封锁": 7447,
      "布满了": 7448,
      "幻觉": 7449,
      "建成": 7450,
      "引爆": 7451,
      "当他们": 7452,
      "形势": 7453,
      "很简单": 7454,
      "微弱": 7455,
      "悬崖": 7456,
      "情景": 7457,
      "打开了": 7458,
      "扫描": 7459,
      "把她": 7460,
      "拖着": 7461,
      "支持": 7462,
      "收到了": 7463,
      "星海": 7464,
      "显得很": 7465,
      "更是": 7466,
      "果然": 7467,
      "水晶": 7468,
      "深渊": 7469,
      "炮弹": 7470,
      "点燃": 7471,
      "烟雾": 7472,
      "真诚": 7473,
      "眼泪": 7474,
      "禁止": 7475,
      "空荡荡": 7476,
      "第五": 7477,
      "缺少": 7478,
      "装备": 7479,
      "请求": 7480,
      "贵的": 7481,
      "走来": 7482,
      "超重": 7483,
      "足球": 7484,
      "车里": 7485,
      "通道": 7486,
      "部门": 7487,
      "镜头": 7488,
      "集体": 7489,
      "领土": 7490,
      "高高的": 7491,
      "黄昏": 7492,
      "我们也": 7493,
      "我们将": 7494,
      "已经是": 7495,
      "程心问": 7496,
      "上的一个": 7497,
      "这些东西": 7498,
      "然后又": 7499,
      "信息的": 7500,
      "的地下": 7501,
      "当然是": 7502,
      "第一部": 7503,
      "游戏中": 7504,
      "十分之一": 7505,
      "每个人": 7506,
      "确实是": 7507,
      "一点儿": 7508,
      "面对着": 7509,
      "的高度": 7510,
      "人民大会": 7511,
      "外星文明": 7512,
      "破壁人二号": 7513,
      "逃亡主义": 7514,
      "类似于": 7515,
      "朱汉杨": 7516,
      "一排": 7517,
      "一脸": 7518,
      "不不": 7519,
      "不像": 7520,
      "不一样": 7521,
      "严寒": 7522,
      "也一样": 7523,
      "人家": 7524,
      "代替": 7525,
      "但这个": 7526,
      "你就": 7527,
      "你还": 7528,
      "保育": 7529,
      "再也没有": 7530,
      "化学": 7531,
      "北美": 7532,
      "和其他": 7533,
      "坚定": 7534,
      "大型": 7535,
      "太大": 7536,
      "奇迹": 7537,
      "家伙": 7538,
      "尽量": 7539,
      "座位": 7540,
      "引起了": 7541,
      "很可能": 7542,
      "微型": 7543,
      "心脏": 7544,
      "愤怒": 7545,
      "我把": 7546,
      "我只是": 7547,
      "我还是": 7548,
      "才是": 7549,
      "承担": 7550,
      "接口": 7551,
      "推测": 7552,
      "摇篮": 7553,
      "方舟": 7554,
      "朦胧": 7555,
      "极力": 7556,
      "桌子": 7557,
      "淹没": 7558,
      "点上": 7559,
      "的山": 7560,
      "直线": 7561,
      "眼前的": 7562,
      "自杀": 7563,
      "蒸汽": 7564,
      "血液": 7565,
      "袋中": 7566,
      "解除": 7567,
      "迎接": 7568,
      "近距离": 7569,
      "追击": 7570,
      "造成的": 7571,
      "那几": 7572,
      "间隔": 7573,
      "飞速": 7574,
      "黄色": 7575,
      "人类世界": 7576,
      "罗辑博士": 7577,
      "的大气": 7578,
      "的地面": 7579,
      "显示屏": 7580,
      "想象中的": 7581,
      "星环城": 7582,
      "国际社会": 7583,
      "保持着": 7584,
      "一只手": 7585,
      "可怕的": 7586,
      "航空母舰": 7587,
      "陆战队": 7588,
      "饕餮鱼": 7589,
      "笑了笑": 7590,
      "冲锋枪": 7591,
      "17": 7592,
      "ce": 7593,
      "下一步": 7594,
      "不住": 7595,
      "亮着": 7596,
      "他也": 7597,
      "仰望着": 7598,
      "但要": 7599,
      "停泊": 7600,
      "先祖": 7601,
      "关上": 7602,
      "具备": 7603,
      "分为": 7604,
      "卫兵": 7605,
      "各大": 7606,
      "合适": 7607,
      "同一": 7608,
      "向着": 7609,
      "回来了": 7610,
      "地上的": 7611,
      "地面的": 7612,
      "好吗": 7613,
      "完结": 7614,
      "定律": 7615,
      "宫殿": 7616,
      "带有": 7617,
      "开着": 7618,
      "弯曲": 7619,
      "当他": 7620,
      "往事": 7621,
      "总工程师": 7622,
      "成立": 7623,
      "战中": 7624,
      "损失": 7625,
      "收回": 7626,
      "无线": 7627,
      "来看": 7628,
      "来不及": 7629,
      "死星": 7630,
      "沉的": 7631,
      "火的": 7632,
      "特点": 7633,
      "窒息": 7634,
      "童话": 7635,
      "管理": 7636,
      "细看": 7637,
      "能源": 7638,
      "警长": 7639,
      "认出了": 7640,
      "谈判": 7641,
      "辈子": 7642,
      "运转": 7643,
      "这之前": 7644,
      "逼近": 7645,
      "遗传": 7646,
      "醒目": 7647,
      "销毁": 7648,
      "镜子": 7649,
      "陶醉": 7650,
      "面罩": 7651,
      "他们对": 7652,
      "了一条": 7653,
      "的一片": 7654,
      "罗辑问": 7655,
      "出来了": 7656,
      "也不能": 7657,
      "整个世界": 7658,
      "发生的": 7659,
      "二十亿": 7660,
      "肯定是": 7661,
      "面壁者的": 7662,
      "意识中": 7663,
      "正常的": 7664,
      "行星防御理事会": 7665,
      "格兰特": 7666,
      "弗雷斯": 7667,
      "罗拉西亚": 7668,
      "30": 7669,
      "50": 7670,
      "一幅": 7671,
      "万吨": 7672,
      "上午": 7673,
      "上都": 7674,
      "不止": 7675,
      "不错": 7676,
      "不容易": 7677,
      "两眼": 7678,
      "乱的": 7679,
      "了这个": 7680,
      "事业": 7681,
      "亲爱的": 7682,
      "人体": 7683,
      "传来的": 7684,
      "你真的": 7685,
      "你应该": 7686,
      "候选": 7687,
      "值得": 7688,
      "值班": 7689,
      "停在": 7690,
      "军装": 7691,
      "刚从": 7692,
      "剧烈": 7693,
      "剩下": 7694,
      "响起了": 7695,
      "嗡嗡": 7696,
      "固态": 7697,
      "在太阳": 7698,
      "地位": 7699,
      "塑料": 7700,
      "她和": 7701,
      "她看到": 7702,
      "宽大的": 7703,
      "工厂": 7704,
      "平面上": 7705,
      "年前的": 7706,
      "快乐": 7707,
      "性质": 7708,
      "您能": 7709,
      "戴上": 7710,
      "拉开": 7711,
      "拐杖": 7712,
      "提示": 7713,
      "摄像": 7714,
      "放着": 7715,
      "晓明": 7716,
      "村里": 7717,
      "来回": 7718,
      "海面上": 7719,
      "漂浮": 7720,
      "灭绝": 7721,
      "特殊": 7722,
      "牺牲": 7723,
      "的含义": 7724,
      "站了起来": 7725,
      "笑声": 7726,
      "等的": 7727,
      "结论": 7728,
      "耀眼": 7729,
      "胎儿": 7730,
      "自转": 7731,
      "航向": 7732,
      "英雄": 7733,
      "西欧": 7734,
      "要把": 7735,
      "让程心": 7736,
      "证据": 7737,
      "说法": 7738,
      "赤道": 7739,
      "达到了": 7740,
      "震撼": 7741,
      "顶部": 7742,
      "黄色的": 7743,
      "我们不": 7744,
      "程心看到": 7745,
      "发现自己": 7746,
      "舰队司令": 7747,
      "研究的": 7748,
      "问题的": 7749,
      "AA说": 7750,
      "控制中心": 7751,
      "那时的": 7752,
      "是什么样子": 7753,
      "普通的": 7754,
      "天文学家": 7755,
      "反射着": 7756,
      "四维空间": 7757,
      "慢慢地": 7758,
      "或者说": 7759,
      "成长区": 7760,
      "可见光": 7761,
      "显现出来": 7762,
      "21": 7763,
      "一致": 7764,
      "一边": 7765,
      "三位": 7766,
      "三次": 7767,
      "个天文单位": 7768,
      "中看到": 7769,
      "为基础": 7770,
      "亚历": 7771,
      "人生": 7772,
      "令他": 7773,
      "伽尔": 7774,
      "但如果": 7775,
      "你也": 7776,
      "依靠": 7777,
      "倾向": 7778,
      "停下来": 7779,
      "十八": 7780,
      "双方的": 7781,
      "吕文明": 7782,
      "壁炉": 7783,
      "大声": 7784,
      "大量子": 7785,
      "学术": 7786,
      "完美": 7787,
      "小了": 7788,
      "巨球": 7789,
      "已完结": 7790,
      "年来": 7791,
      "度过": 7792,
      "庭院": 7793,
      "当年": 7794,
      "微笑着": 7795,
      "惩罚": 7796,
      "我看到": 7797,
      "手榴弹": 7798,
      "效果": 7799,
      "救世": 7800,
      "方便": 7801,
      "无疑": 7802,
      "日出": 7803,
      "是谁": 7804,
      "有所": 7805,
      "权限": 7806,
      "极限": 7807,
      "枪声": 7808,
      "民族": 7809,
      "活儿": 7810,
      "活下去": 7811,
      "深入": 7812,
      "深度": 7813,
      "清理": 7814,
      "照耀": 7815,
      "画面上": 7816,
      "白宫": 7817,
      "百分之一": 7818,
      "的目标": 7819,
      "的图像": 7820,
      "直觉": 7821,
      "相似": 7822,
      "相机": 7823,
      "破裂": 7824,
      "空的": 7825,
      "给了": 7826,
      "给你们": 7827,
      "群落": 7828,
      "翅膀": 7829,
      "老弟": 7830,
      "虚弱": 7831,
      "被摧毁": 7832,
      "视觉": 7833,
      "走过来": 7834,
      "轻松": 7835,
      "辉煌": 7836,
      "这张": 7837,
      "远离": 7838,
      "长大": 7839,
      "陛下": 7840,
      "顾问": 7841,
      "飞到": 7842,
      "就是在": 7843,
      "时间内": 7844,
      "那个大": 7845,
      "开始后": 7846,
      "感觉自己": 7847,
      "孩子们的": 7848,
      "这么做": 7849,
      "第一批": 7850,
      "状态下": 7851,
      "二十多": 7852,
      "刚才的": 7853,
      "云天明的": 7854,
      "父亲的": 7855,
      "建立了": 7856,
      "内部的": 7857,
      "作用力": 7858,
      "士兵们": 7859,
      "看不清": 7860,
      "危险的": 7861,
      "晓梦说": 7862,
      "世界上最": 7863,
      "联邦政府": 7864,
      "秋生爹": 7865,
      "统帅部": 7866,
      "体育场": 7867,
      "相同的": 7868,
      "完整的": 7869,
      "阶梯计划": 7870,
      "虚拟公民1": 7871,
      "星舰地球": 7872,
      "亚历山大": 7873,
      "06": 7874,
      "500": 7875,
      "一家": 7876,
      "一面": 7877,
      "下降": 7878,
      "为自己": 7879,
      "人物": 7880,
      "人马": 7881,
      "企图": 7882,
      "伊甸": 7883,
      "但与": 7884,
      "低头": 7885,
      "你现在": 7886,
      "使它": 7887,
      "依次": 7888,
      "包裹": 7889,
      "医学": 7890,
      "反映": 7891,
      "只想": 7892,
      "向地球": 7893,
      "在它": 7894,
      "在意": 7895,
      "在上面": 7896,
      "外围": 7897,
      "大低谷": 7898,
      "奥卡": 7899,
      "好在": 7900,
      "学会": 7901,
      "对你": 7902,
      "对抗": 7903,
      "对面": 7904,
      "屏蔽": 7905,
      "帐篷": 7906,
      "平台": 7907,
      "平息": 7908,
      "广告": 7909,
      "庞大": 7910,
      "座椅": 7911,
      "引发": 7912,
      "我去": 7913,
      "我认为": 7914,
      "把一个": 7915,
      "折磨": 7916,
      "拉着": 7917,
      "摩天": 7918,
      "敬礼": 7919,
      "无意": 7920,
      "日点": 7921,
      "是我": 7922,
      "是那么": 7923,
      "机舱": 7924,
      "来时": 7925,
      "林中": 7926,
      "沉睡": 7927,
      "油画": 7928,
      "波江": 7929,
      "清澈": 7930,
      "激活": 7931,
      "炎帝": 7932,
      "的变化": 7933,
      "的内容": 7934,
      "笑话": 7935,
      "简介": 7936,
      "而来": 7937,
      "耳朵": 7938,
      "警官": 7939,
      "走后": 7940,
      "起伏": 7941,
      "超出了": 7942,
      "身躯": 7943,
      "轻易": 7944,
      "这孩子": 7945,
      "阵地": 7946,
      "隔离": 7947,
      "雷志": 7948,
      "韦斯特": 7949,
      "飘浮在": 7950,
      "麻麻": 7951,
      "我们应该": 7952,
      "地球三体": 7953,
      "的一角": 7954,
      "的人生": 7955,
      "城市中": 7956,
      "存在着": 7957,
      "恒星际": 7958,
      "仿佛在": 7959,
      "几个人": 7960,
      "计算机的": 7961,
      "电脑总网": 7962,
      "也许是": 7963,
      "生存的": 7964,
      "黑暗森林打击": 7965,
      "以为然": 7966,
      "成功的": 7967,
      "程心和关一帆": 7968,
      "仅仅是": 7969,
      "放弃了": 7970,
      "密密麻麻": 7971,
      "瓦西里": 7972,
      "伽尔宁": 7973,
      "23": 7974,
      "Ice": 7975,
      "□□": 7976,
      "不以为然": 7977,
      "与我们": 7978,
      "两者": 7979,
      "之上": 7980,
      "乔加纳": 7981,
      "从那": 7982,
      "他想": 7983,
      "他突然": 7984,
      "代价": 7985,
      "以光速": 7986,
      "仰望": 7987,
      "低的": 7988,
      "你会": 7989,
      "六号": 7990,
      "兵力": 7991,
      "凌晨": 7992,
      "到一个": 7993,
      "前者": 7994,
      "加入": 7995,
      "加工": 7996,
      "加快": 7997,
      "包围": 7998,
      "华夏": 7999,
      "占领": 8000,
      "发出了": 8001,
      "发光的": 8002,
      "吃了": 8003,
      "同事": 8004,
      "呼啸": 8005,
      "回了": 8006,
      "国防": 8007,
      "完好": 8008,
      "室的": 8009,
      "布满": 8010,
      "干了": 8011,
      "年时间": 8012,
      "幻想": 8013,
      "强的": 8014,
      "往往": 8015,
      "很奇怪": 8016,
      "得太": 8017,
      "心中的": 8018,
      "必然": 8019,
      "快的": 8020,
      "悲哀": 8021,
      "感叹": 8022,
      "扶着": 8023,
      "把这个": 8024,
      "掏出": 8025,
      "排列": 8026,
      "提出的": 8027,
      "散步": 8028,
      "明朝": 8029,
      "晋文": 8030,
      "杨晋文": 8031,
      "气候": 8032,
      "沸腾": 8033,
      "泡沫": 8034,
      "涉及": 8035,
      "灰尘": 8036,
      "留下了": 8037,
      "白Ice": 8038,
      "的路": 8039,
      "的中心": 8040,
      "简洁": 8041,
      "紧贴": 8042,
      "累了": 8043,
      "美妙": 8044,
      "耳边": 8045,
      "自行": 8046,
      "舱内": 8047,
      "舷梯": 8048,
      "船上": 8049,
      "苏联": 8050,
      "葡萄": 8051,
      "警方": 8052,
      "警车": 8053,
      "认真": 8054,
      "谨慎": 8055,
      "车辆": 8056,
      "还会": 8057,
      "这段": 8058,
      "通向": 8059,
      "长叹": 8060,
      "闪闪": 8061,
      "食物": 8062,
      "黑白": 8063,
      "黑的": 8064,
      "我们会": 8065,
      "没有回答": 8066,
      "宇宙广播": 8067,
      "三体危机": 8068,
      "有一些": 8069,
      "有一半": 8070,
      "两个月": 8071,
      "两个世界": 8072,
      "的是什么": 8073,
      "只能在": 8074,
      "二十世纪": 8075,
      "注意到了": 8076,
      "着一条": 8077,
      "像一只": 8078,
      "二维平面": 8079,
      "每个人都": 8080,
      "领导者": 8081,
      "现实的": 8082,
      "危机纪元": 8083,
      "万年炎帝": 8084,
      "各个方向": 8085,
      "朋友们": 8086,
      "也就是说": 8087,
      "神经元": 8088,
      "足够的": 8089,
      "相应的": 8090,
      "之类的": 8091,
      "伊甸园": 8092,
      "2号基地": 8093,
      "47": 8094,
      "M10": 8095,
      "一万": 8096,
      "一时间": 8097,
      "丈夫": 8098,
      "不见": 8099,
      "严肃": 8100,
      "个小时": 8101,
      "亲自": 8102,
      "他现在": 8103,
      "伤害": 8104,
      "但这次": 8105,
      "你好": 8106,
      "使人": 8107,
      "儿的": 8108,
      "先是": 8109,
      "冲突": 8110,
      "到过": 8111,
      "力和": 8112,
      "北爱": 8113,
      "却是": 8114,
      "厘米": 8115,
      "发表": 8116,
      "史晓明": 8117,
      "和大": 8118,
      "哪个": 8119,
      "国务": 8120,
      "坍缩": 8121,
      "增长": 8122,
      "夜晚": 8123,
      "天使": 8124,
      "头说": 8125,
      "好玩儿": 8126,
      "完成的": 8127,
      "实体": 8128,
      "实施": 8129,
      "对她": 8130,
      "对射": 8131,
      "就这么": 8132,
      "就在这": 8133,
      "居民": 8134,
      "山脉": 8135,
      "山顶": 8136,
      "岗位": 8137,
      "已没有": 8138,
      "开枪": 8139,
      "弹头": 8140,
      "微的": 8141,
      "心的": 8142,
      "怪物": 8143,
      "惊叹": 8144,
      "我不是": 8145,
      "把握": 8146,
      "抓着": 8147,
      "抵抗": 8148,
      "提高": 8149,
      "握着": 8150,
      "效率": 8151,
      "无边": 8152,
      "星图": 8153,
      "望去": 8154,
      "汉语": 8155,
      "沈渊": 8156,
      "港口": 8157,
      "烟斗": 8158,
      "爱情": 8159,
      "狭窄": 8160,
      "生日": 8161,
      "甲板": 8162,
      "登记": 8163,
      "百万": 8164,
      "的飞船": 8165,
      "的海洋": 8166,
      "相继": 8167,
      "看得": 8168,
      "看过": 8169,
      "看起来": 8170,
      "真想": 8171,
      "真相": 8172,
      "短的时间": 8173,
      "种族": 8174,
      "移开": 8175,
      "稍微": 8176,
      "红卫兵": 8177,
      "线的": 8178,
      "置信": 8179,
      "能在": 8180,
      "舱壁": 8181,
      "蓝星": 8182,
      "行动的": 8183,
      "补充": 8184,
      "请您": 8185,
      "赶紧": 8186,
      "达达": 8187,
      "运河": 8188,
      "这在": 8189,
      "违反": 8190,
      "都可以": 8191,
      "野蛮": 8192,
      "错的": 8193,
      "镜片": 8194,
      "队形": 8195,
      "陆军": 8196,
      "隆隆": 8197,
      "雾中": 8198,
      "顺着": 8199,
      "风度": 8200,
      "黑夜": 8201,
      "黯淡": 8202,
      "现在已经": 8203,
      "了一次": 8204,
      "他的手": 8205,
      "的大厅": 8206,
      "所有的人": 8207,
      "它们在": 8208,
      "是一位": 8209,
      "很快发现": 8210,
      "怎么可能": 8211,
      "显示着": 8212,
      "那是什么": 8213,
      "中国人": 8214,
      "能够在": 8215,
      "点点头说": 8216,
      "会议的": 8217,
      "沉默着": 8218,
      "理解的": 8219,
      "重要的是": 8220,
      "安全的": 8221,
      "一定要": 8222,
      "今天的": 8223,
      "眼镜说": 8224,
      "一般的": 8225,
      "的一切都": 8226,
      "一百五十": 8227,
      "内容简介": 8228,
      "同样的": 8229,
      "考虑到": 8230,
      "半个世纪": 8231,
      "熟悉的": 8232,
      "同志们": 8233,
      "纪念碑": 8234,
      "四下看看": 8235,
      "打量着": 8236,
      "无声地": 8237,
      "深水王子": 8238,
      "玫瑰星云": 8239,
      "一行": 8240,
      "下一": 8241,
      "下部": 8242,
      "不着": 8243,
      "不多的": 8244,
      "之际": 8245,
      "也只能": 8246,
      "也无法": 8247,
      "了她": 8248,
      "他问": 8249,
      "传感": 8250,
      "体会": 8251,
      "元素": 8252,
      "光柱": 8253,
      "光盘": 8254,
      "光年的": 8255,
      "全力": 8256,
      "全身": 8257,
      "决议": 8258,
      "几年": 8259,
      "分配": 8260,
      "劳动": 8261,
      "匆匆": 8262,
      "十一": 8263,
      "卡佳": 8264,
      "去哪儿": 8265,
      "参与": 8266,
      "发起": 8267,
      "可靠": 8268,
      "员的": 8269,
      "呜呜": 8270,
      "和你": 8271,
      "困惑": 8272,
      "在火": 8273,
      "在后面": 8274,
      "城里": 8275,
      "增强": 8276,
      "多小时": 8277,
      "头颅": 8278,
      "子中": 8279,
      "对付": 8280,
      "对准": 8281,
      "对这": 8282,
      "尽可能": 8283,
      "展示": 8284,
      "岩层": 8285,
      "工事": 8286,
      "差距": 8287,
      "已有": 8288,
      "干净": 8289,
      "底部": 8290,
      "强大": 8291,
      "很小的": 8292,
      "微人": 8293,
      "微小的": 8294,
      "微纪元": 8295,
      "忍受": 8296,
      "忧郁": 8297,
      "惊人的": 8298,
      "我很": 8299,
      "我来": 8300,
      "我都": 8301,
      "我没有": 8302,
      "我可以": 8303,
      "才发现": 8304,
      "把他们": 8305,
      "拾荒": 8306,
      "指示": 8307,
      "提前": 8308,
      "摇晃": 8309,
      "放置": 8310,
      "暗示": 8311,
      "服的": 8312,
      "欲望": 8313,
      "欺骗": 8314,
      "死去": 8315,
      "残骸": 8316,
      "比你们": 8317,
      "水面": 8318,
      "沉重": 8319,
      "爷爷": 8320,
      "现有的": 8321,
      "田园": 8322,
      "电力": 8323,
      "电池": 8324,
      "白痴": 8325,
      "的新": 8326,
      "的最后": 8327,
      "真有": 8328,
      "破碎": 8329,
      "确认": 8330,
      "神奇": 8331,
      "稀薄": 8332,
      "米高": 8333,
      "纳森": 8334,
      "老者": 8335,
      "肩上": 8336,
      "脱水": 8337,
      "落的": 8338,
      "蓝光": 8339,
      "蓝鲸": 8340,
      "融化": 8341,
      "见面": 8342,
      "记载": 8343,
      "走的": 8344,
      "超弦": 8345,
      "超过了": 8346,
      "这群": 8347,
      "送给": 8348,
      "逐渐": 8349,
      "逻辑": 8350,
      "遗体": 8351,
      "那两个": 8352,
      "部件": 8353,
      "间断": 8354,
      "阅读": 8355,
      "阿根": 8356,
      "露出了": 8357,
      "驱逐": 8358,
      "黎明": 8359,
      "一个孩子": 8360,
      "我们能": 8361,
      "现在看来": 8362,
      "了一半": 8363,
      "的一点": 8364,
      "就是说": 8365,
      "如果你": 8366,
      "的大地上": 8367,
      "舰队国际": 8368,
      "信息体": 8369,
      "我们的世界": 8370,
      "最高的": 8371,
      "中国的": 8372,
      "游戏的": 8373,
      "摇摇头说": 8374,
      "大部分是": 8375,
      "的巨型": 8376,
      "公元世纪的": 8377,
      "黑暗森林威慑": 8378,
      "天文台": 8379,
      "根本不可能": 8380,
      "难以置信": 8381,
      "最近的": 8382,
      "有限的": 8383,
      "来得及": 8384,
      "生态循环系统": 8385,
      "救世主": 8386,
      "22": 8387,
      "ET": 8388,
      "一丝": 8389,
      "上万": 8390,
      "上级": 8391,
      "不远": 8392,
      "乎乎": 8393,
      "乘坐": 8394,
      "互作用力": 8395,
      "伊柳": 8396,
      "会上": 8397,
      "会使": 8398,
      "会被": 8399,
      "信任": 8400,
      "做梦": 8401,
      "做出的": 8402,
      "做不到": 8403,
      "停了": 8404,
      "像被": 8405,
      "冒险": 8406,
      "分成": 8407,
      "分裂": 8408,
      "力气": 8409,
      "变态": 8410,
      "只蚂蚁": 8411,
      "和人": 8412,
      "和孩子": 8413,
      "团的": 8414,
      "在雪": 8415,
      "在这些": 8416,
      "在太阳系": 8417,
      "在这样的": 8418,
      "在外面": 8419,
      "在黑暗中": 8420,
      "坐着": 8421,
      "壮观": 8422,
      "多久": 8423,
      "大批": 8424,
      "太多": 8425,
      "夹克": 8426,
      "学科": 8427,
      "室里": 8428,
      "尊严": 8429,
      "尊敬": 8430,
      "小草": 8431,
      "巨石": 8432,
      "巨量的": 8433,
      "差异": 8434,
      "平淡": 8435,
      "并在": 8436,
      "强互作用力": 8437,
      "微波": 8438,
      "所产生的": 8439,
      "扎兰": 8440,
      "把伞": 8441,
      "改造": 8442,
      "敬畏": 8443,
      "无比": 8444,
      "晶体": 8445,
      "最为": 8446,
      "最好的": 8447,
      "本世纪": 8448,
      "检索": 8449,
      "模块": 8450,
      "死寂": 8451,
      "毛毛": 8452,
      "治安": 8453,
      "法扎兰": 8454,
      "流星": 8455,
      "浪费": 8456,
      "演化": 8457,
      "灯的": 8458,
      "灰色": 8459,
      "状况": 8460,
      "猛地": 8461,
      "琳娜": 8462,
      "男孩子": 8463,
      "病毒": 8464,
      "登山": 8465,
      "的画": 8466,
      "简短": 8467,
      "红的": 8468,
      "细菌": 8469,
      "细长的": 8470,
      "缩小": 8471,
      "而来的": 8472,
      "联席": 8473,
      "背后": 8474,
      "胶卷": 8475,
      "能听到": 8476,
      "萨里": 8477,
      "螳螂": 8478,
      "袭击": 8479,
      "谁也不知道": 8480,
      "轻盈": 8481,
      "逃脱": 8482,
      "那座": 8483,
      "闪着": 8484,
      "雷粒": 8485,
      "风暴": 8486,
      "高层": 8487,
      "高温": 8488,
      "鼻子": 8489,
      "我们还是": 8490,
      "什么事": 8491,
      "自己也": 8492,
      "地球世界": 8493,
      "的一生": 8494,
      "人类在": 8495,
      "人类历史上": 8496,
      "那个小": 8497,
      "如果没有": 8498,
      "有一点": 8499,
      "的大门": 8500,
      "飞船上": 8501,
      "是一条": 8502,
      "很快被": 8503,
      "空间站": 8504,
      "工作人员": 8505,
      "科学执政官": 8506,
      "只能看到": 8507,
      "甚至连": 8508,
      "不能再": 8509,
      "美国人": 8510,
      "美国代表": 8511,
      "成为一个": 8512,
      "变成一个": 8513,
      "中心的": 8514,
      "力量的": 8515,
      "即使是": 8516,
      "水滴的": 8517,
      "最高执政官的": 8518,
      "奥拉说": 8519,
      "无数次": 8520,
      "星环集团": 8521,
      "不知过了": 8522,
      "爸爸妈妈": 8523,
      "电视上": 8524,
      "人民共和国": 8525,
      "红岸基地": 8526,
      "解释说": 8527,
      "兴奋地": 8528,
      "远远地": 8529,
      "集中到": 8530,
      "醒来时": 8531,
      "脚步声": 8532,
      "精致的": 8533,
      "呆呆地看着": 8534,
      "短暂的": 8535,
      "针眼画师": 8536,
      "露珠公主": 8537,
      "夜色中": 8538,
      "人马座": 8539,
      "摩天大楼": 8540,
      "伊柳欣": 8541,
      "一圈": 8542,
      "一项": 8543,
      "一段时间": 8544,
      "不堪": 8545,
      "为零": 8546,
      "事故": 8547,
      "他才": 8548,
      "代子": 8549,
      "以上的": 8550,
      "任理事": 8551,
      "但却": 8552,
      "但程心": 8553,
      "但这种": 8554,
      "保险": 8555,
      "光了": 8556,
      "光点": 8557,
      "全新的": 8558,
      "军方": 8559,
      "准则": 8560,
      "减小": 8561,
      "切尔": 8562,
      "利的": 8563,
      "前往": 8564,
      "原来的": 8565,
      "叶哲": 8566,
      "后又": 8567,
      "呈现": 8568,
      "味道": 8569,
      "哨兵": 8570,
      "在其中": 8571,
      "地毯": 8572,
      "大块": 8573,
      "失效": 8574,
      "奔跑": 8575,
      "她就": 8576,
      "实时": 8577,
      "帆船": 8578,
      "希腊": 8579,
      "带来了": 8580,
      "常任理事": 8581,
      "干的": 8582,
      "悬空": 8583,
      "把那": 8584,
      "抛弃": 8585,
      "拥抱": 8586,
      "接到": 8587,
      "推开": 8588,
      "放射": 8589,
      "放的": 8590,
      "春天": 8591,
      "是没有": 8592,
      "晚了": 8593,
      "晚霞": 8594,
      "普遍": 8595,
      "期待": 8596,
      "机动": 8597,
      "权威": 8598,
      "核爆炸": 8599,
      "泡世界": 8600,
      "照亮": 8601,
      "玩意": 8602,
      "玩笑": 8603,
      "的基因": 8604,
      "的情况下": 8605,
      "监督": 8606,
      "盘旋": 8607,
      "眼里": 8608,
      "睡着了": 8609,
      "称呼": 8610,
      "第3": 8611,
      "答案": 8612,
      "线条": 8613,
      "给他们": 8614,
      "缩短": 8615,
      "罗马": 8616,
      "船体": 8617,
      "试试": 8618,
      "走在": 8619,
      "走到了": 8620,
      "车的": 8621,
      "透了": 8622,
      "遇到了": 8623,
      "道理": 8624,
      "那几个": 8625,
      "都已": 8626,
      "队的": 8627,
      "防护": 8628,
      "颗行星": 8629,
      "没有被": 8630,
      "孩子都": 8631,
      "的一位": 8632,
      "这是一种": 8633,
      "这样的人": 8634,
      "出现时": 8635,
      "的大小": 8636,
      "这里是": 8637,
      "只有在": 8638,
      "城市里": 8639,
      "进入冬眠": 8640,
      "三个月": 8641,
      "状态的": 8642,
      "几乎是": 8643,
      "菲利克斯说": 8644,
      "另一侧": 8645,
      "二维化": 8646,
      "政府的": 8647,
      "关一帆说": 8648,
      "史强说": 8649,
      "清楚地": 8650,
      "缓缓地": 8651,
      "组织的": 8652,
      "电磁辐射": 8653,
      "精确地": 8654,
      "飞人战士": 8655,
      "艰难地": 8656,
      "正确的": 8657,
      "同步轨道": 8658,
      "围绕着": 8659,
      "真理祭坛": 8660,
      "圆柱体": 8661,
      "叶哲泰": 8662,
      "100": 8663,
      "37": 8664,
      "MD": 8665,
      "一的": 8666,
      "上海": 8667,
      "不觉": 8668,
      "丢失": 8669,
      "两侧": 8670,
      "两条": 8671,
      "中学": 8672,
      "中止": 8673,
      "主流": 8674,
      "他一": 8675,
      "他从": 8676,
      "他看到了": 8677,
      "令她": 8678,
      "以便": 8679,
      "会面": 8680,
      "伸向": 8681,
      "但当": 8682,
      "但愿": 8683,
      "但这些": 8684,
      "作品": 8685,
      "做好": 8686,
      "公斤": 8687,
      "几何": 8688,
      "刘慈": 8689,
      "前方的": 8690,
      "原上": 8691,
      "去做": 8692,
      "又是": 8693,
      "史以来": 8694,
      "名称": 8695,
      "哈勃": 8696,
      "唤醒": 8697,
      "喷出": 8698,
      "土星": 8699,
      "在阳光": 8700,
      "场景": 8701,
      "大国": 8702,
      "威力": 8703,
      "对视": 8704,
      "对面的": 8705,
      "导线": 8706,
      "将来": 8707,
      "巡航": 8708,
      "年中": 8709,
      "径直": 8710,
      "总得": 8711,
      "意见": 8712,
      "所需": 8713,
      "打了个": 8714,
      "把它们": 8715,
      "投票": 8716,
      "抽象": 8717,
      "拿出": 8718,
      "挂在": 8719,
      "收到的": 8720,
      "时才": 8721,
      "时每": 8722,
      "明了": 8723,
      "映着": 8724,
      "暗红色": 8725,
      "更有": 8726,
      "木卫": 8727,
      "格林": 8728,
      "梦幻": 8729,
      "每时每": 8730,
      "气温": 8731,
      "沐霖": 8732,
      "浮现": 8733,
      "游客": 8734,
      "火海": 8735,
      "灭了": 8736,
      "焰火": 8737,
      "用来": 8738,
      "病人": 8739,
      "病房": 8740,
      "白沐霖": 8741,
      "的吗": 8742,
      "的热": 8743,
      "的地球": 8744,
      "的社会": 8745,
      "的同时": 8746,
      "的历史": 8747,
      "的思想": 8748,
      "目眩": 8749,
      "真好": 8750,
      "眼中的": 8751,
      "移动的": 8752,
      "穷人": 8753,
      "精英": 8754,
      "素质": 8755,
      "纸上": 8756,
      "结局": 8757,
      "继承": 8758,
      "维奇": 8759,
      "罗罗": 8760,
      "美洲": 8761,
      "而过": 8762,
      "职责": 8763,
      "脖子": 8764,
      "致命的": 8765,
      "茫茫": 8766,
      "草地": 8767,
      "蓝西": 8768,
      "要说": 8769,
      "规划": 8770,
      "解脱": 8771,
      "认出": 8772,
      "让你们": 8773,
      "许雪": 8774,
      "设定": 8775,
      "详细": 8776,
      "语气": 8777,
      "说出": 8778,
      "说出了": 8779,
      "贫穷": 8780,
      "赞叹": 8781,
      "走近": 8782,
      "转头": 8783,
      "过山": 8784,
      "过来的": 8785,
      "近地": 8786,
      "这支": 8787,
      "远了": 8788,
      "远古": 8789,
      "远航": 8790,
      "送到": 8791,
      "逃逸": 8792,
      "透出": 8793,
      "都处于": 8794,
      "闪亮": 8795,
      "阶层": 8796,
      "雪白": 8797,
      "领袖": 8798,
      "首次": 8799,
      "魏成": 8800,
      "一个月": 8801,
      "他们也": 8802,
      "他们又": 8803,
      "的一些": 8804,
      "的一名": 8805,
      "感觉不到": 8806,
      "技术上": 8807,
      "汪淼说": 8808,
      "需要的": 8809,
      "加速到": 8810,
      "告诉她": 8811,
      "到达了": 8812,
      "作为一个": 8813,
      "无数个": 8814,
      "结束后": 8815,
      "空气中": 8816,
      "环境中": 8817,
      "聚变发动机": 8818,
      "哈哈哈哈": 8819,
      "这事儿": 8820,
      "监听员": 8821,
      "复制体": 8822,
      "毕竟是": 8823,
      "笼罩在": 8824,
      "失重中": 8825,
      "熄灭了": 8826,
      "无所知": 8827,
      "流浪汉": 8828,
      "与会者": 8829,
      "达达斯": 8830,
      "阿根廷": 8831,
      "ETO": 8832,
      "玩意儿": 8833,
      "刘慈欣": 8834,
      "每时每刻": 8835,
      "许雪萍": 8836,
      "IDC": 8837,
      "一堆": 8838,
      "丁老": 8839,
      "七十": 8840,
      "三名": 8841,
      "不变": 8842,
      "两艘": 8843,
      "严峻": 8844,
      "主人": 8845,
      "了自己的": 8846,
      "了口气": 8847,
      "亮光": 8848,
      "亮起": 8849,
      "从容": 8850,
      "作家": 8851,
      "倾斜": 8852,
      "光斑": 8853,
      "出发": 8854,
      "分离": 8855,
      "到来的": 8856,
      "前所": 8857,
      "十几个": 8858,
      "升起的": 8859,
      "反对": 8860,
      "合法": 8861,
      "后就": 8862,
      "向太阳": 8863,
      "吞没": 8864,
      "呈现出": 8865,
      "响了": 8866,
      "喷出的": 8867,
      "在整个": 8868,
      "在三维": 8869,
      "坐到": 8870,
      "墨子": 8871,
      "声波": 8872,
      "备份": 8873,
      "够了": 8874,
      "大屏幕": 8875,
      "头部": 8876,
      "守卫": 8877,
      "对它": 8878,
      "对地球": 8879,
      "射电": 8880,
      "小船": 8881,
      "少了": 8882,
      "尘土": 8883,
      "就像一": 8884,
      "就如同": 8885,
      "平滑": 8886,
      "幼稚": 8887,
      "废墟": 8888,
      "当初": 8889,
      "当量": 8890,
      "很高": 8891,
      "微小": 8892,
      "情地": 8893,
      "想要": 8894,
      "我又": 8895,
      "我就是": 8896,
      "打断": 8897,
      "打电话": 8898,
      "担架": 8899,
      "拼命": 8900,
      "接下来的": 8901,
      "描写": 8902,
      "方程": 8903,
      "智平": 8904,
      "有孩子": 8905,
      "期的": 8906,
      "本能": 8907,
      "杀了": 8908,
      "李智平": 8909,
      "极了": 8910,
      "样儿": 8911,
      "死于": 8912,
      "比我": 8913,
      "波动": 8914,
      "潜艇": 8915,
      "火山": 8916,
      "爱玛": 8917,
      "环绕": 8918,
      "甲板上": 8919,
      "瘫痪": 8920,
      "的天": 8921,
      "的人类": 8922,
      "的战争": 8923,
      "的色彩": 8924,
      "真是个": 8925,
      "睁开": 8926,
      "研制": 8927,
      "祈祷": 8928,
      "符号": 8929,
      "第六": 8930,
      "米左右": 8931,
      "米切尔": 8932,
      "糖城": 8933,
      "编程": 8934,
      "罗老师": 8935,
      "美好的": 8936,
      "翘曲": 8937,
      "耗尽": 8938,
      "肩膀": 8939,
      "舰上的": 8940,
      "荒漠": 8941,
      "莹博士": 8942,
      "落在": 8943,
      "蜡烛": 8944,
      "褚岩": 8945,
      "西子": 8946,
      "要知道": 8947,
      "见过的": 8948,
      "警戒": 8949,
      "财产": 8950,
      "走吧": 8951,
      "跌落": 8952,
      "跑到": 8953,
      "车门": 8954,
      "车队": 8955,
      "辆坦克": 8956,
      "还可以": 8957,
      "这边": 8958,
      "退出": 8959,
      "通了": 8960,
      "重点": 8961,
      "钢盔": 8962,
      "闭上": 8963,
      "隔绝": 8964,
      "雷政委": 8965,
      "驶去": 8966,
      "我们对": 8967,
      "我们有": 8968,
      "我们没有": 8969,
      "他们不": 8970,
      "他们说": 8971,
      "你们在": 8972,
      "的一半": 8973,
      "的一句话": 8974,
      "人类文明的": 8975,
      "有一次": 8976,
      "看着他": 8977,
      "是一座": 8978,
      "怎么说": 8979,
      "进入太空": 8980,
      "的事业": 8981,
      "在这场": 8982,
      "一直没有": 8983,
      "显示的": 8984,
      "显示出来": 8985,
      "有人在": 8986,
      "看上去像": 8987,
      "到达太阳系": 8988,
      "毁灭的": 8989,
      "安全带": 8990,
      "安全声明": 8991,
      "学家们": 8992,
      "使用的": 8993,
      "形成了一": 8994,
      "不知不觉": 8995,
      "观察者": 8996,
      "根本没有": 8997,
      "在地面上": 8998,
      "接近光速": 8999,
      "外星飞船": 9000,
      "超新星爆发": 9001,
      "大脑的": 9002,
      "人群中": 9003,
      "适应了": 9004,
      "电子战": 9005,
      "说不定": 9006,
      "神秘的": 9007,
      "十分钟后": 9008,
      "两个世纪前": 9009,
      "转过身来": 9010,
      "沉浸在": 9011,
      "候选人": 9012,
      "雷志成": 9013,
      "200": 9014,
      "7年": 9015,
      "DX": 9016,
      "一口": 9017,
      "一处": 9018,
      "一无所知": 9019,
      "三年": 9020,
      "不定": 9021,
      "不间断": 9022,
      "与她": 9023,
      "两亿": 9024,
      "两国": 9025,
      "两根": 9026,
      "两种": 9027,
      "临时": 9028,
      "也将": 9029,
      "了指": 9030,
      "了过来": 9031,
      "五分钟": 9032,
      "他将": 9033,
      "他发现": 9034,
      "伊塔": 9035,
      "会在": 9036,
      "但后来": 9037,
      "侦察": 9038,
      "做出了": 9039,
      "停了下来": 9040,
      "公理": 9041,
      "农业": 9042,
      "冲出": 9043,
      "出版": 9044,
      "别说": 9045,
      "到这个": 9046,
      "制导": 9047,
      "加代子": 9048,
      "十万": 9049,
      "压缩": 9050,
      "厚度": 9051,
      "又说": 9052,
      "合成": 9053,
      "同他": 9054,
      "后半": 9055,
      "君士": 9056,
      "听说过": 9057,
      "回荡": 9058,
      "地回答": 9059,
      "坦丁": 9060,
      "壮丽的": 9061,
      "外壳": 9062,
      "多米": 9063,
      "孤峰": 9064,
      "宝宝": 9065,
      "实质": 9066,
      "宪法": 9067,
      "宽敞": 9068,
      "寒战": 9069,
      "对比": 9070,
      "对自己的": 9071,
      "对方的": 9072,
      "小山": 9073,
      "已成为": 9074,
      "幻影": 9075,
      "很久": 9076,
      "很深": 9077,
      "微不足": 9078,
      "怀中": 9079,
      "态度": 9080,
      "思绪": 9081,
      "总部": 9082,
      "总觉得": 9083,
      "恐慌": 9084,
      "悄悄": 9085,
      "感应": 9086,
      "我向": 9087,
      "我所": 9088,
      "我当然": 9089,
      "扭曲": 9090,
      "拿出一": 9091,
      "指了指": 9092,
      "按动": 9093,
      "据说": 9094,
      "搜索": 9095,
      "散射": 9096,
      "断电": 9097,
      "旗帜": 9098,
      "无形的": 9099,
      "无边的": 9100,
      "时现": 9101,
      "时隐": 9102,
      "明亮的": 9103,
      "曙光": 9104,
      "有力的": 9105,
      "村庄": 9106,
      "标示": 9107,
      "检查": 9108,
      "正面": 9109,
      "每一次": 9110,
      "比你": 9111,
      "沃维奇": 9112,
      "洞中": 9113,
      "洲际": 9114,
      "深深的": 9115,
      "满意": 9116,
      "照明": 9117,
      "玩艺": 9118,
      "相遇": 9119,
      "着他": 9120,
      "睡眠": 9121,
      "离婚": 9122,
      "科技": 9123,
      "穿越": 9124,
      "窗子": 9125,
      "给我们": 9126,
      "维护": 9127,
      "老张": 9128,
      "而战": 9129,
      "职业": 9130,
      "背叛": 9131,
      "背影": 9132,
      "能不能": 9133,
      "自愿": 9134,
      "艾AA": 9135,
      "莫沃维奇": 9136,
      "薄薄": 9137,
      "虫子": 9138,
      "蚁群": 9139,
      "融为一体": 9140,
      "褐蚁": 9141,
      "要在": 9142,
      "让它": 9143,
      "议员": 9144,
      "谈谈": 9145,
      "资格": 9146,
      "迁移": 9147,
      "迎面": 9148,
      "返航": 9149,
      "进展": 9150,
      "追随": 9151,
      "重量": 9152,
      "隐隐约": 9153,
      "集成": 9154,
      "面孔": 9155,
      "预言": 9156,
      "飞过": 9157,
      "黄金": 9158,
      "没有了": 9159,
      "现在我们": 9160,
      "你们这些": 9161,
      "的一条": 9162,
      "开始的": 9163,
      "只是在": 9164,
      "只是为了": 9165,
      "都是在": 9166,
      "下来了": 9167,
      "还有许多": 9168,
      "在这之前": 9169,
      "消失的": 9170,
      "科学院": 9171,
      "科学边界": 9172,
      "生命和": 9173,
      "发射的": 9174,
      "长的时间": 9175,
      "想象着": 9176,
      "渐渐地": 9177,
      "章北海说": 9178,
      "领导者们": 9179,
      "的巨响": 9180,
      "意义的": 9181,
      "指挥中心": 9182,
      "越来越多": 9183,
      "主席台": 9184,
      "成功地": 9185,
      "3906": 9186,
      "背景辐射": 9187,
      "创造了": 9188,
      "外星人": 9189,
      "在那儿": 9190,
      "办公桌": 9191,
      "星际尘埃": 9192,
      "公司的": 9193,
      "BRAIN6": 9194,
      "很有意思": 9195,
      "亚洲舰队": 9196,
      "飘浮着": 9197,
      "关闭了": 9198,
      "有多大": 9199,
      "视野中": 9200,
      "的蓝光": 9201,
      "联席会议": 9202,
      "常任理事国": 9203,
      "DX3906": 9204,
      "君士坦丁": 9205,
      "时隐时现": 9206,
      "隐隐约约": 9207,
      "一份": 9208,
      "一头": 9209,
      "一层": 9210,
      "一枚": 9211,
      "一部": 9212,
      "一开始": 9213,
      "上下": 9214,
      "上亿": 9215,
      "不如": 9216,
      "不必": 9217,
      "与他们": 9218,
      "专门": 9219,
      "严格": 9220,
      "中断了": 9221,
      "之内": 9222,
      "了的": 9223,
      "人工": 9224,
      "人海": 9225,
      "人说": 9226,
      "从他": 9227,
      "从这": 9228,
      "他只": 9229,
      "他认为": 9230,
      "伏在": 9231,
      "会发生": 9232,
      "传说": 9233,
      "但你": 9234,
      "偶然": 9235,
      "决策": 9236,
      "出乎": 9237,
      "制定": 9238,
      "力场": 9239,
      "医疗": 9240,
      "及时": 9241,
      "发挥": 9242,
      "叹了口气": 9243,
      "听证": 9244,
      "味精": 9245,
      "器的": 9246,
      "固体": 9247,
      "在哪里": 9248,
      "声色": 9249,
      "外太空": 9250,
      "大洋": 9251,
      "太多的": 9252,
      "好多": 9253,
      "姿态": 9254,
      "孙子": 9255,
      "家园": 9256,
      "察觉": 9257,
      "对这些": 9258,
      "导轨": 9259,
      "封信": 9260,
      "尊重": 9261,
      "小屋": 9262,
      "屁股": 9263,
      "师长": 9264,
      "很近": 9265,
      "很长": 9266,
      "得了": 9267,
      "忧虑": 9268,
      "快些": 9269,
      "忽略": 9270,
      "您在": 9271,
      "悬在": 9272,
      "所能": 9273,
      "所谓": 9274,
      "手说": 9275,
      "才有": 9276,
      "扭头": 9277,
      "投下": 9278,
      "投资": 9279,
      "拥挤": 9280,
      "措施": 9281,
      "收拾": 9282,
      "旋臂": 9283,
      "无影": 9284,
      "映像": 9285,
      "是你": 9286,
      "是想": 9287,
      "是被": 9288,
      "智力": 9289,
      "最早": 9290,
      "有生": 9291,
      "杀人": 9292,
      "杀伤": 9293,
      "权利": 9294,
      "枪口": 9295,
      "树林": 9296,
      "树的": 9297,
      "楼顶": 9298,
      "死死": 9299,
      "气体": 9300,
      "沉重的": 9301,
      "没办法": 9302,
      "沿海": 9303,
      "流动": 9304,
      "浪漫": 9305,
      "滩上": 9306,
      "演讲": 9307,
      "潮湿": 9308,
      "火车": 9309,
      "熔化": 9310,
      "犯罪": 9311,
      "由一个": 9312,
      "疏散": 9313,
      "的血": 9314,
      "的计算机": 9315,
      "的太空中": 9316,
      "的影响": 9317,
      "的表情": 9318,
      "的影子": 9319,
      "目睹": 9320,
      "短时间内": 9321,
      "确切": 9322,
      "碳基": 9323,
      "穿行": 9324,
      "立着": 9325,
      "笑了一下": 9326,
      "笑了起来": 9327,
      "符合": 9328,
      "粗糙": 9329,
      "终聚": 9330,
      "维修": 9331,
      "综合": 9332,
      "网上": 9333,
      "而在": 9334,
      "苍穹": 9335,
      "若列": 9336,
      "苦难": 9337,
      "蝗群": 9338,
      "蝴蝶": 9339,
      "裂缝": 9340,
      "要不": 9341,
      "要去": 9342,
      "谋杀": 9343,
      "走出了": 9344,
      "起点": 9345,
      "超元": 9346,
      "超出": 9347,
      "距太阳": 9348,
      "跳跃": 9349,
      "过分": 9350,
      "逃离": 9351,
      "途中": 9352,
      "道路": 9353,
      "邓洋": 9354,
      "那只": 9355,
      "都不可能": 9356,
      "金星": 9357,
      "长着": 9358,
      "降到": 9359,
      "雪山": 9360,
      "非常": 9361,
      "我们必须": 9362,
      "的一小": 9363,
      "的人口": 9364,
      "的人员": 9365,
      "的人民": 9366,
      "那个方向": 9367,
      "他的心": 9368,
      "他的目光": 9369,
      "它们是": 9370,
      "这一天": 9371,
      "这么大": 9372,
      "行星上": 9373,
      "美国的": 9374,
      "小时候": 9375,
      "AAA": 9376,
      "变成了一个": 9377,
      "有一个人": 9378,
      "华华问": 9379,
      "有人说": 9380,
      "物质的": 9381,
      "就在这时": 9382,
      "软件核弹": 9383,
      "长时间的": 9384,
      "精神上": 9385,
      "丁仪说": 9386,
      "建立一个": 9387,
      "在这个时代": 9388,
      "形成了一个": 9389,
      "远处的": 9390,
      "得很好": 9391,
      "看不见的": 9392,
      "电视机": 9393,
      "银河系的": 9394,
      "战斗群": 9395,
      "实验室": 9396,
      "出了一口气": 9397,
      "这就使得": 9398,
      "全息影像": 9399,
      "从未有": 9400,
      "高速公路": 9401,
      "分之二": 9402,
      "取得了": 9403,
      "到这里来": 9404,
      "密集的": 9405,
      "宇航员": 9406,
      "预警系统": 9407,
      "丰富的": 9408,
      "落日六号": 9409,
      "他妈的": 9410,
      "小行星带": 9411,
      "冷冷地说": 9412,
      "长叹一声": 9413,
      "前所未": 9414,
      "26": 9415,
      "90": 9416,
      "一粒": 9417,
      "一件事": 9418,
      "三分之一": 9419,
      "上方的": 9420,
      "不多了": 9421,
      "中都": 9422,
      "为你": 9423,
      "丽丝": 9424,
      "乔纳森": 9425,
      "交往": 9426,
      "亮点": 9427,
      "今后": 9428,
      "众多的": 9429,
      "但仍": 9430,
      "低维": 9431,
      "低沉的": 9432,
      "体验": 9433,
      "信仰": 9434,
      "假设": 9435,
      "光洁": 9436,
      "光线": 9437,
      "再往": 9438,
      "冬天": 9439,
      "初始": 9440,
      "华盛": 9441,
      "去世": 9442,
      "去过": 9443,
      "参照": 9444,
      "又出现了": 9445,
      "取消": 9446,
      "变了": 9447,
      "召开": 9448,
      "和地球": 9449,
      "回的": 9450,
      "图象": 9451,
      "在被": 9452,
      "地在": 9453,
      "场上": 9454,
      "坚决": 9455,
      "坟墓": 9456,
      "墓岛": 9457,
      "外交": 9458,
      "大群": 9459,
      "大都": 9460,
      "大笑起来": 9461,
      "奥尔": 9462,
      "女王": 9463,
      "它与": 9464,
      "它所": 9465,
      "完毕": 9466,
      "容纳": 9467,
      "小狗": 9468,
      "就更": 9469,
      "就不会": 9470,
      "局势": 9471,
      "局长": 9472,
      "巨响": 9473,
      "巨浪": 9474,
      "差点": 9475,
      "巴黎": 9476,
      "幽幽": 9477,
      "开放": 9478,
      "张林": 9479,
      "惊人": 9480,
      "成了一个": 9481,
      "我从": 9482,
      "我早就": 9483,
      "手术": 9484,
      "扩张": 9485,
      "把我": 9486,
      "把这些": 9487,
      "把自己的": 9488,
      "抗震": 9489,
      "提案": 9490,
      "攻方": 9491,
      "文文": 9492,
      "断面": 9493,
      "无表情": 9494,
      "日军": 9495,
      "是要": 9496,
      "最低": 9497,
      "杀死": 9498,
      "构图": 9499,
      "林莎": 9500,
      "气球": 9501,
      "气象": 9502,
      "沙瑞": 9503,
      "没关系": 9504,
      "活着的": 9505,
      "液态": 9506,
      "照亮了": 9507,
      "球状": 9508,
      "申请": 9509,
      "留着": 9510,
      "的冰": 9511,
      "的老": 9512,
      "的不是": 9513,
      "的建筑": 9514,
      "的父亲": 9515,
      "的主要": 9516,
      "的要求": 9517,
      "硬件": 9518,
      "离子": 9519,
      "穿了": 9520,
      "穿过了": 9521,
      "窗前": 9522,
      "第三个": 9523,
      "算了": 9524,
      "系列": 9525,
      "红灯": 9526,
      "缝隙": 9527,
      "胸前的": 9528,
      "舱中": 9529,
      "艾克": 9530,
      "艾米": 9531,
      "街道": 9532,
      "西方的": 9533,
      "该怎么办": 9534,
      "说说": 9535,
      "说出来": 9536,
      "豪华": 9537,
      "贝尔": 9538,
      "走过去": 9539,
      "轮廓": 9540,
      "轻蔑": 9541,
      "辆车": 9542,
      "边疆": 9543,
      "运算": 9544,
      "近了": 9545,
      "这架": 9546,
      "这可能": 9547,
      "进来的": 9548,
      "远程": 9549,
      "连连": 9550,
      "迷茫": 9551,
      "遭到": 9552,
      "避开": 9553,
      "那群": 9554,
      "那道": 9555,
      "那我们": 9556,
      "那不是": 9557,
      "部署": 9558,
      "都一样": 9559,
      "酒瓶": 9560,
      "金色": 9561,
      "钻进": 9562,
      "银光": 9563,
      "阴沉": 9564,
      "隐没": 9565,
      "面容": 9566,
      "首席": 9567,
      "一个星期": 9568,
      "了一口气": 9569,
      "知道自己": 9570,
      "地球人": 9571,
      "的一座": 9572,
      "太空舰队": 9573,
      "那些人": 9574,
      "进行着": 9575,
      "然后是": 9576,
      "的事了": 9577,
      "完全可以": 9578,
      "她的眼睛": 9579,
      "科学的": 9580,
      "恒星级": 9581,
      "认为是": 9582,
      "控制权": 9583,
      "其中一个": 9584,
      "觉得自己": 9585,
      "首先要": 9586,
      "理解了": 9587,
      "有什么关系": 9588,
      "无数的": 9589,
      "清楚地看到": 9590,
      "观察到": 9591,
      "发展到": 9592,
      "桑比亚的": 9593,
      "深处的": 9594,
      "抬头看看": 9595,
      "的心理": 9596,
      "证明了": 9597,
      "吞食帝国": 9598,
      "疯狂地": 9599,
      "117": 9600,
      "介绍说": 9601,
      "紧张地": 9602,
      "说不出": 9603,
      "梦想号": 9604,
      "意味着什么": 9605,
      "实际上": 9606,
      "面临的": 9607,
      "小心翼翼地": 9608,
      "布莱尔舰长": 9609,
      "中华人民共和国": 9610,
      "老头儿": 9611,
      "无意中": 9612,
      "传感器": 9613,
      "毛毛虫": 9614,
      "治安军": 9615,
      "过山车": 9616,
      "翘曲点": 9617,
      "集成电路": 9618,
      "华盛顿": 9619,
      "ay": 9620,
      "一手": 9621,
      "不开": 9622,
      "不明白": 9623,
      "不规则": 9624,
      "与其他": 9625,
      "两三": 9626,
      "两只": 9627,
      "严酷": 9628,
      "举动": 9629,
      "乐观": 9630,
      "云峰": 9631,
      "井圈": 9632,
      "他很": 9633,
      "以往": 9634,
      "们都": 9635,
      "做一个": 9636,
      "偶尔": 9637,
      "催眠": 9638,
      "傻瓜": 9639,
      "全舰": 9640,
      "关切": 9641,
      "再一次": 9642,
      "几根": 9643,
      "出门": 9644,
      "利益": 9645,
      "到目前": 9646,
      "十六": 9647,
      "十年": 9648,
      "单独": 9649,
      "厚厚的": 9650,
      "去年": 9651,
      "去看": 9652,
      "反击": 9653,
      "受到了": 9654,
      "叫声": 9655,
      "可现在": 9656,
      "史诗": 9657,
      "吃力地": 9658,
      "吸收": 9659,
      "响了起来": 9660,
      "喃喃": 9661,
      "回归": 9662,
      "圆环": 9663,
      "在对": 9664,
      "在小": 9665,
      "坚硬": 9666,
      "坠入": 9667,
      "多远": 9668,
      "天气": 9669,
      "太大的": 9670,
      "头晕": 9671,
      "她从": 9672,
      "她现在": 9673,
      "寄托": 9674,
      "峰顶": 9675,
      "开会": 9676,
      "开阔": 9677,
      "式的": 9678,
      "张开": 9679,
      "弥漫": 9680,
      "得像": 9681,
      "悲伤": 9682,
      "惊醒": 9683,
      "想知道": 9684,
      "想不到": 9685,
      "感慨": 9686,
      "我只": 9687,
      "我也是": 9688,
      "手雷": 9689,
      "打扰": 9690,
      "扩展": 9691,
      "抚摸": 9692,
      "拍拍": 9693,
      "拿过": 9694,
      "捂着": 9695,
      "推力": 9696,
      "撤离": 9697,
      "放松": 9698,
      "救援": 9699,
      "新生活": 9700,
      "方位": 9701,
      "无踪": 9702,
      "日益": 9703,
      "明亮": 9704,
      "是无": 9705,
      "是我们": 9706,
      "是不可": 9707,
      "暗红色的": 9708,
      "更高": 9709,
      "有史以来": 9710,
      "朝阳": 9711,
      "未知": 9712,
      "杰森": 9713,
      "树叶": 9714,
      "椅子": 9715,
      "残酷": 9716,
      "每人": 9717,
      "毕云峰": 9718,
      "波形": 9719,
      "浓烟": 9720,
      "清除": 9721,
      "湿润": 9722,
      "火力": 9723,
      "灯火": 9724,
      "灰色的": 9725,
      "照顾": 9726,
      "王国的": 9727,
      "电流": 9728,
      "登上了": 9729,
      "白蓉": 9730,
      "的回答": 9731,
      "的过程": 9732,
      "的能力": 9733,
      "相连": 9734,
      "眼光": 9735,
      "着说": 9736,
      "磁场": 9737,
      "礼貌": 9738,
      "祖国": 9739,
      "空无": 9740,
      "穿上": 9741,
      "站的": 9742,
      "简直": 9743,
      "紫色": 9744,
      "纣王": 9745,
      "统计": 9746,
      "缺陷": 9747,
      "背面": 9748,
      "胚胎": 9749,
      "能把": 9750,
      "般地": 9751,
      "血管": 9752,
      "裁判": 9753,
      "西部": 9754,
      "要用": 9755,
      "让自己": 9756,
      "译解": 9757,
      "说吧": 9758,
      "谁知道": 9759,
      "车皮": 9760,
      "轻武器": 9761,
      "这可能是": 9762,
      "这方面的": 9763,
      "迷宫": 9764,
      "道道": 9765,
      "那根": 9766,
      "都可能": 9767,
      "镇静": 9768,
      "长了": 9769,
      "长老": 9770,
      "门外": 9771,
      "闪动": 9772,
      "间距": 9773,
      "雪地": 9774,
      "骚动": 9775,
      "黛丽丝": 9776,
      "一个世纪": 9777,
      "一个巨大的": 9778,
      "他们中": 9779,
      "他们将": 9780,
      "他们看到": 9781,
      "他们发现": 9782,
      "这个人": 9783,
      "这个小": 9784,
      "这个词": 9785,
      "这个世界的": 9786,
      "了一句": 9787,
      "的一块": 9788,
      "的人了": 9789,
      "宇宙间": 9790,
      "出现过": 9791,
      "如果不是": 9792,
      "只是想": 9793,
      "飞船A": 9794,
      "飞船上的": 9795,
      "信息大厦": 9796,
      "怎么了": 9797,
      "国家和": 9798,
      "汪淼问": 9799,
      "的地平线": 9800,
      "完全没有": 9801,
      "三个世纪": 9802,
      "太阳系舰队": 9803,
      "二十一": 9804,
      "的光线": 9805,
      "第一次看到": 9806,
      "奥拉博士": 9807,
      "攻击的": 9808,
      "走了进来": 9809,
      "南极洲": 9810,
      "观测到": 9811,
      "一定会": 9812,
      "代表团": 9813,
      "联合国和": 9814,
      "理论上": 9815,
      "飞机上": 9816,
      "主席说": 9817,
      "基本的": 9818,
      "基因组合": 9819,
      "导弹的": 9820,
      "他说着": 9821,
      "在地下": 9822,
      "10∶": 9823,
      "数量级": 9824,
      "改变了": 9825,
      "四十五": 9826,
      "四十多": 9827,
      "无限的": 9828,
      "专业的": 9829,
      "四维碎块": 9830,
      "不动声色": 9831,
      "惊奇地发现": 9832,
      "表现出": 9833,
      "生态系统": 9834,
      "面壁计划的": 9835,
      "掌握了": 9836,
      "文斯基": 9837,
      "艰难的": 9838,
      "击中了": 9839,
      "外部世界": 9840,
      "长长地": 9841,
      "斯坦顿": 9842,
      "同步轨道上": 9843,
      "无所谓": 9844,
      "传统的": 9845,
      "光滑的": 9846,
      "觉察到": 9847,
      "忘记了": 9848,
      "是不可能的": 9849,
      "空灵画师": 9850,
      "空荡荡的": 9851,
      "摄像机": 9852,
      "追随者": 9853,
      "无影无踪": 9854,
      "从未有过的": 9855,
      "沙瑞山": 9856,
      "34": 9857,
      "80": 9858,
      "一间": 9859,
      "三大": 9860,
      "不去": 9861,
      "不属于": 9862,
      "业务": 9863,
      "两颗": 9864,
      "主张": 9865,
      "之前的": 9866,
      "乏味": 9867,
      "也可能": 9868,
      "云海": 9869,
      "云辉": 9870,
      "交给": 9871,
      "亲眼": 9872,
      "从地球": 9873,
      "他指指": 9874,
      "企业": 9875,
      "优秀": 9876,
      "伤亡": 9877,
      "似地": 9878,
      "但其": 9879,
      "但有": 9880,
      "住处": 9881,
      "作响": 9882,
      "全国的": 9883,
      "八百": 9884,
      "公平": 9885,
      "六千": 9886,
      "内心": 9887,
      "冲他": 9888,
      "到我": 9889,
      "劲儿": 9890,
      "升降": 9891,
      "又过了": 9892,
      "叛军": 9893,
      "可你": 9894,
      "后再": 9895,
      "后退": 9896,
      "向太空": 9897,
      "听懂": 9898,
      "和我": 9899,
      "和一个": 9900,
      "和恐惧": 9901,
      "哇哇": 9902,
      "嘿嘿": 9903,
      "图案": 9904,
      "坡上": 9905,
      "基于": 9906,
      "大事": 9907,
      "天王星": 9908,
      "失控": 9909,
      "奇特": 9910,
      "奥秘": 9911,
      "女人的": 9912,
      "奶奶": 9913,
      "始终": 9914,
      "宏纪元": 9915,
      "对的": 9916,
      "对程心": 9917,
      "小艇": 9918,
      "就用": 9919,
      "崇拜": 9920,
      "带上": 9921,
      "带的": 9922,
      "建成的": 9923,
      "引人": 9924,
      "彩虹": 9925,
      "得很快": 9926,
      "性格": 9927,
      "总体": 9928,
      "您知道": 9929,
      "情形": 9930,
      "我喜欢": 9931,
      "打着": 9932,
      "扔下": 9933,
      "拾起": 9934,
      "拿到": 9935,
      "指望": 9936,
      "按下": 9937,
      "捕获": 9938,
      "提出了": 9939,
      "撕裂": 9940,
      "数目": 9941,
      "整理": 9942,
      "旗杆": 9943,
      "无损": 9944,
      "无故事": 9945,
      "旧的": 9946,
      "显微": 9947,
      "更好": 9948,
      "有力": 9949,
      "有机会": 9950,
      "有很大": 9951,
      "杨母": 9952,
      "楼上": 9953,
      "比喻": 9954,
      "毫米": 9955,
      "没能": 9956,
      "油膜": 9957,
      "泪水": 9958,
      "洪流": 9959,
      "海里": 9960,
      "清醒": 9961,
      "滚滚": 9962,
      "炸药": 9963,
      "烟柱": 9964,
      "然而": 9965,
      "特星云": 9966,
      "生气": 9967,
      "的这": 9968,
      "的身体": 9969,
      "的尽头": 9970,
      "看的": 9971,
      "磨擦": 9972,
      "稍后": 9973,
      "立即": 9974,
      "竟是": 9975,
      "简易": 9976,
      "线上": 9977,
      "群体": 9978,
      "老了": 9979,
      "老李": 9980,
      "而现在": 9981,
      "胡文": 9982,
      "胳膊": 9983,
      "胸前": 9984,
      "自从": 9985,
      "舱室": 9986,
      "船的": 9987,
      "草地上": 9988,
      "莫测": 9989,
      "蒙蒙": 9990,
      "蘑菇": 9991,
      "被压": 9992,
      "见到了": 9993,
      "视界": 9994,
      "触发": 9995,
      "讨厌": 9996,
      "访问": 9997,
      "试着": 9998,
      "请你": 9999,
      "走下": 10000,
      "超越": 10001,
      "跑去": 10002,
      "路边": 10003,
      "身着": 10004,
      "身后的": 10005,
      "躲避": 10006,
      "转换": 10007,
      "轻柔": 10008,
      "过渡": 10009,
      "近的": 10010,
      "这正是": 10011,
      "远距离": 10012,
      "迟早": 10013,
      "迷彩": 10014,
      "那双": 10015,
      "那好": 10016,
      "那我": 10017,
      "那句话": 10018,
      "都将": 10019,
      "都不能": 10020,
      "配合": 10021,
      "采集": 10022,
      "重重": 10023,
      "错综": 10024,
      "阵线": 10025,
      "陆地": 10026,
      "领着": 10027,
      "频繁": 10028,
      "高高": 10029,
      "鸡蛋": 10030,
      "黑了": 10031,
      "一个小时": 10032,
      "我们已经": 10033,
      "世界中的": 10034,
      "自己是": 10035,
      "了一件": 10036,
      "地球和": 10037,
      "你们都": 10038,
      "就是这样": 10039,
      "的人海": 10040,
      "这是个": 10041,
      "这是我": 10042,
      "这是我们": 10043,
      "罗辑在": 10044,
      "开始在": 10045,
      "这些小": 10046,
      "三体文明的": 10047,
      "有一条": 10048,
      "所有人的": 10049,
      "还是在": 10050,
      "自己的生命": 10051,
      "很快就会": 10052,
      "系统中": 10053,
      "感觉中": 10054,
      "感觉到了": 10055,
      "还有什么": 10056,
      "当然可以": 10057,
      "生命体": 10058,
      "黑暗的": 10059,
      "叶文洁的": 10060,
      "看看吧": 10061,
      "几个小时": 10062,
      "似乎在": 10063,
      "华华和": 10064,
      "有人问": 10065,
      "一切的": 10066,
      "上帝的": 10067,
      "天空的": 10068,
      "到达地球": 10069,
      "大部分人": 10070,
      "蚂蚁联邦": 10071,
      "地看着他": 10072,
      "总统先生": 10073,
      "战略计划": 10074,
      "画面中": 10075,
      "北京的": 10076,
      "西亚共和国": 10077,
      "吞食者的": 10078,
      "反射镜": 10079,
      "死亡的": 10080,
      "清晰地": 10081,
      "展开来": 10082,
      "陷入了": 10083,
      "一眼就": 10084,
      "负责人": 10085,
      "地下城": 10086,
      "司令官": 10087,
      "还不如": 10088,
      "丝毫没有": 10089,
      "雷达峰": 10090,
      "翻译器": 10091,
      "永恒的": 10092,
      "蜘蛛人": 10093,
      "葡萄酒": 10094,
      "听证会": 10095,
      "奥尔特星云": 10096,
      "一代": 10097,
      "一级": 10098,
      "一闪": 10099,
      "一点点": 10100,
      "上部": 10101,
      "下落": 10102,
      "不出来": 10103,
      "与以前": 10104,
      "丛林": 10105,
      "主动": 10106,
      "乐趣": 10107,
      "也是一个": 10108,
      "从那里": 10109,
      "他被": 10110,
      "他第一次": 10111,
      "们的": 10112,
      "伦理": 10113,
      "伪装": 10114,
      "但它们": 10115,
      "你有": 10116,
      "使人类": 10117,
      "修改": 10118,
      "像个": 10119,
      "像是在": 10120,
      "像一片": 10121,
      "光亮": 10122,
      "八个": 10123,
      "其间": 10124,
      "再看看": 10125,
      "军种": 10126,
      "凝视着": 10127,
      "几亿": 10128,
      "出色的": 10129,
      "制的": 10130,
      "剪影": 10131,
      "加强": 10132,
      "十七": 10133,
      "十倍": 10134,
      "十四": 10135,
      "协调": 10136,
      "卡通": 10137,
      "又被": 10138,
      "双臂": 10139,
      "可惜": 10140,
      "可行": 10141,
      "右手": 10142,
      "合作": 10143,
      "合理": 10144,
      "同他们": 10145,
      "名叫": 10146,
      "后说": 10147,
      "周期": 10148,
      "和她": 10149,
      "咖啡": 10150,
      "四光年": 10151,
      "在前": 10152,
      "在你们": 10153,
      "在程心": 10154,
      "在我的": 10155,
      "在我们的": 10156,
      "地质": 10157,
      "地看了": 10158,
      "坦率": 10159,
      "垩纪": 10160,
      "墙上的": 10161,
      "增援": 10162,
      "外侧": 10163,
      "大刘": 10164,
      "大半": 10165,
      "大校": 10166,
      "大宇宙": 10167,
      "头脑": 10168,
      "她已经": 10169,
      "好半天": 10170,
      "学位": 10171,
      "它就": 10172,
      "完善": 10173,
      "宣誓": 10174,
      "对手": 10175,
      "少女": 10176,
      "尽力": 10177,
      "层中": 10178,
      "屏障": 10179,
      "巨摆": 10180,
      "巨轮": 10181,
      "帝国的": 10182,
      "平行": 10183,
      "弧形": 10184,
      "当做": 10185,
      "往常": 10186,
      "很重要": 10187,
      "很高兴": 10188,
      "急促": 10189,
      "总会": 10190,
      "想说": 10191,
      "想到的": 10192,
      "我真": 10193,
      "我一直": 10194,
      "我不会": 10195,
      "房中": 10196,
      "手机": 10197,
      "手电": 10198,
      "手臂": 10199,
      "技巧": 10200,
      "把那个": 10201,
      "抑制": 10202,
      "探照": 10203,
      "控室": 10204,
      "提升": 10205,
      "收缩": 10206,
      "政策": 10207,
      "数量的": 10208,
      "日的": 10209,
      "早上": 10210,
      "时而": 10211,
      "明月": 10212,
      "是你们": 10213,
      "是绝对": 10214,
      "显出": 10215,
      "晨光": 10216,
      "更大": 10217,
      "曾在": 10218,
      "最有": 10219,
      "有三个": 10220,
      "期望": 10221,
      "格外": 10222,
      "正义": 10223,
      "正文": 10224,
      "比我们": 10225,
      "汇报": 10226,
      "没必要": 10227,
      "河流": 10228,
      "治疗": 10229,
      "洋洋": 10230,
      "混沌": 10231,
      "清晨": 10232,
      "漂亮的": 10233,
      "演习": 10234,
      "点了": 10235,
      "烈焰": 10236,
      "物资": 10237,
      "现有": 10238,
      "琼斯": 10239,
      "用它": 10240,
      "用这种": 10241,
      "的脸": 10242,
      "相差": 10243,
      "祖先": 10244,
      "秩序": 10245,
      "积雪": 10246,
      "稳定的": 10247,
      "窗帘": 10248,
      "等到": 10249,
      "算是": 10250,
      "米处": 10251,
      "红线": 10252,
      "美好": 10253,
      "老人的": 10254,
      "而易": 10255,
      "舰长的": 10256,
      "行进": 10257,
      "装饰": 10258,
      "观点": 10259,
      "解体": 10260,
      "试题": 10261,
      "话来": 10262,
      "说得": 10263,
      "请你们": 10264,
      "资金": 10265,
      "走着": 10266,
      "越的": 10267,
      "蹲下来": 10268,
      "还得": 10269,
      "这一个": 10270,
      "这都是": 10271,
      "这颗恒星": 10272,
      "这期间": 10273,
      "退休": 10274,
      "那声音": 10275,
      "邪恶": 10276,
      "郑重": 10277,
      "部长": 10278,
      "都不会": 10279,
      "金色的": 10280,
      "长度": 10281,
      "长得": 10282,
      "闪耀": 10283,
      "阻力": 10284,
      "附和": 10285,
      "限于": 10286,
      "集群": 10287,
      "雨中": 10288,
      "颗星": 10289,
      "饥饿": 10290,
      "首相": 10291,
      "马拉": 10292,
      "高山": 10293,
      "鲜血": 10294,
      "黄河": 10295,
      "没有说话": 10296,
      "了一口": 10297,
      "地球文明的": 10298,
      "你们是": 10299,
      "的一只": 10300,
      "的一天": 10301,
      "时间之外的": 10302,
      "这样下去": 10303,
      "罗辑和": 10304,
      "如果不": 10305,
      "的大型": 10306,
      "是一次": 10307,
      "因为它": 10308,
      "的事实": 10309,
      "突然出现的": 10310,
      "科学顾问": 10311,
      "正在被": 10312,
      "发生在": 10313,
      "发生的事": 10314,
      "目标的": 10315,
      "距离的": 10316,
      "菲利克斯将军": 10317,
      "来自于": 10318,
      "自然的": 10319,
      "的世界中": 10320,
      "发动机的": 10321,
      "我是个": 10322,
      "南极的": 10323,
      "南极庭院": 10324,
      "站在那里": 10325,
      "理论的": 10326,
      "军队的": 10327,
      "政治家": 10328,
      "死亡之": 10329,
      "精确的": 10330,
      "部队的": 10331,
      "疯狂的": 10332,
      "制造的": 10333,
      "最初的": 10334,
      "掩体工程": 10335,
      "附近的": 10336,
      "BRAIN1": 10337,
      "寂静中": 10338,
      "驾驶员": 10339,
      "吕刚说": 10340,
      "相对论": 10341,
      "寒冷的": 10342,
      "是对的": 10343,
      "钢印族": 10344,
      "林肯号": 10345,
      "196": 10346,
      "拯救派": 10347,
      "制止了": 10348,
      "古代的": 10349,
      "站起身来": 10350,
      "草坪上": 10351,
      "宽阔的": 10352,
      "深深地": 10353,
      "无线电": 10354,
      "嗡嗡声": 10355,
      "登记员": 10356,
      "到目前为止": 10357,
      "时间之外的往事": 10358,
      "25": 10359,
      "3X": 10360,
      "79": 10361,
      "7J": 10362,
      "86": 10363,
      "NA": 10364,
      "一句话": 10365,
      "一路上": 10366,
      "三号": 10367,
      "上古": 10368,
      "不相": 10369,
      "不感兴趣": 10370,
      "严重的": 10371,
      "中了": 10372,
      "中子": 10373,
      "主意": 10374,
      "举着": 10375,
      "之初": 10376,
      "五年前": 10377,
      "井上": 10378,
      "井口": 10379,
      "亮了起来": 10380,
      "仇恨": 10381,
      "从此": 10382,
      "从一个": 10383,
      "他与": 10384,
      "他已": 10385,
      "他有": 10386,
      "他甚至": 10387,
      "传到": 10388,
      "传达": 10389,
      "但对于": 10390,
      "低温": 10391,
      "何博士": 10392,
      "余生": 10393,
      "你对": 10394,
      "你肯定": 10395,
      "供电": 10396,
      "依旧": 10397,
      "依赖": 10398,
      "倒了": 10399,
      "值勤": 10400,
      "停机": 10401,
      "健康": 10402,
      "傍晚": 10403,
      "公共": 10404,
      "关上了": 10405,
      "具体的": 10406,
      "冲动": 10407,
      "凑近": 10408,
      "几分钟": 10409,
      "出击": 10410,
      "切换": 10411,
      "到地上": 10412,
      "前辈": 10413,
      "力竭": 10414,
      "单纯": 10415,
      "又怎么样": 10416,
      "取出": 10417,
      "只留下": 10418,
      "史学": 10419,
      "叶子": 10420,
      "向西": 10421,
      "呆滞": 10422,
      "呕吐": 10423,
      "和宇宙": 10424,
      "咨询": 10425,
      "固的": 10426,
      "图景": 10427,
      "在你": 10428,
      "在自己的": 10429,
      "在他们的": 10430,
      "在以后的": 10431,
      "地板": 10432,
      "地笑笑": 10433,
      "型氢弹": 10434,
      "墓地": 10435,
      "壮丽": 10436,
      "声中": 10437,
      "外表": 10438,
      "多彩": 10439,
      "夜中": 10440,
      "大口": 10441,
      "大街": 10442,
      "大眼睛": 10443,
      "大西洋": 10444,
      "天上": 10445,
      "天地": 10446,
      "天才": 10447,
      "头的": 10448,
      "奇异": 10449,
      "她也": 10450,
      "她没有": 10451,
      "好孩子": 10452,
      "好不容易": 10453,
      "学者们": 10454,
      "宿舍": 10455,
      "对宇宙": 10456,
      "射程": 10457,
      "局面": 10458,
      "工件": 10459,
      "工质": 10460,
      "巨树": 10461,
      "已完全": 10462,
      "幼儿": 10463,
      "广漠": 10464,
      "应用": 10465,
      "延长": 10466,
      "引起的": 10467,
      "归宿": 10468,
      "很吃惊": 10469,
      "得不到": 10470,
      "恶化": 10471,
      "想过": 10472,
      "愉快": 10473,
      "我看": 10474,
      "我也不": 10475,
      "所致": 10476,
      "手套": 10477,
      "打伞": 10478,
      "打印": 10479,
      "打断了": 10480,
      "打招呼": 10481,
      "把你": 10482,
      "报警": 10483,
      "挖掘": 10484,
      "掩盖": 10485,
      "散去": 10486,
      "断裂": 10487,
      "无穷": 10488,
      "无言": 10489,
      "日落": 10490,
      "昆虫": 10491,
      "是为": 10492,
      "是十分": 10493,
      "是多么": 10494,
      "服装": 10495,
      "机密": 10496,
      "杯子": 10497,
      "枪管": 10498,
      "架直升机": 10499,
      "树干": 10500,
      "框架": 10501,
      "梦中的": 10502,
      "正处于": 10503,
      "死线": 10504,
      "民主": 10505,
      "沉稳": 10506,
      "沉闷": 10507,
      "法案": 10508,
      "波段": 10509,
      "海底": 10510,
      "浸泡": 10511,
      "火炮": 10512,
      "状物": 10513,
      "独自": 10514,
      "田野": 10515,
      "男人的": 10516,
      "画到": 10517,
      "白垩纪": 10518,
      "的后": 10519,
      "的情况": 10520,
      "的全部": 10521,
      "的白色": 10522,
      "的双眼": 10523,
      "的时刻": 10524,
      "的质量": 10525,
      "目的是": 10526,
      "看出了": 10527,
      "眼的": 10528,
      "着自己的": 10529,
      "硅基": 10530,
      "神圣": 10531,
      "突变": 10532,
      "笨拙": 10533,
      "等离子": 10534,
      "签字": 10535,
      "类地": 10536,
      "约为": 10537,
      "组建": 10538,
      "绍琳": 10539,
      "给人": 10540,
      "给自己": 10541,
      "缘故": 10542,
      "美元": 10543,
      "而出": 10544,
      "脚下的": 10545,
      "脸上的": 10546,
      "艾伦": 10547,
      "节选": 10548,
      "苍白": 10549,
      "融入": 10550,
      "行业": 10551,
      "衰变": 10552,
      "西装": 10553,
      "话题": 10554,
      "询问": 10555,
      "课题": 10556,
      "费用": 10557,
      "赵鑫": 10558,
      "越过了": 10559,
      "趋势": 10560,
      "跑了": 10561,
      "身穿": 10562,
      "过一次": 10563,
      "这套": 10564,
      "进而": 10565,
      "通话": 10566,
      "醒目的": 10567,
      "长发": 10568,
      "长帆": 10569,
      "门前": 10570,
      "随机": 10571,
      "难受": 10572,
      "雕塑": 10573,
      "靠着": 10574,
      "顿时": 10575,
      "飘行": 10576,
      "飞来": 10577,
      "飞越": 10578,
      "骑士": 10579,
      "高楼": 10580,
      "高空": 10581,
      "我们所": 10582,
      "什么样的": 10583,
      "现在在": 10584,
      "现在就": 10585,
      "了一段": 10586,
      "了一片": 10587,
      "可能会": 10588,
      "可能有": 10589,
      "你们看": 10590,
      "的一项": 10591,
      "人类基因": 10592,
      "程心感到": 10593,
      "宇宙速度": 10594,
      "这是在": 10595,
      "他的身体": 10596,
      "如果有": 10597,
      "三体时": 10598,
      "所有的人都": 10599,
      "是一颗": 10600,
      "很快就": 10601,
      "一次次": 10602,
      "完全是": 10603,
      "社会上": 10604,
      "应该有": 10605,
      "方向的": 10606,
      "不同的是": 10607,
      "执政委员会": 10608,
      "的光亮": 10609,
      "着一层": 10610,
      "其中有": 10611,
      "联合国的": 10612,
      "飞行的": 10613,
      "会议室": 10614,
      "不可理解": 10615,
      "武器的": 10616,
      "当时的": 10617,
      "住了他": 10618,
      "的时间里": 10619,
      "恐龙的": 10620,
      "意义上的": 10621,
      "结束时": 10622,
      "喜欢的": 10623,
      "看不见": 10624,
      "三维空间": 10625,
      "雷迪亚兹的": 10626,
      "平静地说": 10627,
      "沃恩说": 10628,
      "故事中": 10629,
      "望远镜的": 10630,
      "几十万": 10631,
      "令人难以置信": 10632,
      "了几下": 10633,
      "终端机": 10634,
      "的火光": 10635,
      "的火焰": 10636,
      "十多年前": 10637,
      "上百个": 10638,
      "日本孩子": 10639,
      "末日战役": 10640,
      "胜利的": 10641,
      "角度看": 10642,
      "在水星": 10643,
      "187J": 10644,
      "航程中": 10645,
      "保留地": 10646,
      "拍摄的": 10647,
      "安静下来": 10648,
      "打破了": 10649,
      "本质上": 10650,
      "抬起头来": 10651,
      "宏伟的": 10652,
      "１０号": 10653,
      "陆战队员": 10654,
      "完好无损": 10655,
      "拾荒者": 10656,
      "不知过了多长时间": 10657,
      "逃逸速度": 10658,
      "前所未有的": 10659,
      "攻方联盟": 10660,
      "球状闪电": 10661,
      "3X1": 10662,
      "187J3X1": 10663,
      "3C": 10664,
      "Way": 10665,
      "上没有": 10666,
      "不成": 10667,
      "不等": 10668,
      "不算": 10669,
      "不让": 10670,
      "不适合": 10671,
      "与太阳": 10672,
      "两年": 10673,
      "个儿": 10674,
      "中午": 10675,
      "也都是": 10676,
      "也可能是": 10677,
      "亚力": 10678,
      "些的": 10679,
      "交错": 10680,
      "亿光年": 10681,
      "今年": 10682,
      "从哪里": 10683,
      "他只是": 10684,
      "他看着": 10685,
      "令他们": 10686,
      "伊伯": 10687,
      "会聚": 10688,
      "传输": 10689,
      "低熵": 10690,
      "低重力": 10691,
      "住的": 10692,
      "作业": 10693,
      "你了": 10694,
      "你没有": 10695,
      "你已经": 10696,
      "你就是": 10697,
      "你好像": 10698,
      "你以为": 10699,
      "信封": 10700,
      "倒在": 10701,
      "假如": 10702,
      "兆赫": 10703,
      "光晕": 10704,
      "全世界的": 10705,
      "共有": 10706,
      "其它的": 10707,
      "冲到": 10708,
      "出去了": 10709,
      "分支": 10710,
      "到他": 10711,
      "前线": 10712,
      "十九": 10713,
      "午夜": 10714,
      "半人马座": 10715,
      "压倒": 10716,
      "压压": 10717,
      "又一个": 10718,
      "又点点头": 10719,
      "发明": 10720,
      "台球": 10721,
      "号在": 10722,
      "号是": 10723,
      "各大陆": 10724,
      "向往": 10725,
      "向我": 10726,
      "听起来": 10727,
      "和他": 10728,
      "和技术": 10729,
      "器中": 10730,
      "圆形的": 10731,
      "在沙": 10732,
      "在进入": 10733,
      "在宇宙中": 10734,
      "在里面": 10735,
      "在瞬间": 10736,
      "在银河系": 10737,
      "坐下来": 10738,
      "垂直": 10739,
      "声称": 10740,
      "外出": 10741,
      "外国": 10742,
      "大使": 10743,
      "大战": 10744,
      "大泡": 10745,
      "大环": 10746,
      "大大的": 10747,
      "天后": 10748,
      "天狼": 10749,
      "女士": 10750,
      "她把": 10751,
      "姆斯": 10752,
      "威尔": 10753,
      "宏原子": 10754,
      "宝石": 10755,
      "害的": 10756,
      "宴会": 10757,
      "对人类的": 10758,
      "导师": 10759,
      "小子": 10760,
      "局部": 10761,
      "左手": 10762,
      "干部": 10763,
      "年纪": 10764,
      "并把": 10765,
      "开车": 10766,
      "引导": 10767,
      "张力": 10768,
      "归纳": 10769,
      "当它": 10770,
      "征服": 10771,
      "得出": 10772,
      "得最": 10773,
      "心地": 10774,
      "恒定": 10775,
      "我了": 10776,
      "我感到": 10777,
      "战壕": 10778,
      "战术": 10779,
      "战胜": 10780,
      "把我们": 10781,
      "把那些": 10782,
      "抓起": 10783,
      "拉克": 10784,
      "指引": 10785,
      "挥着": 10786,
      "推动": 10787,
      "提到": 10788,
      "摆动": 10789,
      "摆摆": 10790,
      "摘下": 10791,
      "放进": 10792,
      "教皇": 10793,
      "文革": 10794,
      "新纪元": 10795,
      "方碑": 10796,
      "旧大陆": 10797,
      "时就": 10798,
      "时时": 10799,
      "星老师": 10800,
      "是指": 10801,
      "是他们": 10802,
      "是极其": 10803,
      "暖和": 10804,
      "暗的": 10805,
      "最先": 10806,
      "李维": 10807,
      "村子": 10808,
      "果儿": 10809,
      "柯伊伯": 10810,
      "标本": 10811,
      "次声波": 10812,
      "欣慰": 10813,
      "步伐": 10814,
      "比这": 10815,
      "波纹": 10816,
      "注视": 10817,
      "活了": 10818,
      "海神": 10819,
      "游泳": 10820,
      "激起": 10821,
      "灵敏": 10822,
      "照着": 10823,
      "爬上": 10824,
      "片上": 10825,
      "的状态": 10826,
      "的现实": 10827,
      "的作用": 10828,
      "的身影": 10829,
      "皇宫": 10830,
      "相撞": 10831,
      "碎了": 10832,
      "神情": 10833,
      "福全": 10834,
      "站在一": 10835,
      "竞争": 10836,
      "章节": 10837,
      "端着": 10838,
      "经常": 10839,
      "绝大部分": 10840,
      "耽误": 10841,
      "肚子": 10842,
      "至今": 10843,
      "舞蹈": 10844,
      "舰尾": 10845,
      "苗福全": 10846,
      "著名": 10847,
      "表面上": 10848,
      "被告": 10849,
      "被炸": 10850,
      "见到的": 10851,
      "观看": 10852,
      "解剖": 10853,
      "话筒": 10854,
      "请大家": 10855,
      "调节": 10856,
      "走路": 10857,
      "身体的": 10858,
      "轮值": 10859,
      "过得": 10860,
      "还需要": 10861,
      "还不知道": 10862,
      "这台": 10863,
      "这几天": 10864,
      "追上": 10865,
      "逃避": 10866,
      "途径": 10867,
      "那把": 10868,
      "邻居": 10869,
      "都有一": 10870,
      "铁镍": 10871,
      "阿拉": 10872,
      "雪地上": 10873,
      "青年": 10874,
      "面包": 10875,
      "飞散": 10876,
      "首批": 10877,
      "骑兵": 10878,
      "骨灰": 10879,
      "高于": 10880,
      "麦田": 10881,
      "黄土": 10882,
      "黑压压": 10883,
      "一个问题": 10884,
      "我们这些": 10885,
      "我们不知道": 10886,
      "他们会": 10887,
      "他们就": 10888,
      "他们中的": 10889,
      "什么呢": 10890,
      "什么也没": 10891,
      "这个计划": 10892,
      "现在他": 10893,
      "已经开始": 10894,
      "的一侧": 10895,
      "的一根": 10896,
      "的一段": 10897,
      "的一面": 10898,
      "的人说": 10899,
      "不是吗": 10900,
      "不是一个": 10901,
      "这是什么": 10902,
      "这是人类": 10903,
      "他的眼睛": 10904,
      "这种事": 10905,
      "文明测试": 10906,
      "两个小时": 10907,
      "是一场": 10908,
      "都是一个": 10909,
      "的是一个": 10910,
      "这一步": 10911,
      "在一瞬间": 10912,
      "所以我们": 10913,
      "恒星系": 10914,
      "第二卷": 10915,
      "不会有": 10916,
      "目光中": 10917,
      "二十四": 10918,
      "肯定会": 10919,
      "的光晕": 10920,
      "爆炸的": 10921,
      "像一块": 10922,
      "上帝文明": 10923,
      "联合舰队": 10924,
      "天空中的": 10925,
      "最高执政官说": 10926,
      "为什么要": 10927,
      "仍然是": 10928,
      "我是说": 10929,
      "恐龙世界": 10930,
      "代表说": 10931,
      "联合国大厦": 10932,
      "三十五": 10933,
      "三十多": 10934,
      "千米的": 10935,
      "公民的": 10936,
      "结构的": 10937,
      "一百多": 10938,
      "相当一部分": 10939,
      "恢复到": 10940,
      "基础理论": 10941,
      "维德说": 10942,
      "的高楼": 10943,
      "军官们": 10944,
      "四个世纪": 10945,
      "留下来的": 10946,
      "经历了": 10947,
      "失败了": 10948,
      "展开的": 10949,
      "参谋部": 10950,
      "燃烧的": 10951,
      "委员会的": 10952,
      "科幻小说": 10953,
      "全息图像": 10954,
      "到处都是": 10955,
      "末日之": 10956,
      "这座城市": 10957,
      "一千五百": 10958,
      "大片的": 10959,
      "八十年代": 10960,
      "面临着": 10961,
      "封闭的": 10962,
      "无论是": 10963,
      "纳米材料": 10964,
      "在这种情况下": 10965,
      "晶莹的": 10966,
      "阴影中": 10967,
      "转移到": 10968,
      "稀疏的": 10969,
      "内存中": 10970,
      "是怎么回事": 10971,
      "一动不动地": 10972,
      "无形岩": 10973,
      "倾向于": 10974,
      "M102": 10975,
      "驱逐舰": 10976,
      "在阳光下": 10977,
      "微不足道": 10978,
      "隐没于": 10979,
      "显微镜": 10980,
      "错综复杂的": 10981,
      "柯伊伯带": 10982,
      "1月": 10983,
      "5年": 10984,
      "647": 10985,
      "一亿": 10986,
      "一副": 10987,
      "一双": 10988,
      "一周": 10989,
      "一是": 10990,
      "一模": 10991,
      "上层": 10992,
      "下班": 10993,
      "不为": 10994,
      "不明": 10995,
      "不起来": 10996,
      "与自己": 10997,
      "两艘飞船": 10998,
      "严密": 10999,
      "个孩子": 11000,
      "中士": 11001,
      "中被": 11002,
      "主持": 11003,
      "主的": 11004,
      "也太": 11005,
      "也只有": 11006,
      "也没什么": 11007,
      "了进来": 11008,
      "亚里": 11009,
      "产品": 11010,
      "人儿": 11011,
      "从他们": 11012,
      "从空中": 11013,
      "他要": 11014,
      "他是个": 11015,
      "仰头": 11016,
      "众人": 11017,
      "但又": 11018,
      "但随着": 11019,
      "体力": 11020,
      "你这": 11021,
      "使我们": 11022,
      "例外": 11023,
      "倒下": 11024,
      "做过": 11025,
      "克制": 11026,
      "共产": 11027,
      "兵器": 11028,
      "冰块": 11029,
      "冲进": 11030,
      "冷战": 11031,
      "冻结": 11032,
      "几声": 11033,
      "凭借": 11034,
      "切割": 11035,
      "切断": 11036,
      "刺刀": 11037,
      "前来": 11038,
[...]
